
// This code is generated automatically, manuall changes will be overwritten.

#include "tea_fingerprint_64ch_model.h"
#include "normalization.h"
#include "mbed_toolchain.h"
#include <stdint.h>

namespace tea_fingerprint_64ch_model_namespace {
static unsigned char model_data[] = {
  0x1c, 0x00, 0x00, 0x00, 0x54, 0x46, 0x4c, 0x33, 0x00, 0x00, 0x12, 0x00,
  0x1c, 0x00, 0x04, 0x00, 0x08, 0x00, 0x0c, 0x00, 0x10, 0x00, 0x14, 0x00,
  0x00, 0x00, 0x18, 0x00, 0x12, 0x00, 0x00, 0x00, 0x03, 0x00, 0x00, 0x00,
  0xa0, 0x00, 0x00, 0x00, 0x94, 0x00, 0x00, 0x00, 0x04, 0x01, 0x00, 0x00,
  0x08, 0x00, 0x00, 0x00, 0xac, 0x00, 0x00, 0x00, 0x20, 0x00, 0x00, 0x00,
  0xf0, 0x52, 0x00, 0x00, 0xec, 0x52, 0x00, 0x00, 0xc8, 0x51, 0x00, 0x00,
  0x24, 0x51, 0x00, 0x00, 0x88, 0x50, 0x00, 0x00, 0xec, 0x4f, 0x00, 0x00,
  0x80, 0x4f, 0x00, 0x00, 0x2c, 0x37, 0x00, 0x00, 0x94, 0x36, 0x00, 0x00,
  0xfc, 0x35, 0x00, 0x00, 0x64, 0x35, 0x00, 0x00, 0xc8, 0x34, 0x00, 0x00,
  0x30, 0x34, 0x00, 0x00, 0x94, 0x33, 0x00, 0x00, 0x78, 0x2f, 0x00, 0x00,
  0x98, 0x18, 0x00, 0x00, 0xf8, 0x0c, 0x00, 0x00, 0xac, 0x52, 0x00, 0x00,
  0xa8, 0x52, 0x00, 0x00, 0xa4, 0x52, 0x00, 0x00, 0xa0, 0x52, 0x00, 0x00,
  0x9c, 0x52, 0x00, 0x00, 0x98, 0x52, 0x00, 0x00, 0x94, 0x52, 0x00, 0x00,
  0x90, 0x52, 0x00, 0x00, 0x8c, 0x52, 0x00, 0x00, 0x88, 0x52, 0x00, 0x00,
  0x84, 0x52, 0x00, 0x00, 0x80, 0x52, 0x00, 0x00, 0x7c, 0x52, 0x00, 0x00,
  0x78, 0x52, 0x00, 0x00, 0x5c, 0x00, 0x00, 0x00, 0x01, 0x00, 0x00, 0x00,
  0x94, 0x00, 0x00, 0x00, 0x06, 0x00, 0x00, 0x00, 0xb4, 0x0b, 0x00, 0x00,
  0xc4, 0x0a, 0x00, 0x00, 0xfc, 0x09, 0x00, 0x00, 0x44, 0x09, 0x00, 0x00,
  0x28, 0x02, 0x00, 0x00, 0xa4, 0x01, 0x00, 0x00, 0x01, 0x00, 0x00, 0x00,
  0x0c, 0x00, 0x00, 0x00, 0x08, 0x00, 0x0c, 0x00, 0x04, 0x00, 0x08, 0x00,
  0x08, 0x00, 0x00, 0x00, 0x08, 0x00, 0x00, 0x00, 0x1f, 0x00, 0x00, 0x00,
  0x13, 0x00, 0x00, 0x00, 0x6d, 0x69, 0x6e, 0x5f, 0x72, 0x75, 0x6e, 0x74,
  0x69, 0x6d, 0x65, 0x5f, 0x76, 0x65, 0x72, 0x73, 0x69, 0x6f, 0x6e, 0x00,
  0x0e, 0xaf, 0xff, 0xff, 0x04, 0x00, 0x00, 0x00, 0x10, 0x00, 0x00, 0x00,
  0x31, 0x2e, 0x35, 0x2e, 0x30, 0x00, 0x00, 0x00, 0x00, 0x00, 0x00, 0x00,
  0x00, 0x00, 0x00, 0x00, 0x0f, 0x00, 0x00, 0x00, 0x4d, 0x4c, 0x49, 0x52,
  0x20, 0x43, 0x6f, 0x6e, 0x76, 0x65, 0x72, 0x74, 0x65, 0x64, 0x2e, 0x00,
  0x00, 0x00, 0x0e, 0x00, 0x18, 0x00, 0x04, 0x00, 0x08, 0x00, 0x0c, 0x00,
  0x10, 0x00, 0x14, 0x00, 0x0e, 0x00, 0x00, 0x00, 0x6c, 0x00, 0x00, 0x00,
  0x60, 0x00, 0x00, 0x00, 0x54, 0x00, 0x00, 0x00, 0x14, 0x00, 0x00, 0x00,
  0x04, 0x00, 0x00, 0x00, 0x04, 0x00, 0x00, 0x00, 0x6d, 0x61, 0x69, 0x6e,
  0x00, 0x00, 0x00, 0x00, 0x0e, 0x00, 0x00, 0x00, 0xac, 0x0a, 0x00, 0x00,
  0xe0, 0x09, 0x00, 0x00, 0x0c, 0x09, 0x00, 0x00, 0x44, 0x08, 0x00, 0x00,
  0x00, 0x07, 0x00, 0x00, 0x4c, 0x06, 0x00, 0x00, 0x98, 0x05, 0x00, 0x00,
  0xe8, 0x04, 0x00, 0x00, 0xd4, 0x03, 0x00, 0x00, 0x20, 0x03, 0x00, 0x00,
  0x6c, 0x02, 0x00, 0x00, 0xbc, 0x01, 0x00, 0x00, 0x30, 0x01, 0x00, 0x00,
  0x90, 0x00, 0x00, 0x00, 0x01, 0x00, 0x00, 0x00, 0x1d, 0x00, 0x00, 0x00,
  0x01, 0x00, 0x00, 0x00, 0x00, 0x00, 0x00, 0x00, 0x1e, 0x00, 0x00, 0x00,
  0x10, 0x51, 0x00, 0x00, 0x9c, 0x50, 0x00, 0x00, 0xd8, 0x4f, 0x00, 0x00,
  0x3c, 0x4f, 0x00, 0x00, 0xa0, 0x4e, 0x00, 0x00, 0x1c, 0x4e, 0x00, 0x00,
  0xb0, 0x4d, 0x00, 0x00, 0x48, 0x35, 0x00, 0x00, 0xb0, 0x34, 0x00, 0x00,
  0x18, 0x34, 0x00, 0x00, 0x7c, 0x33, 0x00, 0x00, 0xe4, 0x32, 0x00, 0x00,
  0x48, 0x32, 0x00, 0x00, 0xbc, 0x31, 0x00, 0x00, 0x9c, 0x2d, 0x00, 0x00,
  0xbc, 0x16, 0x00, 0x00, 0x80, 0x0a, 0x00, 0x00, 0x90, 0x09, 0x00, 0x00,
  0xc4, 0x08, 0x00, 0x00, 0x10, 0x08, 0x00, 0x00, 0xb0, 0x06, 0x00, 0x00,
  0xf0, 0x05, 0x00, 0x00, 0x3c, 0x05, 0x00, 0x00, 0x98, 0x04, 0x00, 0x00,
  0x84, 0x03, 0x00, 0x00, 0xc4, 0x02, 0x00, 0x00, 0x10, 0x02, 0x00, 0x00,
  0x6c, 0x01, 0x00, 0x00, 0xd4, 0x00, 0x00, 0x00, 0x50, 0x00, 0x00, 0x00,
  0x82, 0xf8, 0xff, 0xff, 0x00, 0x00, 0x00, 0x08, 0x05, 0x00, 0x00, 0x00,
  0x24, 0x00, 0x00, 0x00, 0x18, 0x00, 0x00, 0x00, 0x0c, 0x00, 0x00, 0x00,
  0x00, 0x00, 0x06, 0x00, 0x08, 0x00, 0x07, 0x00, 0x06, 0x00, 0x00, 0x00,
  0x00, 0x00, 0x00, 0x01, 0x01, 0x00, 0x00, 0x00, 0x1d, 0x00, 0x00, 0x00,
  0x03, 0x00, 0x00, 0x00, 0x1c, 0x00, 0x00, 0x00, 0x06, 0x00, 0x00, 0x00,
  0x01, 0x00, 0x00, 0x00, 0x0e, 0xf6, 0xff, 0xff, 0x00, 0x00, 0x00, 0x09,
  0x01, 0x00, 0x00, 0x00, 0xc8, 0xaf, 0xff, 0xff, 0x30, 0x00, 0x00, 0x00,
  0x1e, 0x00, 0x00, 0x00, 0x18, 0x00, 0x00, 0x00, 0x30, 0x00, 0x00, 0x00,
  0x04, 0x00, 0x00, 0x00, 0x02, 0x00, 0x00, 0x00, 0xff, 0xff, 0xff, 0xff,
  0x10, 0x00, 0x00, 0x00, 0x08, 0x00, 0x00, 0x00, 0x49, 0x64, 0x65, 0x6e,
  0x74, 0x69, 0x74, 0x79, 0x00, 0x00, 0x00, 0x00, 0x02, 0x00, 0x00, 0x00,
  0x01, 0x00, 0x00, 0x00, 0x10, 0x00, 0x00, 0x00, 0xd0, 0xb0, 0xff, 0xff,
  0x00, 0x00, 0x0a, 0x00, 0x10, 0x00, 0x04, 0x00, 0x08, 0x00, 0x0c, 0x00,
  0x0a, 0x00, 0x00, 0x00, 0x04, 0x00, 0x00, 0x00, 0x10, 0x00, 0x00, 0x00,
  0x04, 0x00, 0x00, 0x00, 0x01, 0x00, 0x00, 0x00, 0x1c, 0x00, 0x00, 0x00,
  0x02, 0x00, 0x00, 0x00, 0x1b, 0x00, 0x00, 0x00, 0x05, 0x00, 0x00, 0x00,
  0x8e, 0xf6, 0xff, 0xff, 0x00, 0x00, 0x00, 0x16, 0x01, 0x00, 0x00, 0x00,
  0x48, 0xb0, 0xff, 0xff, 0x44, 0x00, 0x00, 0x00, 0x1d, 0x00, 0x00, 0x00,
  0x18, 0x00, 0x00, 0x00, 0x44, 0x00, 0x00, 0x00, 0x04, 0x00, 0x00, 0x00,
  0x02, 0x00, 0x00, 0x00, 0xff, 0xff, 0xff, 0xff, 0x60, 0x00, 0x00, 0x00,
  0x1c, 0x00, 0x00, 0x00, 0x66, 0x75, 0x6e, 0x63, 0x74, 0x69, 0x6f, 0x6e,
  0x61, 0x6c, 0x5f, 0x31, 0x2f, 0x66, 0x6c, 0x61, 0x74, 0x74, 0x65, 0x6e,
  0x2f, 0x52, 0x65, 0x73, 0x68, 0x61, 0x70, 0x65, 0x00, 0x00, 0x00, 0x00,
  0x02, 0x00, 0x00, 0x00, 0x01, 0x00, 0x00, 0x00, 0x60, 0x00, 0x00, 0x00,
  0x38, 0xb0, 0xff, 0xff, 0x12, 0xf8, 0xff, 0xff, 0x00, 0x00, 0x00, 0x05,
  0x03, 0x00, 0x00, 0x00, 0x28, 0x00, 0x00, 0x00, 0x1c, 0x00, 0x00, 0x00,
  0x04, 0x00, 0x00, 0x00, 0x96, 0xf9, 0xff, 0xff, 0x02, 0x00, 0x00, 0x00,
  0x02, 0x00, 0x00, 0x00, 0x01, 0x00, 0x00, 0x00, 0x01, 0x00, 0x00, 0x00,
  0x01, 0x00, 0x00, 0x00, 0x1b, 0x00, 0x00, 0x00, 0x01, 0x00, 0x00, 0x00,
  0x1a, 0x00, 0x00, 0x00, 0xdc, 0xb0, 0xff, 0xff, 0x54, 0x00, 0x00, 0x00,
  0x1c, 0x00, 0x00, 0x00, 0x20, 0x00, 0x00, 0x00, 0x5c, 0x00, 0x00, 0x00,
  0x04, 0x00, 0x00, 0x00, 0x04, 0x00, 0x00, 0x00, 0xff, 0xff, 0xff, 0xff,
  0x01, 0x00, 0x00, 0x00, 0x08, 0x00, 0x00, 0x00, 0x0c, 0x00, 0x00, 0x00,
  0x24, 0x00, 0x00, 0x00, 0x66, 0x75, 0x6e, 0x63, 0x74, 0x69, 0x6f, 0x6e,
  0x61, 0x6c, 0x5f, 0x31, 0x2f, 0x6d, 0x61, 0x78, 0x5f, 0x70, 0x6f, 0x6f,
  0x6c, 0x69, 0x6e, 0x67, 0x32, 0x64, 0x5f, 0x32, 0x2f, 0x4d, 0x61, 0x78,
  0x50, 0x6f, 0x6f, 0x6c, 0x00, 0x00, 0x00, 0x00, 0x04, 0x00, 0x00, 0x00,
  0x01, 0x00, 0x00, 0x00, 0x01, 0x00, 0x00, 0x00, 0x08, 0x00, 0x00, 0x00,
  0x0c, 0x00, 0x00, 0x00, 0xe4, 0xb0, 0xff, 0xff, 0xbe, 0xf8, 0xff, 0xff,
  0x00, 0x00, 0x00, 0x0b, 0x02, 0x00, 0x00, 0x00, 0x18, 0x00, 0x00, 0x00,
  0x0c, 0x00, 0x00, 0x00, 0x04, 0x00, 0x00, 0x00, 0x00, 0xb1, 0xff, 0xff,
  0x01, 0x00, 0x00, 0x00, 0x1a, 0x00, 0x00, 0x00, 0x02, 0x00, 0x00, 0x00,
  0x19, 0x00, 0x00, 0x00, 0x0b, 0x00, 0x00, 0x00, 0x7c, 0xb1, 0xff, 0xff,
  0x64, 0x00, 0x00, 0x00, 0x1b, 0x00, 0x00, 0x00, 0x20, 0x00, 0x00, 0x00,
  0x6c, 0x00, 0x00, 0x00, 0x04, 0x00, 0x00, 0x00, 0x04, 0x00, 0x00, 0x00,
  0xff, 0xff, 0xff, 0xff, 0x01, 0x00, 0x00, 0x00, 0x08, 0x00, 0x00, 0x00,
  0x0c, 0x00, 0x00, 0x00, 0x34, 0x00, 0x00, 0x00, 0x66, 0x75, 0x6e, 0x63,
  0x74, 0x69, 0x6f, 0x6e, 0x61, 0x6c, 0x5f, 0x31, 0x2f, 0x62, 0x61, 0x74,
  0x63, 0x68, 0x5f, 0x6e, 0x6f, 0x72, 0x6d, 0x61, 0x6c, 0x69, 0x7a, 0x61,
  0x74, 0x69, 0x6f, 0x6e, 0x5f, 0x32, 0x2f, 0x46, 0x75, 0x73, 0x65, 0x64,
  0x42, 0x61, 0x74, 0x63, 0x68, 0x4e, 0x6f, 0x72, 0x6d, 0x56, 0x33, 0x33,
  0x00, 0x00, 0x00, 0x00, 0x04, 0x00, 0x00, 0x00, 0x01, 0x00, 0x00, 0x00,
  0x01, 0x00, 0x00, 0x00, 0x08, 0x00, 0x00, 0x00, 0x0c, 0x00, 0x00, 0x00,
  0x94, 0xb1, 0xff, 0xff, 0x6e, 0xf9, 0xff, 0xff, 0x00, 0x00, 0x00, 0x15,
  0x01, 0x00, 0x00, 0x00, 0x18, 0x00, 0x00, 0x00, 0x0c, 0x00, 0x00, 0x00,
  0x04, 0x00, 0x00, 0x00, 0xb0, 0xb1, 0xff, 0xff, 0x01, 0x00, 0x00, 0x00,
  0x19, 0x00, 0x00, 0x00, 0x02, 0x00, 0x00, 0x00, 0x18, 0x00, 0x00, 0x00,
  0x0c, 0x00, 0x00, 0x00, 0x2c, 0xb2, 0xff, 0xff, 0x64, 0x00, 0x00, 0x00,
  0x1a, 0x00, 0x00, 0x00, 0x20, 0x00, 0x00, 0x00, 0x6c, 0x00, 0x00, 0x00,
  0x04, 0x00, 0x00, 0x00, 0x04, 0x00, 0x00, 0x00, 0xff, 0xff, 0xff, 0xff,
  0x01, 0x00, 0x00, 0x00, 0x08, 0x00, 0x00, 0x00, 0x0c, 0x00, 0x00, 0x00,
  0x34, 0x00, 0x00, 0x00, 0x66, 0x75, 0x6e, 0x63, 0x74, 0x69, 0x6f, 0x6e,
  0x61, 0x6c, 0x5f, 0x31, 0x2f, 0x62, 0x61, 0x74, 0x63, 0x68, 0x5f, 0x6e,
  0x6f, 0x72, 0x6d, 0x61, 0x6c, 0x69, 0x7a, 0x61, 0x74, 0x69, 0x6f, 0x6e,
  0x5f, 0x32, 0x2f, 0x46, 0x75, 0x73, 0x65, 0x64, 0x42, 0x61, 0x74, 0x63,
  0x68, 0x4e, 0x6f, 0x72, 0x6d, 0x56, 0x33, 0x32, 0x00, 0x00, 0x00, 0x00,
  0x04, 0x00, 0x00, 0x00, 0x01, 0x00, 0x00, 0x00, 0x01, 0x00, 0x00, 0x00,
  0x08, 0x00, 0x00, 0x00, 0x0c, 0x00, 0x00, 0x00, 0x44, 0xb2, 0xff, 0xff,
  0x56, 0xf9, 0xff, 0xff, 0x00, 0x00, 0x00, 0x01, 0x24, 0x00, 0x00, 0x00,
  0x18, 0x00, 0x00, 0x00, 0x04, 0x00, 0x00, 0x00, 0x48, 0xf9, 0xff, 0xff,
  0x02, 0x00, 0x00, 0x00, 0x02, 0x00, 0x00, 0x00, 0x00, 0x00, 0x00, 0x01,
  0x01, 0x00, 0x00, 0x00, 0x18, 0x00, 0x00, 0x00, 0x03, 0x00, 0x00, 0x00,
  0x17, 0x00, 0x00, 0x00, 0x0f, 0x00, 0x00, 0x00, 0x04, 0x00, 0x00, 0x00,
  0xe8, 0xb2, 0xff, 0xff, 0xb8, 0x00, 0x00, 0x00, 0x19, 0x00, 0x00, 0x00,
  0x20, 0x00, 0x00, 0x00, 0xc0, 0x00, 0x00, 0x00, 0x04, 0x00, 0x00, 0x00,
  0x04, 0x00, 0x00, 0x00, 0xff, 0xff, 0xff, 0xff, 0x01, 0x00, 0x00, 0x00,
  0x08, 0x00, 0x00, 0x00, 0x0c, 0x00, 0x00, 0x00, 0x8b, 0x00, 0x00, 0x00,
  0x66, 0x75, 0x6e, 0x63, 0x74, 0x69, 0x6f, 0x6e, 0x61, 0x6c, 0x5f, 0x31,
  0x2f, 0x63, 0x6f, 0x6e, 0x76, 0x32, 0x64, 0x5f, 0x32, 0x2f, 0x52, 0x65,
  0x6c, 0x75, 0x3b, 0x66, 0x75, 0x6e, 0x63, 0x74, 0x69, 0x6f, 0x6e, 0x61,
  0x6c, 0x5f, 0x31, 0x2f, 0x63, 0x6f, 0x6e, 0x76, 0x32, 0x64, 0x5f, 0x32,
  0x2f, 0x42, 0x69, 0x61, 0x73, 0x41, 0x64, 0x64, 0x3b, 0x66, 0x75, 0x6e,
  0x63, 0x74, 0x69, 0x6f, 0x6e, 0x61, 0x6c, 0x5f, 0x31, 0x2f, 0x63, 0x6f,
  0x6e, 0x76, 0x32, 0x64, 0x5f, 0x32, 0x2f, 0x43, 0x6f, 0x6e, 0x76, 0x32,
  0x44, 0x3b, 0x66, 0x75, 0x6e, 0x63, 0x74, 0x69, 0x6f, 0x6e, 0x61, 0x6c,
  0x5f, 0x31, 0x2f, 0x63, 0x6f, 0x6e, 0x76, 0x32, 0x64, 0x5f, 0x32, 0x2f,
  0x42, 0x69, 0x61, 0x73, 0x41, 0x64, 0x64, 0x2f, 0x52, 0x65, 0x61, 0x64,
  0x56, 0x61, 0x72, 0x69, 0x61, 0x62, 0x6c, 0x65, 0x4f, 0x70, 0x2f, 0x72,
  0x65, 0x73, 0x6f, 0x75, 0x72, 0x63, 0x65, 0x00, 0x04, 0x00, 0x00, 0x00,
  0x01, 0x00, 0x00, 0x00, 0x01, 0x00, 0x00, 0x00, 0x08, 0x00, 0x00, 0x00,
  0x0c, 0x00, 0x00, 0x00, 0x54, 0xb3, 0xff, 0xff, 0x2e, 0xfb, 0xff, 0xff,
  0x00, 0x00, 0x00, 0x05, 0x03, 0x00, 0x00, 0x00, 0x28, 0x00, 0x00, 0x00,
  0x1c, 0x00, 0x00, 0x00, 0x04, 0x00, 0x00, 0x00, 0xb2, 0xfc, 0xff, 0xff,
  0x02, 0x00, 0x00, 0x00, 0x02, 0x00, 0x00, 0x00, 0x01, 0x00, 0x00, 0x00,
  0x01, 0x00, 0x00, 0x00, 0x01, 0x00, 0x00, 0x00, 0x17, 0x00, 0x00, 0x00,
  0x01, 0x00, 0x00, 0x00, 0x16, 0x00, 0x00, 0x00, 0xf8, 0xb3, 0xff, 0xff,
  0x54, 0x00, 0x00, 0x00, 0x18, 0x00, 0x00, 0x00, 0x20, 0x00, 0x00, 0x00,
  0x5c, 0x00, 0x00, 0x00, 0x04, 0x00, 0x00, 0x00, 0x04, 0x00, 0x00, 0x00,
  0xff, 0xff, 0xff, 0xff, 0x01, 0x00, 0x00, 0x00, 0x10, 0x00, 0x00, 0x00,
  0x0c, 0x00, 0x00, 0x00, 0x24, 0x00, 0x00, 0x00, 0x66, 0x75, 0x6e, 0x63,
  0x74, 0x69, 0x6f, 0x6e, 0x61, 0x6c, 0x5f, 0x31, 0x2f, 0x6d, 0x61, 0x78,
  0x5f, 0x70, 0x6f, 0x6f, 0x6c, 0x69, 0x6e, 0x67, 0x32, 0x64, 0x5f, 0x31,
  0x2f, 0x4d, 0x61, 0x78, 0x50, 0x6f, 0x6f, 0x6c, 0x00, 0x00, 0x00, 0x00,
  0x04, 0x00, 0x00, 0x00, 0x01, 0x00, 0x00, 0x00, 0x01, 0x00, 0x00, 0x00,
  0x10, 0x00, 0x00, 0x00, 0x0c, 0x00, 0x00, 0x00, 0x00, 0xb4, 0xff, 0xff,
  0xda, 0xfb, 0xff, 0xff, 0x00, 0x00, 0x00, 0x0b, 0x02, 0x00, 0x00, 0x00,
  0x18, 0x00, 0x00, 0x00, 0x0c, 0x00, 0x00, 0x00, 0x04, 0x00, 0x00, 0x00,
  0x1c, 0xb4, 0xff, 0xff, 0x01, 0x00, 0x00, 0x00, 0x16, 0x00, 0x00, 0x00,
  0x02, 0x00, 0x00, 0x00, 0x15, 0x00, 0x00, 0x00, 0x09, 0x00, 0x00, 0x00,
  0x98, 0xb4, 0xff, 0xff, 0x64, 0x00, 0x00, 0x00, 0x17, 0x00, 0x00, 0x00,
  0x20, 0x00, 0x00, 0x00, 0x6c, 0x00, 0x00, 0x00, 0x04, 0x00, 0x00, 0x00,
  0x04, 0x00, 0x00, 0x00, 0xff, 0xff, 0xff, 0xff, 0x01, 0x00, 0x00, 0x00,
  0x10, 0x00, 0x00, 0x00, 0x0c, 0x00, 0x00, 0x00, 0x34, 0x00, 0x00, 0x00,
  0x66, 0x75, 0x6e, 0x63, 0x74, 0x69, 0x6f, 0x6e, 0x61, 0x6c, 0x5f, 0x31,
  0x2f, 0x62, 0x61, 0x74, 0x63, 0x68, 0x5f, 0x6e, 0x6f, 0x72, 0x6d, 0x61,
  0x6c, 0x69, 0x7a, 0x61, 0x74, 0x69, 0x6f, 0x6e, 0x5f, 0x31, 0x2f, 0x46,
  0x75, 0x73, 0x65, 0x64, 0x42, 0x61, 0x74, 0x63, 0x68, 0x4e, 0x6f, 0x72,
  0x6d, 0x56, 0x33, 0x33, 0x00, 0x00, 0x00, 0x00, 0x04, 0x00, 0x00, 0x00,
  0x01, 0x00, 0x00, 0x00, 0x01, 0x00, 0x00, 0x00, 0x10, 0x00, 0x00, 0x00,
  0x0c, 0x00, 0x00, 0x00, 0xb0, 0xb4, 0xff, 0xff, 0x8a, 0xfc, 0xff, 0xff,
  0x00, 0x00, 0x00, 0x15, 0x01, 0x00, 0x00, 0x00, 0x18, 0x00, 0x00, 0x00,
  0x0c, 0x00, 0x00, 0x00, 0x04, 0x00, 0x00, 0x00, 0xcc, 0xb4, 0xff, 0xff,
  0x01, 0x00, 0x00, 0x00, 0x15, 0x00, 0x00, 0x00, 0x02, 0x00, 0x00, 0x00,
  0x14, 0x00, 0x00, 0x00, 0x0a, 0x00, 0x00, 0x00, 0x48, 0xb5, 0xff, 0xff,
  0x64, 0x00, 0x00, 0x00, 0x16, 0x00, 0x00, 0x00, 0x20, 0x00, 0x00, 0x00,
  0x6c, 0x00, 0x00, 0x00, 0x04, 0x00, 0x00, 0x00, 0x04, 0x00, 0x00, 0x00,
  0xff, 0xff, 0xff, 0xff, 0x01, 0x00, 0x00, 0x00, 0x10, 0x00, 0x00, 0x00,
  0x0c, 0x00, 0x00, 0x00, 0x34, 0x00, 0x00, 0x00, 0x66, 0x75, 0x6e, 0x63,
  0x74, 0x69, 0x6f, 0x6e, 0x61, 0x6c, 0x5f, 0x31, 0x2f, 0x62, 0x61, 0x74,
  0x63, 0x68, 0x5f, 0x6e, 0x6f, 0x72, 0x6d, 0x61, 0x6c, 0x69, 0x7a, 0x61,
  0x74, 0x69, 0x6f, 0x6e, 0x5f, 0x31, 0x2f, 0x46, 0x75, 0x73, 0x65, 0x64,
  0x42, 0x61, 0x74, 0x63, 0x68, 0x4e, 0x6f, 0x72, 0x6d, 0x56, 0x33, 0x32,
  0x00, 0x00, 0x00, 0x00, 0x04, 0x00, 0x00, 0x00, 0x01, 0x00, 0x00, 0x00,
  0x01, 0x00, 0x00, 0x00, 0x10, 0x00, 0x00, 0x00, 0x0c, 0x00, 0x00, 0x00,
  0x60, 0xb5, 0xff, 0xff, 0x72, 0xfc, 0xff, 0xff, 0x00, 0x00, 0x00, 0x01,
  0x24, 0x00, 0x00, 0x00, 0x18, 0x00, 0x00, 0x00, 0x04, 0x00, 0x00, 0x00,
  0x64, 0xfc, 0xff, 0xff, 0x02, 0x00, 0x00, 0x00, 0x02, 0x00, 0x00, 0x00,
  0x00, 0x00, 0x00, 0x01, 0x01, 0x00, 0x00, 0x00, 0x14, 0x00, 0x00, 0x00,
  0x03, 0x00, 0x00, 0x00, 0x13, 0x00, 0x00, 0x00, 0x0e, 0x00, 0x00, 0x00,
  0x03, 0x00, 0x00, 0x00, 0x04, 0xb6, 0xff, 0xff, 0xd8, 0x00, 0x00, 0x00,
  0x15, 0x00, 0x00, 0x00, 0x20, 0x00, 0x00, 0x00, 0xe0, 0x00, 0x00, 0x00,
  0x04, 0x00, 0x00, 0x00, 0x04, 0x00, 0x00, 0x00, 0xff, 0xff, 0xff, 0xff,
  0x01, 0x00, 0x00, 0x00, 0x10, 0x00, 0x00, 0x00, 0x0c, 0x00, 0x00, 0x00,
  0xa8, 0x00, 0x00, 0x00, 0x66, 0x75, 0x6e, 0x63, 0x74, 0x69, 0x6f, 0x6e,
  0x61, 0x6c, 0x5f, 0x31, 0x2f, 0x63, 0x6f, 0x6e, 0x76, 0x32, 0x64, 0x5f,
  0x31, 0x2f, 0x52, 0x65, 0x6c, 0x75, 0x3b, 0x66, 0x75, 0x6e, 0x63, 0x74,
  0x69, 0x6f, 0x6e, 0x61, 0x6c, 0x5f, 0x31, 0x2f, 0x63, 0x6f, 0x6e, 0x76,
  0x32, 0x64, 0x5f, 0x31, 0x2f, 0x42, 0x69, 0x61, 0x73, 0x41, 0x64, 0x64,
  0x3b, 0x66, 0x75, 0x6e, 0x63, 0x74, 0x69, 0x6f, 0x6e, 0x61, 0x6c, 0x5f,
  0x31, 0x2f, 0x63, 0x6f, 0x6e, 0x76, 0x32, 0x64, 0x5f, 0x32, 0x2f, 0x43,
  0x6f, 0x6e, 0x76, 0x32, 0x44, 0x3b, 0x66, 0x75, 0x6e, 0x63, 0x74, 0x69,
  0x6f, 0x6e, 0x61, 0x6c, 0x5f, 0x31, 0x2f, 0x63, 0x6f, 0x6e, 0x76, 0x32,
  0x64, 0x5f, 0x31, 0x2f, 0x43, 0x6f, 0x6e, 0x76, 0x32, 0x44, 0x3b, 0x66,
  0x75, 0x6e, 0x63, 0x74, 0x69, 0x6f, 0x6e, 0x61, 0x6c, 0x5f, 0x31, 0x2f,
  0x63, 0x6f, 0x6e, 0x76, 0x32, 0x64, 0x5f, 0x31, 0x2f, 0x42, 0x69, 0x61,
  0x73, 0x41, 0x64, 0x64, 0x2f, 0x52, 0x65, 0x61, 0x64, 0x56, 0x61, 0x72,
  0x69, 0x61, 0x62, 0x6c, 0x65, 0x4f, 0x70, 0x2f, 0x72, 0x65, 0x73, 0x6f,
  0x75, 0x72, 0x63, 0x65, 0x00, 0x00, 0x00, 0x00, 0x04, 0x00, 0x00, 0x00,
  0x01, 0x00, 0x00, 0x00, 0x01, 0x00, 0x00, 0x00, 0x10, 0x00, 0x00, 0x00,
  0x0c, 0x00, 0x00, 0x00, 0xbc, 0xb7, 0xff, 0xff, 0x00, 0x00, 0x0e, 0x00,
  0x1a, 0x00, 0x08, 0x00, 0x0c, 0x00, 0x10, 0x00, 0x07, 0x00, 0x14, 0x00,
  0x0e, 0x00, 0x00, 0x00, 0x00, 0x00, 0x00, 0x05, 0x03, 0x00, 0x00, 0x00,
  0x38, 0x00, 0x00, 0x00, 0x2c, 0x00, 0x00, 0x00, 0x14, 0x00, 0x00, 0x00,
  0x00, 0x00, 0x0e, 0x00, 0x14, 0x00, 0x00, 0x00, 0x10, 0x00, 0x0c, 0x00,
  0x08, 0x00, 0x04, 0x00, 0x0e, 0x00, 0x00, 0x00, 0x02, 0x00, 0x00, 0x00,
  0x02, 0x00, 0x00, 0x00, 0x01, 0x00, 0x00, 0x00, 0x01, 0x00, 0x00, 0x00,
  0x01, 0x00, 0x00, 0x00, 0x13, 0x00, 0x00, 0x00, 0x01, 0x00, 0x00, 0x00,
  0x12, 0x00, 0x00, 0x00, 0xa6, 0xfd, 0xff, 0xff, 0x00, 0x00, 0x00, 0x11,
  0x01, 0x00, 0x00, 0x00, 0x60, 0xb7, 0xff, 0xff, 0x50, 0x00, 0x00, 0x00,
  0x14, 0x00, 0x00, 0x00, 0x20, 0x00, 0x00, 0x00, 0x58, 0x00, 0x00, 0x00,
  0x04, 0x00, 0x00, 0x00, 0x04, 0x00, 0x00, 0x00, 0xff, 0xff, 0xff, 0xff,
  0x01, 0x00, 0x00, 0x00, 0x20, 0x00, 0x00, 0x00, 0x0c, 0x00, 0x00, 0x00,
  0x22, 0x00, 0x00, 0x00, 0x66, 0x75, 0x6e, 0x63, 0x74, 0x69, 0x6f, 0x6e,
  0x61, 0x6c, 0x5f, 0x31, 0x2f, 0x6d, 0x61, 0x78, 0x5f, 0x70, 0x6f, 0x6f,
  0x6c, 0x69, 0x6e, 0x67, 0x32, 0x64, 0x2f, 0x4d, 0x61, 0x78, 0x50, 0x6f,
  0x6f, 0x6c, 0x00, 0x00, 0x04, 0x00, 0x00, 0x00, 0x01, 0x00, 0x00, 0x00,
  0x01, 0x00, 0x00, 0x00, 0x20, 0x00, 0x00, 0x00, 0x0c, 0x00, 0x00, 0x00,
  0x64, 0xb7, 0xff, 0xff, 0x3e, 0xff, 0xff, 0xff, 0x00, 0x00, 0x00, 0x0b,
  0x02, 0x00, 0x00, 0x00, 0x18, 0x00, 0x00, 0x00, 0x0c, 0x00, 0x00, 0x00,
  0x04, 0x00, 0x00, 0x00, 0x80, 0xb7, 0xff, 0xff, 0x01, 0x00, 0x00, 0x00,
  0x12, 0x00, 0x00, 0x00, 0x02, 0x00, 0x00, 0x00, 0x11, 0x00, 0x00, 0x00,
  0x07, 0x00, 0x00, 0x00, 0x00, 0x00, 0x0a, 0x00, 0x08, 0x00, 0x00, 0x00,
  0x00, 0x00, 0x04, 0x00, 0x0a, 0x00, 0x00, 0x00, 0x01, 0x00, 0x00, 0x00,
  0x10, 0xb8, 0xff, 0xff, 0x60, 0x00, 0x00, 0x00, 0x13, 0x00, 0x00, 0x00,
  0x20, 0x00, 0x00, 0x00, 0x68, 0x00, 0x00, 0x00, 0x04, 0x00, 0x00, 0x00,
  0x04, 0x00, 0x00, 0x00, 0xff, 0xff, 0xff, 0xff, 0x01, 0x00, 0x00, 0x00,
  0x20, 0x00, 0x00, 0x00, 0x0c, 0x00, 0x00, 0x00, 0x32, 0x00, 0x00, 0x00,
  0x66, 0x75, 0x6e, 0x63, 0x74, 0x69, 0x6f, 0x6e, 0x61, 0x6c, 0x5f, 0x31,
  0x2f, 0x62, 0x61, 0x74, 0x63, 0x68, 0x5f, 0x6e, 0x6f, 0x72, 0x6d, 0x61,
  0x6c, 0x69, 0x7a, 0x61, 0x74, 0x69, 0x6f, 0x6e, 0x2f, 0x46, 0x75, 0x73,
  0x65, 0x64, 0x42, 0x61, 0x74, 0x63, 0x68, 0x4e, 0x6f, 0x72, 0x6d, 0x56,
  0x33, 0x33, 0x00, 0x00, 0x04, 0x00, 0x00, 0x00, 0x01, 0x00, 0x00, 0x00,
  0x01, 0x00, 0x00, 0x00, 0x20, 0x00, 0x00, 0x00, 0x0c, 0x00, 0x00, 0x00,
  0x50, 0xb9, 0xff, 0xff, 0x00, 0x00, 0x0e, 0x00, 0x18, 0x00, 0x08, 0x00,
  0x0c, 0x00, 0x10, 0x00, 0x07, 0x00, 0x14, 0x00, 0x0e, 0x00, 0x00, 0x00,
  0x00, 0x00, 0x00, 0x15, 0x01, 0x00, 0x00, 0x00, 0x18, 0x00, 0x00, 0x00,
  0x0c, 0x00, 0x00, 0x00, 0x04, 0x00, 0x00, 0x00, 0x50, 0xb8, 0xff, 0xff,
  0x01, 0x00, 0x00, 0x00, 0x11, 0x00, 0x00, 0x00, 0x02, 0x00, 0x00, 0x00,
  0x10, 0x00, 0x00, 0x00, 0x08, 0x00, 0x00, 0x00, 0x1e, 0xff, 0xff, 0xff,
  0x00, 0x00, 0x00, 0x12, 0x01, 0x00, 0x00, 0x00, 0xd8, 0xb8, 0xff, 0xff,
  0x60, 0x00, 0x00, 0x00, 0x12, 0x00, 0x00, 0x00, 0x20, 0x00, 0x00, 0x00,
  0x68, 0x00, 0x00, 0x00, 0x04, 0x00, 0x00, 0x00, 0x04, 0x00, 0x00, 0x00,
  0xff, 0xff, 0xff, 0xff, 0x01, 0x00, 0x00, 0x00, 0x20, 0x00, 0x00, 0x00,
  0x0c, 0x00, 0x00, 0x00, 0x32, 0x00, 0x00, 0x00, 0x66, 0x75, 0x6e, 0x63,
  0x74, 0x69, 0x6f, 0x6e, 0x61, 0x6c, 0x5f, 0x31, 0x2f, 0x62, 0x61, 0x74,
  0x63, 0x68, 0x5f, 0x6e, 0x6f, 0x72, 0x6d, 0x61, 0x6c, 0x69, 0x7a, 0x61,
  0x74, 0x69, 0x6f, 0x6e, 0x2f, 0x46, 0x75, 0x73, 0x65, 0x64, 0x42, 0x61,
  0x74, 0x63, 0x68, 0x4e, 0x6f, 0x72, 0x6d, 0x56, 0x33, 0x32, 0x00, 0x00,
  0x04, 0x00, 0x00, 0x00, 0x01, 0x00, 0x00, 0x00, 0x01, 0x00, 0x00, 0x00,
  0x20, 0x00, 0x00, 0x00, 0x0c, 0x00, 0x00, 0x00, 0x18, 0xba, 0xff, 0xff,
  0x00, 0x00, 0x0e, 0x00, 0x14, 0x00, 0x00, 0x00, 0x08, 0x00, 0x0c, 0x00,
  0x07, 0x00, 0x10, 0x00, 0x0e, 0x00, 0x00, 0x00, 0x00, 0x00, 0x00, 0x01,
  0x30, 0x00, 0x00, 0x00, 0x24, 0x00, 0x00, 0x00, 0x10, 0x00, 0x00, 0x00,
  0x0c, 0x00, 0x10, 0x00, 0x00, 0x00, 0x04, 0x00, 0x08, 0x00, 0x0f, 0x00,
  0x0c, 0x00, 0x00, 0x00, 0x02, 0x00, 0x00, 0x00, 0x02, 0x00, 0x00, 0x00,
  0x00, 0x00, 0x00, 0x01, 0x01, 0x00, 0x00, 0x00, 0x10, 0x00, 0x00, 0x00,
  0x03, 0x00, 0x00, 0x00, 0x00, 0x00, 0x00, 0x00, 0x0d, 0x00, 0x00, 0x00,
  0x02, 0x00, 0x00, 0x00, 0x00, 0x00, 0x0a, 0x00, 0x0c, 0x00, 0x07, 0x00,
  0x00, 0x00, 0x08, 0x00, 0x0a, 0x00, 0x00, 0x00, 0x00, 0x00, 0x00, 0x03,
  0x01, 0x00, 0x00, 0x00, 0xc4, 0xb9, 0xff, 0xff, 0xd0, 0x00, 0x00, 0x00,
  0x11, 0x00, 0x00, 0x00, 0x20, 0x00, 0x00, 0x00, 0xd8, 0x00, 0x00, 0x00,
  0x04, 0x00, 0x00, 0x00, 0x04, 0x00, 0x00, 0x00, 0xff, 0xff, 0xff, 0xff,
  0x01, 0x00, 0x00, 0x00, 0x20, 0x00, 0x00, 0x00, 0x0c, 0x00, 0x00, 0x00,
  0xa0, 0x00, 0x00, 0x00, 0x66, 0x75, 0x6e, 0x63, 0x74, 0x69, 0x6f, 0x6e,
  0x61, 0x6c, 0x5f, 0x31, 0x2f, 0x63, 0x6f, 0x6e, 0x76, 0x32, 0x64, 0x2f,
  0x52, 0x65, 0x6c, 0x75, 0x3b, 0x66, 0x75, 0x6e, 0x63, 0x74, 0x69, 0x6f,
  0x6e, 0x61, 0x6c, 0x5f, 0x31, 0x2f, 0x63, 0x6f, 0x6e, 0x76, 0x32, 0x64,
  0x2f, 0x42, 0x69, 0x61, 0x73, 0x41, 0x64, 0x64, 0x3b, 0x66, 0x75, 0x6e,
  0x63, 0x74, 0x69, 0x6f, 0x6e, 0x61, 0x6c, 0x5f, 0x31, 0x2f, 0x63, 0x6f,
  0x6e, 0x76, 0x32, 0x64, 0x5f, 0x32, 0x2f, 0x43, 0x6f, 0x6e, 0x76, 0x32,
  0x44, 0x3b, 0x66, 0x75, 0x6e, 0x63, 0x74, 0x69, 0x6f, 0x6e, 0x61, 0x6c,
  0x5f, 0x31, 0x2f, 0x63, 0x6f, 0x6e, 0x76, 0x32, 0x64, 0x2f, 0x43, 0x6f,
  0x6e, 0x76, 0x32, 0x44, 0x3b, 0x66, 0x75, 0x6e, 0x63, 0x74, 0x69, 0x6f,
  0x6e, 0x61, 0x6c, 0x5f, 0x31, 0x2f, 0x63, 0x6f, 0x6e, 0x76, 0x32, 0x64,
  0x2f, 0x42, 0x69, 0x61, 0x73, 0x41, 0x64, 0x64, 0x2f, 0x52, 0x65, 0x61,
  0x64, 0x56, 0x61, 0x72, 0x69, 0x61, 0x62, 0x6c, 0x65, 0x4f, 0x70, 0x2f,
  0x72, 0x65, 0x73, 0x6f, 0x75, 0x72, 0x63, 0x65, 0x00, 0x00, 0x00, 0x00,
  0x04, 0x00, 0x00, 0x00, 0x01, 0x00, 0x00, 0x00, 0x01, 0x00, 0x00, 0x00,
  0x20, 0x00, 0x00, 0x00, 0x0c, 0x00, 0x00, 0x00, 0x48, 0xba, 0xff, 0xff,
  0x6e, 0xbb, 0xff, 0xff, 0x04, 0x00, 0x00, 0x00, 0x40, 0x0b, 0x00, 0x00,
  0xb9, 0x6c, 0x88, 0x3d, 0x6f, 0xb2, 0x16, 0xbd, 0x13, 0x2c, 0x19, 0xbd,
  0xf1, 0xd9, 0x38, 0xbd, 0x08, 0x33, 0xaf, 0x3e, 0x70, 0x39, 0xc7, 0xbd,
  0xc9, 0x72, 0x8b, 0xbe, 0x14, 0xbb, 0x78, 0xbd, 0xa3, 0x12, 0xa1, 0xbd,
  0xf2, 0xef, 0x1a, 0xbe, 0x48, 0xed, 0x4b, 0x3d, 0x47, 0xd2, 0x76, 0xbe,
  0x43, 0x5e, 0x80, 0xbd, 0x62, 0x92, 0xdd, 0x3b, 0xa3, 0xa9, 0xdb, 0xbe,
  0x7f, 0x8a, 0x22, 0xbe, 0xfd, 0x58, 0xd9, 0x3d, 0xc0, 0x91, 0x15, 0x3e,
  0xe8, 0x13, 0x38, 0x3d, 0x01, 0x42, 0x46, 0x3e, 0x9c, 0x90, 0x87, 0xbd,
  0x76, 0xe6, 0xff, 0x3d, 0xce, 0x02, 0x5e, 0x3d, 0x3a, 0xf3, 0x06, 0x3e,
  0xae, 0x27, 0x37, 0xbe, 0x04, 0xd6, 0x84, 0x3d, 0x9f, 0x25, 0x0f, 0xbe,
  0x7f, 0xff, 0x45, 0xbd, 0x48, 0x3d, 0x28, 0xbe, 0x70, 0x3f, 0xa1, 0x3d,
  0x85, 0xd8, 0x94, 0x3c, 0x7e, 0x2d, 0xa9, 0x3e, 0x58, 0x18, 0x82, 0xbc,
  0x3e, 0xc4, 0xb6, 0x3d, 0xeb, 0x03, 0x1a, 0x3d, 0xd4, 0xce, 0xda, 0x3b,
  0xa0, 0xa1, 0x01, 0xbe, 0x68, 0x44, 0x88, 0xbd, 0x20, 0xa9, 0x11, 0xbd,
  0x81, 0x4d, 0x77, 0x3d, 0xe3, 0x20, 0xfd, 0x3d, 0xc4, 0x56, 0x71, 0x3d,
  0x21, 0xbf, 0x81, 0xbe, 0xf4, 0xfe, 0x5d, 0xbd, 0xa4, 0x74, 0x50, 0xbd,
  0x7d, 0xa8, 0xb3, 0x3d, 0xba, 0x6a, 0x33, 0xbc, 0xa2, 0xb6, 0x12, 0xbe,
  0xb3, 0x1d, 0xb9, 0x3c, 0x46, 0x31, 0xc2, 0x3c, 0xb2, 0x77, 0xa5, 0xbd,
  0x1e, 0xde, 0xe7, 0xbd, 0x07, 0xaa, 0x0b, 0x3e, 0xe8, 0x2d, 0xfb, 0xbd,
  0x7f, 0xfc, 0x1c, 0xbe, 0xf4, 0xab, 0xc1, 0x3b, 0xdb, 0x7b, 0x36, 0xbe,
  0xb7, 0x07, 0x3b, 0x3e, 0xa4, 0x08, 0xe5, 0xbc, 0xa3, 0xd1, 0xed, 0x3d,
  0xa7, 0xe4, 0x1e, 0x3e, 0xd0, 0xa7, 0xee, 0x3c, 0xbd, 0x6c, 0x0b, 0xba,
  0x90, 0x64, 0xee, 0xbc, 0xba, 0x03, 0x73, 0x3e, 0x74, 0x79, 0xb3, 0x3d,
  0x6e, 0x7b, 0xac, 0xbe, 0xe0, 0xeb, 0xf8, 0x3c, 0x1d, 0x5b, 0x98, 0xbe,
  0xe3, 0x0c, 0x9e, 0xba, 0x27, 0x3e, 0xa3, 0x3d, 0x81, 0x66, 0x65, 0x3b,
  0x79, 0x89, 0xc9, 0x3d, 0x07, 0x0d, 0xed, 0x3d, 0xd8, 0xb4, 0x23, 0x3e,
  0xeb, 0xff, 0x22, 0x3d, 0xeb, 0xb0, 0x09, 0x3e, 0x92, 0x71, 0x04, 0xbe,
  0xcc, 0xfb, 0x4a, 0xbe, 0xae, 0x67, 0x33, 0x3d, 0x92, 0x72, 0xbe, 0xbd,
  0xfc, 0x91, 0x79, 0xbd, 0x81, 0x69, 0x34, 0x3e, 0x93, 0xf5, 0x64, 0xbe,
  0x53, 0xc8, 0x0e, 0xbe, 0xed, 0xe4, 0xa8, 0x3d, 0x25, 0xd1, 0xd4, 0xbe,
  0x4e, 0x1f, 0x83, 0x3d, 0xdc, 0x22, 0x12, 0x3e, 0x86, 0xfe, 0x36, 0xbd,
  0x8b, 0x7a, 0x3a, 0x3e, 0x2f, 0x17, 0xf7, 0x3b, 0xcd, 0xdc, 0xc4, 0x3d,
  0x6f, 0x5a, 0x1e, 0x3e, 0x64, 0xc2, 0x21, 0x3e, 0xca, 0xae, 0xe5, 0x3d,
  0x85, 0x1d, 0x34, 0xbe, 0x93, 0x31, 0x50, 0x3e, 0x4a, 0x62, 0xc1, 0x3d,
  0x90, 0x85, 0x1f, 0xbd, 0x83, 0x6f, 0x25, 0xbe, 0x80, 0xb2, 0xd8, 0x3d,
  0x1a, 0xaa, 0x82, 0xbd, 0x22, 0x3a, 0x99, 0xbb, 0xd6, 0x3c, 0x89, 0x3d,
  0x4b, 0xd5, 0xa5, 0x3a, 0x6c, 0x1d, 0x89, 0x3d, 0x74, 0x5a, 0xa6, 0xba,
  0xe6, 0xa7, 0xa7, 0xbd, 0xb2, 0xef, 0x7e, 0x3d, 0x97, 0xdb, 0xc2, 0x3c,
  0x71, 0x41, 0x01, 0x3d, 0x0a, 0x12, 0x95, 0xbe, 0xef, 0xee, 0xe9, 0x3c,
  0xe2, 0x69, 0x3e, 0x3d, 0x3f, 0x60, 0xa4, 0x3e, 0x53, 0x07, 0x91, 0x3b,
  0xf1, 0xce, 0x5a, 0xbe, 0xbb, 0x35, 0xcc, 0xbd, 0x16, 0x2f, 0x54, 0x3e,
  0x4e, 0xa0, 0x43, 0xbe, 0xd5, 0x6e, 0x77, 0x3e, 0x25, 0xee, 0x5c, 0x3c,
  0xa9, 0x70, 0x11, 0x3e, 0x07, 0xf3, 0xc6, 0xbc, 0x22, 0xc9, 0xfb, 0x3c,
  0x41, 0x0f, 0x41, 0x3e, 0x07, 0x25, 0x13, 0x3d, 0x5c, 0xd1, 0xec, 0x3d,
  0x73, 0x80, 0x20, 0x3e, 0xe7, 0xa7, 0x55, 0x3e, 0xd7, 0x03, 0xa2, 0x3e,
  0x29, 0xcb, 0x75, 0xbc, 0xb3, 0xe0, 0xd5, 0x3d, 0xd9, 0xd1, 0xb8, 0x3d,
  0x4a, 0xa3, 0x40, 0x3e, 0x9a, 0x58, 0x2c, 0x3e, 0x3d, 0xb7, 0xb2, 0x3d,
  0x63, 0xa9, 0x2f, 0x3c, 0xf7, 0x92, 0x94, 0xbd, 0x91, 0x5b, 0xcc, 0x3d,
  0x06, 0xc4, 0x9a, 0xbd, 0x2d, 0xc2, 0x91, 0x3e, 0xd7, 0x30, 0x3b, 0x3e,
  0x65, 0x3d, 0x1d, 0xbe, 0xc1, 0x36, 0x0f, 0x3e, 0x8b, 0x80, 0xaa, 0xbd,
  0xbe, 0x27, 0xb6, 0xbd, 0x78, 0x36, 0xe2, 0x3a, 0xba, 0x0b, 0x4f, 0x3e,
  0xbc, 0xc7, 0x0a, 0x3e, 0x5b, 0x09, 0xc4, 0xbd, 0x26, 0xb0, 0x4a, 0x3e,
  0xc2, 0x5f, 0x9e, 0xbe, 0x4e, 0xae, 0x60, 0x3e, 0x2e, 0x6e, 0xa3, 0xbb,
  0x08, 0x4f, 0x9b, 0xbe, 0xd3, 0x23, 0x95, 0x3d, 0xfc, 0x15, 0x34, 0xbd,
  0x0e, 0xf6, 0x4f, 0x3a, 0xe5, 0xda, 0xd5, 0x3d, 0x7d, 0xe0, 0xe2, 0x3c,
  0x57, 0x88, 0xa7, 0x3c, 0x95, 0x8a, 0x52, 0x3d, 0xcf, 0x2b, 0xb7, 0xbc,
  0x04, 0x35, 0x20, 0xbe, 0x33, 0x47, 0xdc, 0xbd, 0x8f, 0xa4, 0x1d, 0xbe,
  0xd1, 0x26, 0x5b, 0xbe, 0x30, 0x39, 0xce, 0xbd, 0x3d, 0xa8, 0xd9, 0x3d,
  0x71, 0xcc, 0xe6, 0x3d, 0x0c, 0x32, 0xae, 0x3d, 0x34, 0x58, 0x7b, 0x3e,
  0x2c, 0x0e, 0x91, 0xbd, 0x1a, 0x24, 0xb6, 0x3d, 0xc2, 0x57, 0x53, 0x3d,
  0xdb, 0x96, 0x15, 0xbe, 0xca, 0x75, 0x4f, 0xbe, 0x86, 0x42, 0xb9, 0xbd,
  0x09, 0x07, 0xd8, 0x3d, 0xa4, 0x0b, 0x19, 0xbd, 0x6d, 0x03, 0xfc, 0x3d,
  0x35, 0x6f, 0x67, 0x3d, 0x35, 0xdd, 0x84, 0x3e, 0xf8, 0x7a, 0xcf, 0x3d,
  0xf5, 0x70, 0x67, 0xbe, 0x17, 0x7e, 0x57, 0xbe, 0x29, 0xd6, 0x09, 0xbe,
  0x99, 0xa7, 0x75, 0x3c, 0xa7, 0xa7, 0xcf, 0x3a, 0xa3, 0x36, 0x77, 0xbe,
  0xf9, 0x8a, 0x2a, 0xbe, 0x4e, 0x39, 0xab, 0x3d, 0x5b, 0x5f, 0x3a, 0xbe,
  0xab, 0xee, 0x1e, 0x3e, 0xc3, 0x14, 0xdf, 0xbb, 0x64, 0x99, 0x14, 0x3e,
  0xd6, 0xa3, 0x16, 0x3e, 0x9e, 0xda, 0xa3, 0xbd, 0x20, 0xe8, 0xc2, 0x3d,
  0x3f, 0x86, 0xec, 0x3d, 0xa7, 0x72, 0xb6, 0x3d, 0x40, 0xd2, 0x0e, 0xbc,
  0x78, 0x5d, 0x4a, 0xbe, 0x8d, 0xcc, 0x00, 0x3d, 0xe2, 0x3c, 0x89, 0x3d,
  0x5b, 0x1e, 0x84, 0xbd, 0x38, 0xd0, 0xf8, 0xbd, 0xc0, 0x2b, 0x11, 0x3e,
  0xe9, 0xc3, 0x5f, 0xbb, 0x5e, 0xa5, 0xe1, 0xbd, 0xf6, 0xd7, 0xc6, 0x3d,
  0xc9, 0x89, 0xbc, 0x3d, 0xcf, 0x47, 0xa7, 0xbd, 0x34, 0x7a, 0x8c, 0xbd,
  0xac, 0x50, 0x03, 0xbd, 0xcf, 0x72, 0x93, 0xbe, 0x56, 0xde, 0xc2, 0x3d,
  0x56, 0x21, 0x1c, 0xbe, 0xa0, 0x5a, 0xf6, 0x3a, 0x48, 0x31, 0x13, 0x3e,
  0x37, 0x8f, 0xb4, 0x3d, 0xe1, 0x61, 0xfc, 0xbc, 0x7a, 0x49, 0x7c, 0x3e,
  0xfa, 0xc9, 0x29, 0xbe, 0x84, 0xe7, 0x99, 0xbe, 0x47, 0x1c, 0xc4, 0x3d,
  0x95, 0x31, 0x9d, 0xbd, 0x71, 0xb7, 0x82, 0xbe, 0x64, 0x8b, 0x1f, 0x3e,
  0x8b, 0x7b, 0x38, 0xbe, 0x95, 0x52, 0x19, 0xbb, 0xec, 0xb2, 0xc5, 0xbc,
  0x77, 0x01, 0x16, 0xbc, 0x6b, 0x23, 0xa5, 0xbe, 0x69, 0xf2, 0xac, 0xbe,
  0x68, 0x4b, 0x6e, 0xbd, 0x54, 0x7c, 0x48, 0xbb, 0xb0, 0x6f, 0x29, 0xbe,
  0x87, 0xe1, 0xe6, 0xbd, 0x6c, 0xe9, 0xfd, 0x3c, 0xfa, 0xf9, 0x21, 0xbd,
  0x74, 0xcd, 0x68, 0xbe, 0xe1, 0x21, 0x5d, 0xbe, 0xcf, 0x50, 0x8c, 0x3e,
  0x2d, 0xf8, 0x65, 0x3d, 0x6b, 0xc6, 0x6c, 0xbd, 0xbe, 0xc0, 0x8b, 0x3e,
  0x10, 0x7a, 0x0b, 0xbd, 0x27, 0xd8, 0x92, 0x3d, 0xad, 0x8f, 0x33, 0x3e,
  0x81, 0x8e, 0x81, 0xbe, 0x18, 0x66, 0x1a, 0xbe, 0xd2, 0x4a, 0x00, 0xbe,
  0x0f, 0x38, 0xb9, 0xbe, 0xff, 0xc8, 0xff, 0xbd, 0xed, 0x36, 0x6c, 0x3e,
  0x27, 0xf0, 0x2d, 0x3e, 0x9a, 0xd9, 0xcb, 0xbd, 0x1f, 0x6d, 0x68, 0x3c,
  0x84, 0x0c, 0xa6, 0xbd, 0x0c, 0x13, 0x3a, 0x3c, 0x0a, 0xed, 0x3f, 0x3e,
  0x91, 0xcf, 0x87, 0xbd, 0xaa, 0xc2, 0x7f, 0xbe, 0x79, 0xe4, 0x22, 0xbe,
  0xfe, 0x6e, 0xe0, 0xba, 0xb6, 0xee, 0x2d, 0x3e, 0x2f, 0x1f, 0xcb, 0x3d,
  0xdb, 0xa2, 0x4d, 0xbd, 0x8a, 0x04, 0x83, 0xbe, 0xb5, 0xcc, 0x21, 0x3e,
  0x3e, 0x6d, 0x78, 0xbe, 0x71, 0xbb, 0x28, 0x3e, 0x97, 0x27, 0x27, 0xbe,
  0x8e, 0x1d, 0x6b, 0xbc, 0xcf, 0x2e, 0x07, 0x3e, 0xc0, 0x23, 0x6a, 0x3d,
  0xec, 0xfe, 0x6b, 0xbc, 0x6d, 0x43, 0x13, 0x3e, 0x13, 0x94, 0x82, 0x3e,
  0x00, 0xb6, 0x76, 0xbe, 0x00, 0xc7, 0xa3, 0xbd, 0x2b, 0x91, 0x01, 0xbe,
  0xf6, 0x80, 0xf1, 0xbd, 0xfa, 0x79, 0x6d, 0x3c, 0x62, 0x8f, 0x24, 0xbe,
  0xe9, 0x77, 0xcf, 0x3c, 0x87, 0xb1, 0x69, 0x3e, 0x06, 0x3c, 0x0c, 0xbd,
  0xbe, 0x0f, 0x1f, 0x3e, 0xa9, 0x23, 0x55, 0xbd, 0xac, 0x61, 0x11, 0x3e,
  0x7d, 0x88, 0x36, 0xbe, 0x6a, 0x1b, 0x55, 0x3d, 0xd9, 0x32, 0xb4, 0xbc,
  0xd6, 0x1d, 0x06, 0x3e, 0x6c, 0x95, 0xfe, 0xbc, 0x43, 0x09, 0x01, 0xbe,
  0xe6, 0x74, 0x98, 0x3d, 0x65, 0xeb, 0x72, 0xbe, 0x47, 0x09, 0x89, 0xbd,
  0x1e, 0x92, 0x28, 0xbe, 0xd5, 0x8a, 0x05, 0xbe, 0x03, 0x80, 0x9f, 0xbb,
  0x83, 0x8c, 0x31, 0x3e, 0x38, 0x18, 0x19, 0xbe, 0x66, 0xdd, 0x24, 0xbe,
  0xfc, 0xca, 0x3f, 0xbd, 0x20, 0xa1, 0x2a, 0xbe, 0x8d, 0x46, 0x59, 0xbb,
  0xf6, 0x68, 0x9b, 0x3d, 0x89, 0x2a, 0xa8, 0xbe, 0x47, 0x7e, 0x22, 0xbe,
  0xfa, 0xc1, 0x5f, 0x3d, 0xa1, 0x83, 0xe6, 0x3d, 0xb5, 0xf1, 0xc3, 0x3c,
  0xe8, 0xfa, 0xad, 0xbe, 0x60, 0xad, 0xb4, 0xbe, 0xbc, 0xc6, 0x92, 0xbe,
  0xdb, 0xac, 0x32, 0xbe, 0x42, 0xa9, 0xf5, 0xbd, 0x33, 0x57, 0x03, 0xbf,
  0x38, 0x7b, 0xeb, 0x3d, 0x88, 0x50, 0x2a, 0x3d, 0xe7, 0xc0, 0xa7, 0xbe,
  0xc7, 0xb7, 0xd7, 0x3d, 0x53, 0xe2, 0x5e, 0x3c, 0x78, 0xee, 0xe1, 0x3d,
  0x63, 0x88, 0x21, 0xbd, 0x42, 0x8f, 0x0a, 0x3c, 0x91, 0x86, 0x5a, 0xbe,
  0x9a, 0xa2, 0xf0, 0x3c, 0x37, 0x72, 0x15, 0xbe, 0xd4, 0xc7, 0x51, 0xbe,
  0x27, 0x08, 0xc4, 0x3c, 0xae, 0x6d, 0x4c, 0x3e, 0xaa, 0xd1, 0x7b, 0xbd,
  0x9d, 0x46, 0x02, 0x3e, 0x11, 0xc6, 0xe8, 0xbd, 0x26, 0x08, 0x4b, 0x3d,
  0x2f, 0x9c, 0x67, 0x3c, 0x37, 0xb0, 0x6e, 0x3e, 0x1d, 0x44, 0x9b, 0x3c,
  0x10, 0x21, 0xa8, 0x3d, 0xa2, 0x0e, 0xc5, 0xbb, 0x49, 0x86, 0xda, 0x3c,
  0x70, 0x74, 0x42, 0xbc, 0x68, 0xdf, 0xe0, 0x3d, 0x21, 0x4b, 0x07, 0x3e,
  0x6b, 0x31, 0x90, 0x3d, 0x7e, 0x33, 0x08, 0xbd, 0xa6, 0xff, 0x2c, 0xbd,
  0xfa, 0x9a, 0x87, 0x3c, 0x2d, 0xca, 0x8e, 0x3d, 0xa7, 0xf0, 0x14, 0x3d,
  0x63, 0x30, 0xd5, 0x3c, 0x1b, 0x62, 0xda, 0xbc, 0xe7, 0x64, 0x92, 0x3b,
  0x6f, 0x72, 0x18, 0xbe, 0xcf, 0x1a, 0x38, 0xbd, 0x46, 0xa0, 0x8c, 0x3c,
  0x65, 0xfb, 0x66, 0xbd, 0x80, 0x4e, 0x9d, 0x3d, 0x66, 0x1d, 0x2f, 0xbe,
  0x7e, 0x59, 0x06, 0xbe, 0x61, 0x58, 0xde, 0x3d, 0x25, 0x44, 0xfe, 0xbd,
  0x33, 0x1c, 0x5f, 0xbe, 0x83, 0x9a, 0x10, 0x3d, 0x8d, 0x4d, 0xcd, 0x3d,
  0x08, 0x5a, 0xc2, 0xbe, 0x0b, 0x34, 0x80, 0x3d, 0x87, 0x53, 0x2e, 0xbe,
  0xd2, 0x42, 0xbb, 0xbd, 0x0d, 0x1e, 0xfb, 0xbb, 0xea, 0x16, 0x16, 0xbe,
  0x0d, 0x45, 0x36, 0x3e, 0xc1, 0x02, 0x8f, 0x3e, 0x38, 0x4a, 0xbb, 0xbd,
  0xdd, 0x10, 0x3f, 0xbe, 0x0d, 0x42, 0x3d, 0x3e, 0x5d, 0x1a, 0xfb, 0x3d,
  0x5d, 0x7f, 0x4c, 0xbe, 0x0e, 0xdb, 0x47, 0x3d, 0xbe, 0x5f, 0xec, 0x3b,
  0x43, 0x2c, 0x9c, 0xbe, 0xe5, 0x6a, 0x18, 0x3e, 0xdf, 0xe1, 0xa6, 0xbd,
  0x2c, 0x5c, 0x67, 0xbc, 0xaf, 0x17, 0x92, 0x3c, 0xad, 0x83, 0xa8, 0xbd,
  0x01, 0xa6, 0x5f, 0xbd, 0x87, 0x59, 0xfa, 0xbc, 0xdc, 0xe9, 0xfb, 0x3d,
  0x17, 0x4c, 0xb1, 0xbe, 0x83, 0xa4, 0x88, 0xbe, 0x6e, 0x2f, 0x82, 0x3d,
  0x76, 0x34, 0x9c, 0xbe, 0x5a, 0x4a, 0x2c, 0x3e, 0x73, 0xbd, 0xf6, 0xbc,
  0xd0, 0x3a, 0x71, 0xbe, 0xe7, 0x9c, 0x05, 0x3e, 0x92, 0x6e, 0x17, 0xbe,
  0x2b, 0xc7, 0x96, 0xbe, 0x19, 0xf2, 0xc2, 0xbd, 0xee, 0x3c, 0x73, 0xbd,
  0x45, 0xf9, 0x86, 0xbe, 0xbe, 0xd4, 0x3b, 0x3d, 0x0d, 0x6e, 0xa8, 0xbd,
  0xa9, 0x76, 0xf3, 0xbd, 0x53, 0x40, 0xc0, 0xbc, 0x63, 0x89, 0x24, 0xbe,
  0x6a, 0xaa, 0x65, 0x3d, 0xc0, 0x50, 0x7b, 0xbc, 0xb2, 0x7d, 0x4a, 0xbe,
  0x38, 0x8d, 0x83, 0x3c, 0xda, 0xda, 0xdd, 0xbd, 0xf8, 0xab, 0xbf, 0xbd,
  0xe8, 0xcb, 0x82, 0xbe, 0xce, 0xc9, 0x8a, 0xbe, 0xa6, 0x7b, 0xe2, 0x3c,
  0xed, 0x44, 0x9f, 0xbd, 0x4a, 0x45, 0x8d, 0xbd, 0x65, 0xa4, 0xce, 0x3c,
  0x91, 0x10, 0x9c, 0x3c, 0xb7, 0xe6, 0x80, 0xbd, 0x2a, 0xeb, 0x72, 0x3e,
  0x7e, 0xb7, 0x30, 0xbe, 0x62, 0x69, 0xfc, 0xbd, 0x34, 0x4e, 0xcc, 0xbd,
  0xf3, 0xf6, 0x90, 0xbd, 0x83, 0x8b, 0x15, 0xbd, 0xf0, 0x2e, 0x9c, 0x3c,
  0x9f, 0xa0, 0xd8, 0xbe, 0x47, 0x94, 0x96, 0xbe, 0x2a, 0xd7, 0xbb, 0xbd,
  0xff, 0xcc, 0x5f, 0x3e, 0x33, 0x7b, 0x07, 0xbd, 0x28, 0x94, 0x96, 0x3d,
  0x39, 0x7b, 0x9a, 0xbd, 0x09, 0x85, 0xd3, 0xbe, 0xdb, 0xdd, 0x5c, 0xbc,
  0x70, 0x39, 0x28, 0x3e, 0x48, 0x50, 0xcf, 0xbe, 0x27, 0x09, 0x09, 0x3e,
  0x6d, 0x5b, 0x01, 0xbe, 0x99, 0x55, 0x2b, 0xbe, 0x37, 0x13, 0x3d, 0x3c,
  0xd7, 0x95, 0xeb, 0x3c, 0x1f, 0x7e, 0x32, 0xbe, 0x61, 0x4a, 0x04, 0xbd,
  0x79, 0x34, 0xbb, 0xbd, 0xc3, 0x98, 0xa8, 0xbe, 0xc3, 0x70, 0x5d, 0xbd,
  0xe8, 0x93, 0x80, 0x3d, 0xbe, 0x0f, 0x01, 0xbd, 0xc1, 0x80, 0x22, 0xbd,
  0x67, 0x94, 0x47, 0xbc, 0x56, 0x39, 0x61, 0xbd, 0xeb, 0xdf, 0xbf, 0xbc,
  0x87, 0x98, 0xad, 0xbd, 0x54, 0xa2, 0x12, 0xbe, 0x0e, 0xa0, 0x60, 0xbe,
  0x06, 0xf7, 0x69, 0x3d, 0x47, 0xc2, 0xf3, 0xbd, 0x0b, 0xbf, 0x1e, 0xbd,
  0x98, 0x8e, 0x5e, 0xbd, 0xd5, 0xbf, 0x3b, 0xbd, 0x0b, 0x8a, 0x90, 0xbe,
  0x01, 0x78, 0x26, 0x3d, 0xab, 0xbf, 0x2d, 0xbe, 0x79, 0x4a, 0x30, 0xbd,
  0x4e, 0xb8, 0xf4, 0x3a, 0xa9, 0x14, 0x02, 0xbe, 0x06, 0xa6, 0x5c, 0x3d,
  0xbb, 0x19, 0x84, 0x3d, 0x2d, 0xfd, 0x0c, 0xbe, 0x90, 0x5b, 0x91, 0x3d,
  0x27, 0xe7, 0x4e, 0xbe, 0xc3, 0x6a, 0x14, 0xbd, 0xc3, 0xd6, 0x40, 0x3d,
  0x95, 0xba, 0x23, 0xbe, 0x9b, 0x2d, 0x91, 0xbe, 0x67, 0x3b, 0xd8, 0x3d,
  0x62, 0x7d, 0x53, 0x3e, 0x7c, 0x1c, 0xc3, 0x3c, 0x0e, 0x5c, 0x37, 0x3e,
  0xc9, 0x25, 0xa9, 0xbd, 0x0c, 0x82, 0x49, 0xbe, 0xcf, 0x28, 0xfc, 0x3d,
  0x7a, 0x37, 0x60, 0xbe, 0x24, 0x0e, 0xdc, 0xbe, 0x2b, 0x88, 0xa1, 0x3e,
  0xd1, 0x51, 0x8b, 0xbe, 0xee, 0x3f, 0xc3, 0xbd, 0xb1, 0x3b, 0xdf, 0x3c,
  0x4b, 0x41, 0x94, 0xbc, 0xae, 0xd0, 0x41, 0xbe, 0x28, 0x9b, 0x11, 0x3d,
  0x8d, 0x63, 0x98, 0xbe, 0xd8, 0x93, 0x41, 0xbe, 0xe6, 0x99, 0x51, 0xbe,
  0xc0, 0x22, 0x68, 0xbd, 0xb9, 0xa1, 0xb6, 0xbd, 0xbf, 0x2b, 0xbb, 0xbd,
  0x16, 0x9d, 0x7d, 0xbe, 0xd7, 0xa2, 0x04, 0x3e, 0xb7, 0xb3, 0x7e, 0xbd,
  0x42, 0x27, 0xa9, 0x3d, 0x9a, 0xb4, 0x6e, 0xbe, 0x89, 0x15, 0xa1, 0xbd,
  0x9a, 0x1b, 0xd8, 0xbc, 0xfb, 0x1f, 0xcb, 0xbd, 0x24, 0xe3, 0x7b, 0xbe,
  0x51, 0x6d, 0xcb, 0x3c, 0x0a, 0x4a, 0x1b, 0xbe, 0x34, 0xf0, 0xd0, 0xbd,
  0x44, 0xfc, 0x70, 0xbd, 0xdf, 0x9e, 0x66, 0xbd, 0xca, 0x11, 0x85, 0xbd,
  0x17, 0xc3, 0x59, 0x3e, 0xe4, 0x83, 0x06, 0x3d, 0xd4, 0x61, 0xd4, 0xbd,
  0x5a, 0x51, 0x21, 0x3e, 0x7a, 0xe7, 0x24, 0xbe, 0x80, 0xd9, 0x9e, 0xbd,
  0x5d, 0xe7, 0xcc, 0x3b, 0xc1, 0x37, 0x7f, 0xbd, 0x2d, 0xaa, 0xe1, 0x3c,
  0xea, 0xb5, 0xa8, 0x3d, 0xcf, 0x0a, 0xa8, 0xbd, 0xe3, 0xd0, 0xf2, 0x3d,
  0x7b, 0x42, 0x9b, 0x3c, 0x8f, 0xa5, 0xb4, 0xbd, 0xd8, 0x6e, 0x86, 0xbd,
  0x3e, 0x12, 0x65, 0x3d, 0x40, 0x2b, 0x01, 0x3d, 0x1e, 0xaa, 0x80, 0x3d,
  0xa7, 0x9a, 0x6a, 0x3d, 0x13, 0x82, 0xe2, 0x3d, 0x48, 0xa0, 0x41, 0x3e,
  0x03, 0x3b, 0x06, 0x3e, 0x04, 0x0c, 0x4d, 0x3c, 0x49, 0x25, 0x5e, 0xbe,
  0xee, 0x99, 0xd3, 0xbd, 0xa3, 0x39, 0x27, 0x3e, 0x4a, 0x48, 0xae, 0x3b,
  0x75, 0xd1, 0xb4, 0x3d, 0x9d, 0xdb, 0x8e, 0x3e, 0x6e, 0xc9, 0xac, 0x3d,
  0x49, 0x47, 0x00, 0x3d, 0x11, 0xfd, 0x3e, 0x3d, 0xbc, 0x50, 0x23, 0x3e,
  0x80, 0xa5, 0xcc, 0xbd, 0x15, 0xf4, 0x39, 0x3e, 0xef, 0x10, 0x27, 0xbe,
  0x87, 0x2f, 0x81, 0xbe, 0xa1, 0xf6, 0xad, 0x3c, 0x1e, 0x46, 0xb3, 0x3d,
  0xfc, 0x6d, 0x10, 0xbe, 0xb2, 0xec, 0xd5, 0x3d, 0xa3, 0x7b, 0xba, 0xbd,
  0x4e, 0x3d, 0xc2, 0xbd, 0xb2, 0x07, 0x87, 0xbe, 0x0b, 0xd5, 0x14, 0x3d,
  0xa5, 0xff, 0x5c, 0xbe, 0x93, 0x5c, 0xcb, 0xbc, 0xcd, 0xe8, 0xa6, 0xbd,
  0x0f, 0x44, 0x37, 0xbe, 0xf4, 0xfd, 0x12, 0x3d, 0xc9, 0x7a, 0x59, 0xbd,
  0xc3, 0x77, 0x98, 0xbe, 0x12, 0xd1, 0x66, 0x3d, 0x60, 0xdc, 0x79, 0xbe,
  0xbb, 0xa9, 0x35, 0xbe, 0xa7, 0xaa, 0x7c, 0xbe, 0x53, 0xf2, 0xba, 0x3d,
  0xcd, 0x44, 0x3b, 0xbd, 0xec, 0x51, 0x8c, 0xbe, 0x64, 0x97, 0x0a, 0x3e,
  0x46, 0xb8, 0xbc, 0x3c, 0xee, 0x3c, 0x9f, 0xbb, 0x40, 0xd6, 0xcc, 0x3d,
  0x25, 0xcb, 0x1a, 0x3d, 0xe6, 0x41, 0x4f, 0xbe, 0x63, 0xd8, 0x37, 0xbd,
  0xd0, 0x31, 0x5e, 0xbe, 0x69, 0x26, 0x25, 0xbe, 0xdd, 0x8e, 0x3a, 0x3e,
  0x99, 0x87, 0xce, 0xbd, 0x2d, 0xcc, 0x33, 0xbd, 0xf8, 0x8b, 0x26, 0xbc,
  0x40, 0xc6, 0xfa, 0x3d, 0x58, 0x36, 0x4f, 0xbd, 0xeb, 0xab, 0x3f, 0xbd,
  0xdc, 0xd2, 0x22, 0x3e, 0x4d, 0x35, 0x81, 0xbe, 0x02, 0x97, 0xf7, 0xbd,
  0x50, 0xf4, 0x1d, 0xbd, 0xf3, 0x8f, 0xde, 0x3c, 0x9c, 0x3a, 0x4d, 0xbe,
  0xdb, 0x20, 0x22, 0xbe, 0x4b, 0x45, 0x78, 0x3d, 0x31, 0xe0, 0x28, 0x3e,
  0xd1, 0x71, 0x5c, 0x3e, 0x1d, 0x68, 0x5e, 0x3e, 0x29, 0x52, 0x48, 0xbc,
  0x66, 0xff, 0x54, 0x3e, 0x0c, 0x56, 0xa7, 0x3b, 0xda, 0x5c, 0x02, 0x3e,
  0x36, 0x0b, 0xbb, 0x3d, 0x87, 0x84, 0x10, 0x3e, 0x60, 0x96, 0xb3, 0xbd,
  0x93, 0x11, 0x8a, 0xbe, 0x9e, 0xc4, 0x92, 0x3c, 0x6e, 0x42, 0x49, 0x3c,
  0xc8, 0x45, 0x39, 0x3e, 0x13, 0x01, 0x33, 0x3e, 0xa7, 0x28, 0x37, 0x3e,
  0x81, 0x74, 0x11, 0x3e, 0x37, 0x7c, 0x2c, 0xbd, 0xf8, 0xff, 0x87, 0x3e,
  0x80, 0xd3, 0x43, 0xbc, 0x38, 0xe9, 0xdc, 0xbd, 0xa7, 0x24, 0x20, 0xbe,
  0x4a, 0xe5, 0xd5, 0xbc, 0xd1, 0xf8, 0x39, 0x3e, 0x88, 0x28, 0x45, 0x3e,
  0x5b, 0x8b, 0x6b, 0xbe, 0x58, 0x16, 0xf9, 0x3b, 0x04, 0x56, 0xf6, 0x3b,
  0xa6, 0xdb, 0x44, 0x3e, 0x0b, 0x8b, 0xf4, 0x3d, 0x5b, 0x02, 0x53, 0x3d,
  0xc7, 0x1d, 0xab, 0x3d, 0x4c, 0x12, 0x5b, 0xbd, 0x0a, 0x8b, 0x62, 0xbe,
  0x5c, 0x98, 0xa2, 0x3d, 0xac, 0xe4, 0x4b, 0x3d, 0x26, 0x41, 0x8a, 0x3e,
  0xd3, 0x0c, 0x42, 0xbe, 0xfe, 0xb6, 0x49, 0xbe, 0x77, 0xe1, 0xce, 0xbd,
  0x0a, 0x69, 0x2a, 0x3e, 0x6e, 0xa7, 0x2c, 0xbe, 0xc6, 0x43, 0x58, 0xbc,
  0xdf, 0xbe, 0xae, 0xbd, 0xca, 0x83, 0x04, 0x3e, 0x66, 0x78, 0x21, 0xbe,
  0xf7, 0xe4, 0x55, 0x3d, 0xb8, 0x06, 0x91, 0xbd, 0x13, 0x52, 0x0d, 0x3e,
  0x68, 0x52, 0x02, 0xbe, 0xec, 0x9b, 0xfd, 0xbd, 0x89, 0x4c, 0x74, 0xbe,
  0x31, 0xb0, 0x5b, 0x3d, 0x4a, 0x36, 0xef, 0xbd, 0xcd, 0x2c, 0x0a, 0xbe,
  0x14, 0xf5, 0x1f, 0x3e, 0x25, 0xd8, 0x55, 0xbc, 0x82, 0x91, 0x5a, 0x3e,
  0x89, 0x2e, 0x56, 0x3e, 0xd5, 0xbc, 0x82, 0x3d, 0xfb, 0x8f, 0x72, 0xbe,
  0x92, 0x93, 0x85, 0x3d, 0xaf, 0x70, 0xbc, 0xbc, 0x81, 0x6c, 0x9c, 0x3d,
  0x84, 0x1e, 0x19, 0xbe, 0x8d, 0x34, 0xc0, 0x3c, 0xf3, 0x07, 0x8e, 0xbd,
  0x78, 0xfa, 0x3d, 0x3a, 0xf6, 0xa5, 0x38, 0x3d, 0x34, 0x69, 0x4a, 0xbe,
  0xfc, 0xb7, 0x7f, 0x3d, 0x3e, 0xf6, 0xd0, 0xbb, 0x4c, 0xa2, 0x5a, 0xbd,
  0xde, 0x68, 0x4d, 0x3e, 0xbc, 0x5e, 0x32, 0xbd, 0xd8, 0x7f, 0x96, 0x3d,
  0x26, 0x2d, 0x88, 0x3d, 0x5b, 0x17, 0x92, 0xbc, 0xc7, 0x25, 0x91, 0x3e,
  0xb8, 0x07, 0xe6, 0xbd, 0x24, 0x17, 0x71, 0xbc, 0x6f, 0xb6, 0xbf, 0xbd,
  0xd0, 0xfd, 0x2e, 0xbc, 0x81, 0xb3, 0x6b, 0x3d, 0xfd, 0x8b, 0x76, 0x3d,
  0xba, 0x8d, 0x8a, 0x3c, 0x0e, 0x20, 0x22, 0x3d, 0xdf, 0xcc, 0x7f, 0x3d,
  0x87, 0xbd, 0x94, 0xbd, 0x0e, 0xd7, 0x13, 0xbc, 0x1f, 0x39, 0x21, 0x3e,
  0xc7, 0x1e, 0x72, 0xbe, 0xd0, 0x80, 0xbb, 0xbd, 0x98, 0xb5, 0xcf, 0xbd,
  0x51, 0x02, 0x96, 0xbe, 0x27, 0xbb, 0x13, 0xbe, 0xd0, 0x7c, 0x59, 0x3e,
  0x4c, 0x23, 0x3d, 0x3d, 0x7c, 0x08, 0x6b, 0x3e, 0xad, 0x0b, 0x34, 0x3e,
  0x42, 0x82, 0xd3, 0xbe, 0x8a, 0xea, 0x98, 0xbb, 0x9a, 0xae, 0x31, 0x3e,
  0xa0, 0x88, 0x5a, 0xbd, 0x1a, 0x44, 0x03, 0xbe, 0x5e, 0x5e, 0xd0, 0x3d,
  0x23, 0x4e, 0x57, 0xbe, 0xd9, 0x23, 0xa9, 0xbd, 0x2d, 0x5e, 0x78, 0x3c,
  0x4e, 0x3d, 0x2e, 0xbe, 0xd7, 0x97, 0xd9, 0x3c, 0x47, 0x05, 0x0b, 0xbe,
  0xfd, 0x03, 0x97, 0xbe, 0x0a, 0xb3, 0xa9, 0xbd, 0x2d, 0x25, 0x06, 0xbe,
  0x66, 0xc6, 0xff, 0xff, 0x34, 0x00, 0x00, 0x00, 0x10, 0x00, 0x00, 0x00,
  0x08, 0x00, 0x00, 0x00, 0x3c, 0x00, 0x00, 0x00, 0x1c, 0x00, 0x00, 0x00,
  0x66, 0x75, 0x6e, 0x63, 0x74, 0x69, 0x6f, 0x6e, 0x61, 0x6c, 0x5f, 0x31,
  0x2f, 0x63, 0x6f, 0x6e, 0x76, 0x32, 0x64, 0x5f, 0x32, 0x2f, 0x43, 0x6f,
  0x6e, 0x76, 0x32, 0x44, 0x00, 0x00, 0x00, 0x00, 0x04, 0x00, 0x00, 0x00,
  0x0c, 0x00, 0x00, 0x00, 0x01, 0x00, 0x00, 0x00, 0x05, 0x00, 0x00, 0x00,
  0x0c, 0x00, 0x00, 0x00, 0xe4, 0xc5, 0xff, 0xff, 0x0a, 0xc7, 0xff, 0xff,
  0x04, 0x00, 0x00, 0x00, 0x80, 0x16, 0x00, 0x00, 0xf3, 0xc4, 0x9f, 0x3c,
  0x4f, 0x59, 0x6c, 0xbc, 0xe3, 0x10, 0x6d, 0xbe, 0xc6, 0x51, 0xf5, 0xbc,
  0x49, 0x9a, 0x7e, 0xbe, 0xac, 0x0d, 0xce, 0xbe, 0xfd, 0x97, 0xd8, 0xbd,
  0xa4, 0x79, 0x96, 0xbd, 0x0c, 0x5e, 0x1d, 0xbd, 0xd7, 0xbb, 0xbd, 0x3d,
  0xf0, 0xdc, 0x0a, 0xbd, 0x69, 0xaa, 0x15, 0xbe, 0x04, 0x88, 0xb6, 0x3d,
  0x2c, 0xe5, 0x0c, 0xbd, 0x9a, 0x70, 0x90, 0xbe, 0x87, 0x97, 0xf8, 0xba,
  0xda, 0xbf, 0x87, 0xbe, 0x85, 0x27, 0x81, 0xbe, 0xed, 0x52, 0x34, 0xbe,
  0x89, 0xac, 0x96, 0xbb, 0x74, 0xb9, 0xb4, 0xbe, 0xa1, 0x57, 0xf4, 0xbc,
  0x93, 0xc0, 0x96, 0xbd, 0x52, 0xf8, 0x1c, 0xbe, 0x2d, 0x03, 0xa5, 0x3c,
  0xd6, 0x52, 0xb1, 0xbd, 0xa2, 0xc1, 0x4f, 0xbe, 0xe8, 0x4a, 0x5e, 0xbd,
  0x04, 0x96, 0x19, 0xbe, 0x03, 0x7d, 0x1f, 0x3c, 0xe6, 0x3a, 0xf4, 0xbd,
  0xe0, 0x3e, 0x7e, 0xbd, 0x80, 0x55, 0x80, 0xbe, 0xf0, 0xad, 0x2a, 0xbe,
  0x21, 0x08, 0x9a, 0xbd, 0xed, 0x78, 0x87, 0xbd, 0x65, 0x51, 0x74, 0xbd,
  0x6e, 0xa2, 0xca, 0xbd, 0x0d, 0x56, 0x74, 0xbe, 0x2e, 0xcd, 0x41, 0xbe,
  0xf4, 0x0e, 0xf8, 0xbd, 0x73, 0xf7, 0x07, 0xbe, 0xc3, 0x51, 0x53, 0xbd,
  0x37, 0xce, 0x62, 0xbd, 0x74, 0xdb, 0xc1, 0xbd, 0x0e, 0x33, 0x04, 0xbe,
  0x49, 0xea, 0x64, 0xbd, 0xba, 0x26, 0xdf, 0xbd, 0x00, 0xc9, 0xb7, 0xbd,
  0x9a, 0x26, 0xbd, 0xbc, 0x36, 0x7a, 0xab, 0xbc, 0xe1, 0x18, 0x35, 0xbd,
  0xdf, 0xad, 0x99, 0xbd, 0xbc, 0x07, 0xd4, 0xbd, 0x41, 0x03, 0x56, 0xbd,
  0x81, 0xbf, 0x22, 0xbd, 0xf7, 0xe3, 0xd5, 0xbd, 0x63, 0x76, 0xa6, 0x3c,
  0xf1, 0x03, 0x8c, 0xbc, 0x88, 0x7c, 0x2b, 0xbd, 0x3a, 0x02, 0xab, 0xbd,
  0x17, 0xe3, 0xac, 0xbc, 0xcc, 0x4a, 0x5a, 0xbd, 0xe9, 0xa4, 0x71, 0xbc,
  0xa7, 0xf6, 0xea, 0xbc, 0x96, 0x97, 0x1a, 0xbd, 0xb3, 0xc9, 0xf0, 0xbc,
  0x65, 0xba, 0xc3, 0x3d, 0x5b, 0x01, 0xc5, 0xbd, 0xfc, 0xda, 0x21, 0xbc,
  0xe7, 0xe8, 0x1a, 0x3d, 0x17, 0x08, 0x1f, 0xbd, 0xdd, 0x94, 0xd3, 0x3b,
  0x20, 0xb7, 0x68, 0x3c, 0xd4, 0xfc, 0x17, 0x3d, 0xd7, 0x0a, 0x0d, 0xbe,
  0x2d, 0x90, 0x1c, 0x3e, 0xd8, 0xcf, 0x8f, 0xbc, 0x42, 0x63, 0x18, 0xbd,
  0x47, 0xe5, 0x4c, 0x3e, 0x3e, 0x72, 0x81, 0xbd, 0x7a, 0x5d, 0x8c, 0xbc,
  0xd4, 0x73, 0x28, 0x3e, 0x56, 0xfc, 0x29, 0x3c, 0xa3, 0xf7, 0x0a, 0x3d,
  0x4a, 0x66, 0x34, 0xbc, 0xed, 0x2d, 0xd5, 0x3d, 0xb6, 0x75, 0x14, 0xbe,
  0x33, 0x3b, 0x8b, 0x3d, 0xc2, 0xea, 0xe1, 0x3d, 0x76, 0xce, 0x75, 0xbe,
  0x96, 0xfe, 0x80, 0x3d, 0xde, 0x34, 0xd0, 0x3c, 0x5f, 0xe5, 0x80, 0x3c,
  0x68, 0xd4, 0x92, 0x3d, 0xac, 0xee, 0x2d, 0xbd, 0x99, 0x61, 0xed, 0xbd,
  0x15, 0xed, 0xea, 0xbb, 0xfb, 0x6e, 0xaa, 0x3d, 0x58, 0xe3, 0x62, 0xbe,
  0x2c, 0x71, 0x9d, 0x3d, 0xc5, 0x09, 0x05, 0x3e, 0x03, 0xed, 0x81, 0xbe,
  0x1a, 0xfb, 0xcd, 0x3d, 0xc3, 0x29, 0xf5, 0xbd, 0xe9, 0x22, 0xda, 0xbc,
  0xff, 0x8d, 0x89, 0x3c, 0x4a, 0xb1, 0x43, 0x3d, 0x4b, 0x79, 0x37, 0xbe,
  0xe1, 0x3c, 0x85, 0xbb, 0x2a, 0x6c, 0x20, 0x3d, 0xa5, 0x7e, 0x15, 0xbe,
  0x82, 0x26, 0xd8, 0x3d, 0xdf, 0xc1, 0xb5, 0x3c, 0x19, 0xe1, 0xcb, 0xbd,
  0x26, 0x90, 0xde, 0x3a, 0x60, 0x4b, 0xdb, 0x3c, 0x38, 0x2b, 0x85, 0x3d,
  0x7c, 0x1c, 0x8f, 0xbd, 0x3a, 0x42, 0x0b, 0x3e, 0x82, 0xaf, 0xf2, 0x3d,
  0xa9, 0x7c, 0x69, 0x3e, 0xa7, 0x4b, 0xc8, 0xbd, 0x5b, 0xf9, 0x82, 0xbb,
  0x57, 0x5a, 0x48, 0xbe, 0xae, 0xeb, 0x38, 0xbc, 0x16, 0x25, 0x2d, 0xbe,
  0xc6, 0x92, 0x9f, 0x3d, 0x4c, 0x70, 0xaa, 0xbd, 0xa2, 0x6f, 0x23, 0x3d,
  0x17, 0x59, 0xe5, 0x3c, 0x13, 0x97, 0xc3, 0x3d, 0xd5, 0x3d, 0x22, 0x3c,
  0xb5, 0xd7, 0x89, 0x3e, 0xf4, 0xeb, 0x0e, 0x3d, 0x98, 0x09, 0x77, 0x3c,
  0x09, 0x2b, 0x15, 0xbe, 0x76, 0xbc, 0x77, 0x3d, 0xbf, 0x1c, 0xc9, 0xbb,
  0xbc, 0x6b, 0x07, 0x3e, 0x80, 0xd9, 0x18, 0xbe, 0x14, 0x39, 0x21, 0xba,
  0xb7, 0x8c, 0x7f, 0x3d, 0xf3, 0x66, 0x36, 0xbd, 0xa5, 0x93, 0x01, 0x3e,
  0x6c, 0x2f, 0x32, 0x3e, 0xdb, 0xcc, 0x97, 0x3d, 0x18, 0x07, 0x9e, 0x3d,
  0x59, 0x0c, 0xd5, 0x3c, 0xbe, 0xd6, 0x1d, 0xbd, 0xaa, 0x85, 0x9b, 0x3d,
  0xe9, 0x4d, 0x8a, 0x3e, 0x52, 0xc9, 0x38, 0xbe, 0x25, 0xdf, 0x40, 0x3d,
  0xc1, 0xf0, 0x97, 0x3c, 0x6d, 0xa3, 0xfa, 0xbc, 0xc0, 0x0f, 0xf7, 0xbd,
  0xff, 0x8a, 0xd6, 0x3d, 0x20, 0xc8, 0xc9, 0x3d, 0xc8, 0x16, 0x78, 0xbc,
  0x83, 0x87, 0xf2, 0x3c, 0x74, 0xf6, 0x37, 0x3b, 0xa1, 0xdd, 0xc1, 0xbd,
  0x9e, 0x5f, 0x3a, 0x3b, 0x77, 0x2d, 0x35, 0xbd, 0xbb, 0x47, 0xde, 0x3d,
  0xd3, 0xf6, 0xbb, 0xbd, 0x88, 0x82, 0x65, 0xbc, 0x04, 0xad, 0x61, 0xbe,
  0xd6, 0xe2, 0xe1, 0x3d, 0xbe, 0x6d, 0x78, 0xbd, 0x61, 0x46, 0xe5, 0xbd,
  0x47, 0x3f, 0x9b, 0x3d, 0x62, 0xcc, 0x50, 0xbc, 0x57, 0x27, 0xb6, 0xbd,
  0x84, 0x1b, 0x61, 0xba, 0x24, 0x9c, 0xd1, 0x3c, 0x00, 0xfb, 0xaf, 0x3c,
  0x5a, 0x65, 0xae, 0xbd, 0xce, 0x57, 0xd3, 0xbd, 0x7f, 0x3b, 0xc5, 0xbb,
  0xdd, 0x71, 0x85, 0x3d, 0x04, 0x27, 0xf6, 0xbc, 0x10, 0x13, 0x09, 0x3d,
  0xcb, 0x1e, 0x22, 0xbc, 0xde, 0xd0, 0x2d, 0x3c, 0xa2, 0x57, 0xb0, 0x3d,
  0x46, 0x94, 0x01, 0xbd, 0x17, 0x8b, 0x76, 0x3d, 0x82, 0x88, 0x3a, 0x3d,
  0x42, 0x12, 0x33, 0x3d, 0x36, 0xec, 0xfa, 0x3d, 0x13, 0xb4, 0x11, 0x3d,
  0xf5, 0x47, 0x0a, 0xbd, 0x5b, 0xaf, 0x16, 0xbe, 0x8c, 0x1c, 0x30, 0x3d,
  0x55, 0x3a, 0x3d, 0x3d, 0xe6, 0x3d, 0x8d, 0x3e, 0x98, 0xac, 0xc4, 0x3d,
  0x56, 0xa8, 0x40, 0xbd, 0x5c, 0xe9, 0x30, 0xbd, 0xc0, 0x09, 0xd5, 0x3d,
  0x4f, 0x45, 0x0f, 0x3e, 0x89, 0xec, 0x9a, 0xbd, 0x65, 0xd5, 0x99, 0xbd,
  0x53, 0xde, 0x3e, 0xbc, 0xa4, 0x6e, 0x2b, 0x3d, 0x5b, 0xbd, 0xc7, 0x3d,
  0x72, 0x5d, 0x41, 0x3e, 0x22, 0x90, 0x08, 0xbc, 0xa2, 0x9b, 0x5c, 0x3e,
  0x66, 0x44, 0xa9, 0x3b, 0x02, 0x26, 0x9c, 0x3c, 0xc6, 0xd7, 0x79, 0xbc,
  0x16, 0xf5, 0xdf, 0x3d, 0x35, 0x99, 0x0a, 0xbe, 0x1d, 0x26, 0x2d, 0xbe,
  0xe1, 0x5a, 0xdc, 0xbe, 0x08, 0x12, 0x2d, 0x3e, 0x36, 0xc1, 0xc4, 0x3d,
  0xf8, 0x01, 0x75, 0xbd, 0x97, 0x49, 0x38, 0x3c, 0x2a, 0x78, 0x17, 0x3e,
  0xb7, 0xb6, 0x40, 0xbe, 0x6b, 0x0a, 0xd9, 0xbd, 0x55, 0x2d, 0x82, 0xbb,
  0x7d, 0xbd, 0x2e, 0x3e, 0x64, 0xf5, 0x8f, 0xbc, 0xe7, 0x9e, 0x0d, 0xbc,
  0x56, 0x1d, 0x90, 0xbe, 0x24, 0xb2, 0x13, 0x3e, 0x81, 0xb3, 0xaf, 0x3d,
  0x0a, 0x3f, 0xff, 0x3d, 0x62, 0x98, 0x4e, 0x3e, 0x35, 0x94, 0x49, 0xbe,
  0x87, 0xf3, 0x44, 0xbe, 0xe3, 0xa9, 0x2f, 0x3d, 0x47, 0x27, 0xd7, 0xbc,
  0x31, 0x74, 0x63, 0xbd, 0xd0, 0xaa, 0x27, 0x3e, 0x06, 0xfe, 0xd0, 0xbb,
  0x78, 0x04, 0xb9, 0x3d, 0xe2, 0x9b, 0x6d, 0x3d, 0xe9, 0x08, 0xb4, 0xbd,
  0x8e, 0x89, 0xf2, 0x3c, 0xec, 0x96, 0x83, 0xbd, 0x88, 0xfa, 0xa3, 0xbb,
  0xbd, 0x35, 0x1f, 0x3e, 0x08, 0x53, 0x5d, 0x3d, 0x6d, 0x5b, 0x89, 0xbd,
  0x0c, 0x7c, 0x2d, 0xbd, 0xb7, 0xf8, 0x91, 0xbc, 0x7b, 0x02, 0x1f, 0xbe,
  0x19, 0x57, 0xb3, 0x3d, 0x96, 0xf9, 0x99, 0x3d, 0x87, 0x65, 0x05, 0xbe,
  0xb3, 0xc3, 0xf6, 0xbc, 0x20, 0xc5, 0x8c, 0x3c, 0xa2, 0x68, 0x5a, 0xbd,
  0x4b, 0x97, 0x1b, 0x3e, 0x4e, 0x33, 0x13, 0xbd, 0x7a, 0xae, 0x18, 0x3e,
  0xe3, 0x55, 0xaf, 0xbc, 0xf5, 0xbc, 0xa5, 0xbd, 0xa9, 0xaa, 0x22, 0xbe,
  0xa6, 0xb6, 0xf0, 0x3c, 0xf9, 0x89, 0xa1, 0xbc, 0x0f, 0xbe, 0xdd, 0xbd,
  0xcb, 0x50, 0x9c, 0xbc, 0x02, 0x66, 0x6a, 0xbd, 0x2e, 0x8e, 0xe3, 0xbd,
  0xb2, 0x16, 0x91, 0x3d, 0x52, 0x0f, 0x54, 0xbc, 0xd5, 0x3e, 0xa5, 0x3d,
  0x48, 0x2e, 0x1a, 0xbd, 0x7f, 0x2e, 0xc2, 0xbd, 0xbb, 0xd3, 0xa1, 0x3c,
  0x2f, 0x99, 0x51, 0xbc, 0xac, 0xcd, 0x45, 0xbe, 0xa2, 0xc1, 0x56, 0xbe,
  0x0a, 0x0c, 0x50, 0x3c, 0x81, 0xa2, 0x17, 0x3d, 0x56, 0x21, 0x24, 0xbc,
  0xf1, 0xb4, 0xc6, 0xbc, 0x79, 0x97, 0x2a, 0xbc, 0x82, 0x7b, 0x9a, 0x3d,
  0x02, 0x70, 0xfb, 0xbb, 0x6c, 0xa6, 0x88, 0xbd, 0x24, 0xa3, 0x0a, 0x3d,
  0x00, 0xa1, 0xd6, 0xbd, 0x6c, 0xbd, 0xf3, 0xbe, 0x91, 0x0f, 0x0d, 0xbe,
  0x3d, 0xe1, 0x42, 0xbc, 0x06, 0xf0, 0x8c, 0xbd, 0x41, 0xc8, 0x2a, 0xbd,
  0x07, 0xcf, 0x3e, 0xbe, 0xb2, 0xfd, 0x12, 0x3d, 0x17, 0x57, 0x0c, 0xbd,
  0xd2, 0xeb, 0x21, 0xbd, 0xc6, 0xb5, 0xb2, 0xbd, 0xb7, 0xcf, 0x35, 0xbe,
  0xee, 0x2d, 0x27, 0xbe, 0x43, 0x11, 0x85, 0xbe, 0x0e, 0x60, 0x37, 0xbe,
  0x95, 0xaa, 0x16, 0xbe, 0x8f, 0xb6, 0x84, 0xbd, 0x8f, 0xbb, 0xa2, 0x3c,
  0xe4, 0xb9, 0x56, 0xbe, 0x2e, 0x9c, 0x09, 0xbe, 0x5b, 0x99, 0xf5, 0x3c,
  0x82, 0x88, 0x88, 0x3b, 0x7f, 0xcc, 0xe9, 0xbd, 0x0e, 0xc8, 0x59, 0xbd,
  0xaa, 0x47, 0x99, 0xbd, 0xec, 0xbd, 0x29, 0xbe, 0x83, 0x8d, 0x14, 0xbe,
  0x0f, 0x8a, 0x2e, 0xbe, 0x7f, 0x32, 0x4a, 0xbc, 0x0c, 0x20, 0x33, 0xbe,
  0xa6, 0x64, 0xa4, 0x3c, 0xbb, 0xcc, 0xac, 0xbe, 0x33, 0xf8, 0xd2, 0x3d,
  0x26, 0xe1, 0xf4, 0x3c, 0x65, 0x19, 0xd7, 0x3b, 0xb5, 0x75, 0x51, 0xbd,
  0xef, 0xda, 0x4a, 0xbe, 0xda, 0xca, 0x96, 0xbd, 0xf8, 0xfd, 0xb4, 0xbe,
  0x78, 0x5c, 0xcd, 0xbc, 0x55, 0xf8, 0x12, 0xbd, 0x8f, 0x18, 0xa6, 0xbe,
  0x21, 0x97, 0xda, 0xbd, 0x21, 0xe6, 0xd0, 0xbd, 0xa0, 0xcf, 0xa4, 0x3c,
  0x0f, 0xea, 0x00, 0xbc, 0x42, 0xb7, 0x82, 0x3d, 0xfc, 0xb4, 0x43, 0x3d,
  0xa4, 0xbb, 0x03, 0xbe, 0xcc, 0x9d, 0x33, 0x3d, 0xdc, 0xaf, 0x00, 0xbe,
  0xdb, 0xb5, 0xf2, 0xbc, 0x40, 0x22, 0x14, 0xbd, 0x25, 0x66, 0xaf, 0xbd,
  0xb7, 0x73, 0x6a, 0xbe, 0xbf, 0xf5, 0xe0, 0xbc, 0xa8, 0x08, 0xcc, 0xbc,
  0x20, 0x7e, 0x13, 0x3d, 0xaf, 0x42, 0x36, 0x3d, 0x5c, 0xe8, 0xfd, 0x3d,
  0xca, 0xa0, 0xd7, 0xbc, 0x90, 0x28, 0xa3, 0x3c, 0xe6, 0x1e, 0x37, 0xbd,
  0xd6, 0x64, 0xf2, 0x3c, 0xa7, 0x61, 0x39, 0x3d, 0x8f, 0x00, 0xe7, 0x3c,
  0xa0, 0x1b, 0x85, 0xbe, 0x10, 0x30, 0x26, 0x3d, 0xd7, 0x5b, 0x20, 0x3c,
  0x03, 0x91, 0x82, 0xbd, 0x27, 0xec, 0x08, 0x3e, 0x74, 0xa7, 0xbf, 0xbb,
  0xde, 0x05, 0x79, 0x3d, 0x27, 0x15, 0xb4, 0x3c, 0x84, 0x3c, 0xa6, 0xbd,
  0xd8, 0x47, 0x98, 0xbe, 0xd6, 0x38, 0x81, 0xbd, 0x7f, 0xa2, 0xf0, 0xbd,
  0x99, 0xf3, 0xf4, 0xbb, 0xb2, 0x03, 0x40, 0xbe, 0xc3, 0xf3, 0x24, 0x3d,
  0x23, 0x56, 0xe6, 0x3c, 0x57, 0xec, 0x2a, 0x3d, 0x62, 0x3c, 0x8b, 0x3d,
  0xbc, 0x6c, 0x11, 0x3d, 0xb7, 0xc2, 0xb0, 0x3d, 0x47, 0xc2, 0x12, 0xbe,
  0x29, 0xe5, 0xc2, 0xbe, 0x28, 0xfb, 0x8f, 0xbd, 0x60, 0x64, 0x94, 0xbe,
  0x14, 0x5b, 0xc7, 0x3c, 0xec, 0xa3, 0x47, 0xbd, 0x03, 0x0c, 0x70, 0x3d,
  0x6c, 0x4b, 0xfb, 0x3b, 0xfe, 0x24, 0x96, 0xbb, 0xa2, 0x38, 0x08, 0xbe,
  0x4c, 0x8b, 0x0c, 0x3e, 0xcf, 0x87, 0x25, 0x3c, 0x85, 0x03, 0x0e, 0xbe,
  0xbb, 0x71, 0x11, 0xbe, 0xc1, 0x60, 0x49, 0xbd, 0x86, 0x49, 0x7a, 0xbe,
  0xf3, 0xa6, 0x0c, 0x3d, 0x2d, 0xc4, 0xfa, 0xbd, 0x65, 0xfb, 0x84, 0xbd,
  0xd4, 0xbf, 0x27, 0xbd, 0x37, 0x59, 0x15, 0x3d, 0x57, 0xb2, 0xe3, 0xbb,
  0xfc, 0xad, 0x91, 0x3e, 0x1f, 0x84, 0x86, 0xbd, 0x34, 0xcd, 0xb7, 0xbd,
  0x82, 0xe7, 0xf0, 0xbd, 0x3c, 0xa5, 0x8b, 0xbd, 0x72, 0x0b, 0x40, 0xbe,
  0x2f, 0xf4, 0xe6, 0x3d, 0xb1, 0xa9, 0x46, 0xbe, 0xf0, 0xd3, 0x56, 0xbd,
  0x4e, 0x17, 0x38, 0x3c, 0x76, 0xee, 0xcf, 0xbd, 0x7a, 0xc8, 0x02, 0xbe,
  0x15, 0x00, 0xb4, 0x3d, 0x0d, 0x37, 0xbc, 0x3c, 0x53, 0xfc, 0xae, 0xbc,
  0xa9, 0xab, 0x8c, 0x3d, 0xb4, 0x80, 0x05, 0x3d, 0x3d, 0xcc, 0xb5, 0x3d,
  0xcc, 0x1d, 0xa1, 0x3d, 0xf1, 0xaa, 0x06, 0xbe, 0xc5, 0x5c, 0xa8, 0x3c,
  0x31, 0x35, 0xa0, 0xbd, 0xc5, 0xe5, 0xae, 0xbd, 0x35, 0x6c, 0xf9, 0xbd,
  0x3c, 0xdf, 0x07, 0x3e, 0xdc, 0xe6, 0x13, 0x3d, 0x7c, 0x65, 0xc3, 0x3d,
  0x83, 0x4f, 0x31, 0x3d, 0x06, 0x82, 0x31, 0xbe, 0x17, 0x85, 0xf6, 0xbd,
  0xd3, 0x60, 0x69, 0xbd, 0xcc, 0x24, 0x4a, 0xbe, 0xab, 0x89, 0x12, 0x3e,
  0x9e, 0xaa, 0xb7, 0xbd, 0xd1, 0xd8, 0x8a, 0xbb, 0x2c, 0x1a, 0x1a, 0xbe,
  0x32, 0x8a, 0x0a, 0xbe, 0xb5, 0x04, 0x6a, 0x3d, 0xe6, 0x58, 0xfa, 0x3c,
  0xba, 0xa5, 0xc3, 0xbd, 0x1f, 0xd6, 0x38, 0xbd, 0x6a, 0x86, 0x2c, 0xbe,
  0xd1, 0x2e, 0x7c, 0xbd, 0xdd, 0xd5, 0x97, 0xbd, 0xf0, 0x24, 0x14, 0x3e,
  0x91, 0x8c, 0xc3, 0xbd, 0x7e, 0xa6, 0x9f, 0x3d, 0x8f, 0x23, 0x1a, 0x3e,
  0xfd, 0x15, 0xfc, 0xbd, 0x35, 0xa9, 0xaf, 0x3d, 0xdc, 0x51, 0xed, 0xbd,
  0xe3, 0xba, 0xc2, 0xbd, 0xae, 0x09, 0x8b, 0x3d, 0xba, 0x51, 0x2d, 0x3b,
  0x3a, 0x83, 0x57, 0xbd, 0xd6, 0x69, 0x71, 0x3d, 0x5c, 0xd3, 0x21, 0xbb,
  0x24, 0xb3, 0xa0, 0x3d, 0x05, 0xb3, 0x39, 0x3c, 0x38, 0x05, 0xdd, 0xbc,
  0xe0, 0x8a, 0xdf, 0xbd, 0x59, 0xb0, 0x3a, 0xbd, 0xf2, 0xe4, 0x0f, 0xbe,
  0x03, 0xd5, 0xe4, 0x3c, 0x7b, 0x39, 0x1e, 0xba, 0x83, 0xb5, 0x89, 0x3b,
  0xfb, 0xbe, 0x8e, 0xbc, 0x38, 0x44, 0x93, 0x3d, 0x0c, 0x63, 0x7c, 0x3e,
  0x3b, 0x40, 0x27, 0xbd, 0x98, 0x1b, 0x72, 0x3c, 0x20, 0x22, 0x4f, 0xbe,
  0xa0, 0x09, 0xa4, 0xbd, 0x6e, 0xc8, 0x57, 0x3d, 0xa0, 0x2c, 0xab, 0xbc,
  0x28, 0x55, 0xa8, 0x3d, 0x18, 0xee, 0x62, 0x3d, 0x9d, 0x4d, 0x4c, 0x3d,
  0x2b, 0x62, 0x66, 0xbd, 0x08, 0x4d, 0xfc, 0x3d, 0x13, 0x67, 0x54, 0x3e,
  0x24, 0x62, 0x52, 0xbc, 0xa3, 0xb4, 0x0b, 0x3e, 0x11, 0x4b, 0x71, 0x3e,
  0x90, 0x03, 0xd0, 0x3c, 0x20, 0xdc, 0x89, 0x3d, 0x13, 0x50, 0x03, 0xbe,
  0x59, 0xb4, 0x2a, 0xbc, 0x28, 0xd9, 0x61, 0x3d, 0x30, 0xb9, 0x03, 0x3e,
  0x97, 0xc7, 0xc7, 0x3d, 0xf1, 0xc3, 0x66, 0xbc, 0x33, 0xb3, 0x10, 0xbe,
  0x91, 0x69, 0x6d, 0xbc, 0x3a, 0xde, 0x8e, 0x3d, 0x60, 0x0d, 0x4d, 0x3d,
  0x7a, 0xe4, 0x23, 0x3d, 0x19, 0xcd, 0x2f, 0xbe, 0xbd, 0x9a, 0x36, 0x3e,
  0xbb, 0x6a, 0xf1, 0x3d, 0xa8, 0xd2, 0x13, 0x3e, 0xff, 0x8c, 0x8e, 0x3d,
  0x11, 0x2a, 0x75, 0x3d, 0xbd, 0x7a, 0x6e, 0x3d, 0x87, 0x8b, 0x39, 0xbe,
  0x59, 0x02, 0xb7, 0x3d, 0x9b, 0x01, 0x55, 0x3d, 0x7f, 0xea, 0x39, 0xbe,
  0xde, 0x2a, 0xd5, 0xbc, 0x10, 0x82, 0x8a, 0xbe, 0x07, 0x8a, 0x96, 0xbc,
  0x6d, 0x30, 0x06, 0x3d, 0x1a, 0x84, 0xf7, 0xbd, 0x00, 0x3d, 0xd8, 0xba,
  0xf9, 0x81, 0x2b, 0x3d, 0x35, 0xcd, 0x60, 0xbc, 0x4a, 0x82, 0xef, 0xbd,
  0x3f, 0x10, 0x1e, 0x3e, 0x56, 0xfc, 0xda, 0xbe, 0x3d, 0x08, 0x60, 0xbd,
  0xf3, 0xfd, 0xf6, 0x3d, 0x31, 0x31, 0x9a, 0xbe, 0x28, 0x3a, 0x78, 0x3d,
  0x00, 0x1e, 0xba, 0xbe, 0xc7, 0x13, 0x41, 0x3d, 0x09, 0xa7, 0xad, 0x3c,
  0xad, 0xca, 0x95, 0x3d, 0x40, 0x0b, 0xa0, 0xbe, 0xdd, 0xb9, 0xa6, 0x3d,
  0xe3, 0x98, 0x14, 0xbd, 0x71, 0x71, 0x97, 0xbe, 0x30, 0x9b, 0xc5, 0x3d,
  0x97, 0x72, 0x07, 0xbe, 0xd2, 0x0b, 0x52, 0xbd, 0xc9, 0x3f, 0x8b, 0xbd,
  0x39, 0x2f, 0xb1, 0xbd, 0xa4, 0xcf, 0xe5, 0x3d, 0xb5, 0x53, 0x16, 0xbe,
  0x2f, 0x23, 0x04, 0x3d, 0x6a, 0x60, 0x26, 0xbe, 0x9e, 0x03, 0x6d, 0x3d,
  0xca, 0x82, 0xaa, 0x3c, 0xe0, 0xe0, 0x81, 0x3d, 0x3e, 0x16, 0xdd, 0x3d,
  0x59, 0xca, 0x67, 0x3d, 0x78, 0x16, 0x8c, 0x3d, 0x24, 0x6b, 0x1d, 0xbe,
  0x36, 0xf0, 0x3e, 0xbd, 0x87, 0x37, 0x1e, 0x3d, 0x29, 0x80, 0xe9, 0xbd,
  0x51, 0x31, 0x64, 0x3d, 0xf3, 0x89, 0x0b, 0x3d, 0xcb, 0x8d, 0x06, 0x3e,
  0x38, 0xfd, 0x79, 0x3e, 0x21, 0x88, 0x81, 0x3d, 0x40, 0x4f, 0x6a, 0x3d,
  0xa4, 0x4e, 0x9c, 0x3c, 0x10, 0xce, 0x9c, 0x3c, 0xb4, 0x28, 0xb1, 0x3c,
  0x79, 0x03, 0x87, 0x3d, 0x53, 0x9b, 0xfc, 0x3c, 0xfa, 0x7b, 0x58, 0xbc,
  0x61, 0xff, 0xbb, 0xbc, 0x4c, 0xf0, 0x7b, 0xbc, 0xe2, 0x69, 0xf5, 0x3d,
  0xf9, 0xb3, 0x01, 0x3e, 0x21, 0xc2, 0x08, 0x3e, 0xf9, 0xae, 0x52, 0xbd,
  0xd6, 0x73, 0x03, 0x3d, 0xb0, 0x14, 0xca, 0x3c, 0x69, 0x85, 0x31, 0x3d,
  0xbb, 0x07, 0xba, 0x3d, 0x12, 0x70, 0xb7, 0x3d, 0xd0, 0x40, 0xa0, 0x3c,
  0xc2, 0xbf, 0x64, 0x3d, 0x9c, 0x5f, 0xa5, 0x3d, 0xb4, 0x93, 0x14, 0x3e,
  0xd1, 0x40, 0x2c, 0xbd, 0x8c, 0x4e, 0x63, 0x3c, 0x8c, 0xaf, 0x2b, 0xbe,
  0x75, 0x4f, 0x24, 0x3d, 0x46, 0xcd, 0x3a, 0xbd, 0xc0, 0x1c, 0x18, 0x3d,
  0x1d, 0x65, 0x78, 0xbd, 0x53, 0x0a, 0x3f, 0xbd, 0x50, 0x54, 0x5b, 0x3d,
  0xd3, 0xd3, 0x39, 0x3d, 0x64, 0x6a, 0x3d, 0x3d, 0xed, 0xb6, 0xcb, 0x3c,
  0x85, 0x1d, 0x1d, 0xbe, 0x94, 0x3f, 0x66, 0x3d, 0xc1, 0x1a, 0x06, 0xbe,
  0xff, 0xc3, 0x15, 0xbb, 0xa4, 0x00, 0xe2, 0xbd, 0xc3, 0x1e, 0x66, 0xbd,
  0xb2, 0xae, 0xf0, 0x3b, 0xa2, 0x45, 0xa1, 0x3d, 0xb2, 0x60, 0x7e, 0x3d,
  0xf1, 0xda, 0xac, 0x3a, 0xef, 0x44, 0x92, 0xbb, 0xd2, 0x58, 0xbb, 0x3d,
  0x6e, 0x26, 0x3a, 0x3e, 0x0d, 0x49, 0x3e, 0xbd, 0x64, 0x63, 0x3f, 0xbc,
  0x50, 0x05, 0x93, 0xbd, 0x3a, 0xd7, 0x69, 0x3e, 0xbe, 0xb9, 0x93, 0x3d,
  0xa3, 0x48, 0x0b, 0x3e, 0x93, 0x02, 0x9f, 0xbd, 0x3f, 0x4c, 0xe8, 0xbd,
  0x31, 0xce, 0xc4, 0xbd, 0xf3, 0x4d, 0xc7, 0xbc, 0x62, 0x12, 0xe9, 0xbb,
  0x10, 0x6e, 0x2f, 0xbd, 0x4e, 0x07, 0x20, 0xbd, 0x8f, 0x8f, 0xa3, 0x3d,
  0xf2, 0x50, 0x2e, 0xbd, 0x06, 0xc2, 0xbf, 0x3d, 0x99, 0x26, 0x21, 0x3d,
  0xbc, 0x66, 0x14, 0x3d, 0x90, 0xbd, 0x06, 0x3d, 0x11, 0xb5, 0x62, 0xbd,
  0xa1, 0x37, 0x76, 0xbe, 0x5e, 0xa3, 0xad, 0xbd, 0x69, 0xde, 0xeb, 0xbc,
  0x1e, 0x91, 0x31, 0xbe, 0x65, 0x28, 0xa5, 0xbc, 0xa0, 0xc2, 0x4d, 0x3b,
  0x4b, 0x58, 0x7f, 0xbd, 0xa7, 0xcb, 0xe2, 0x3d, 0xdd, 0x5e, 0xa6, 0x3c,
  0x84, 0x76, 0x98, 0x3d, 0x36, 0x7a, 0xbc, 0x3d, 0x97, 0xf3, 0x70, 0xbe,
  0xf7, 0xa1, 0x3e, 0xbe, 0x8e, 0x8b, 0xa3, 0x3d, 0xa2, 0x2a, 0x37, 0xbd,
  0xf8, 0xf2, 0x73, 0xbe, 0xfc, 0xb2, 0xe1, 0x3d, 0x19, 0x87, 0x06, 0x3b,
  0x6c, 0x39, 0xfc, 0x3d, 0x7d, 0x00, 0x33, 0x3e, 0x6f, 0x8a, 0x16, 0xbe,
  0xe7, 0xfb, 0x1e, 0x3e, 0x85, 0x4a, 0x90, 0xbc, 0xb3, 0xba, 0xcc, 0x3d,
  0x33, 0x34, 0x06, 0x3d, 0x57, 0x38, 0x9d, 0x3d, 0xba, 0x46, 0x29, 0x3e,
  0x1a, 0x90, 0x6a, 0xbe, 0xbb, 0xb7, 0x13, 0x3e, 0x26, 0x24, 0x72, 0xbd,
  0x2c, 0x3f, 0xe3, 0x3d, 0xd8, 0x6a, 0xf8, 0x3d, 0xd9, 0x3a, 0x46, 0xbd,
  0x39, 0xd0, 0xb5, 0x3d, 0xf8, 0x1d, 0x36, 0x3e, 0xd8, 0x62, 0x33, 0x3d,
  0xe6, 0xa8, 0x37, 0x3e, 0x66, 0x45, 0xfa, 0x39, 0xe5, 0xae, 0xc8, 0x3d,
  0xef, 0x98, 0x0f, 0xbe, 0xe0, 0xdc, 0xa8, 0x3d, 0x75, 0x90, 0x45, 0xbe,
  0x8b, 0x6e, 0xa1, 0x3b, 0x70, 0x79, 0x80, 0x3d, 0x31, 0x42, 0x8a, 0x3d,
  0xe6, 0xa6, 0xbb, 0x3d, 0x6a, 0xf6, 0x9d, 0xbc, 0x36, 0xc3, 0xbf, 0xbc,
  0xe2, 0x95, 0x29, 0x3e, 0xbf, 0x53, 0x30, 0xbb, 0x2b, 0x88, 0x3d, 0xbe,
  0x58, 0x6d, 0x54, 0x3d, 0xb4, 0x0a, 0x57, 0xbd, 0x76, 0xa3, 0x67, 0xbd,
  0x07, 0xba, 0x06, 0xbd, 0x83, 0x5f, 0x2f, 0x3d, 0xe6, 0x4b, 0xff, 0xbb,
  0xe6, 0x3e, 0x7b, 0x3d, 0xb0, 0xd3, 0x46, 0xbe, 0x02, 0x22, 0x1b, 0x3d,
  0x3a, 0x29, 0x13, 0x3e, 0xc5, 0x68, 0x3a, 0x3d, 0x58, 0xcf, 0x96, 0xbe,
  0xf3, 0x7a, 0x8d, 0xbc, 0x33, 0x5f, 0xa7, 0xbd, 0xfa, 0x02, 0x9c, 0x3a,
  0xc9, 0x2c, 0x23, 0xbd, 0x75, 0x8f, 0x3d, 0xbe, 0x37, 0xac, 0xbd, 0x3b,
  0xdf, 0xb5, 0x17, 0xbe, 0x57, 0x32, 0x51, 0xbd, 0x4e, 0xd9, 0xa6, 0x3d,
  0x02, 0xea, 0x54, 0x3d, 0x40, 0x5a, 0xe4, 0x3c, 0x9d, 0x21, 0xd3, 0xbe,
  0x39, 0xe7, 0x4a, 0xbe, 0x87, 0xd8, 0xad, 0xbd, 0x0f, 0x65, 0x4a, 0xbd,
  0x09, 0xf0, 0xa4, 0xbc, 0xd8, 0x6a, 0xed, 0x3c, 0x3b, 0x99, 0x23, 0xbd,
  0x97, 0xdf, 0x8d, 0xbd, 0x7d, 0x8d, 0x89, 0x3d, 0x1f, 0x7c, 0xd1, 0xbd,
  0xe7, 0x5e, 0x92, 0xbb, 0x36, 0x95, 0x9d, 0xbb, 0x74, 0x3f, 0xbf, 0xbe,
  0xb2, 0x26, 0xb5, 0xbd, 0xea, 0x1b, 0x8b, 0x3d, 0x81, 0x7e, 0x95, 0xbc,
  0x40, 0x08, 0x89, 0x3d, 0x33, 0xf7, 0x14, 0x3e, 0x16, 0xf7, 0xd6, 0xbc,
  0xf6, 0xe4, 0x06, 0xbd, 0x4f, 0x6f, 0x07, 0x3e, 0xe9, 0x00, 0x78, 0x3d,
  0x56, 0x9f, 0x40, 0xbd, 0x95, 0x30, 0xbf, 0xba, 0xf5, 0x28, 0xc9, 0xbc,
  0xa4, 0x5f, 0x6e, 0x3c, 0xcc, 0xa7, 0x06, 0x3e, 0x66, 0x89, 0x16, 0xbe,
  0x97, 0x50, 0x76, 0xbd, 0x22, 0x95, 0xa2, 0xbd, 0x80, 0x3a, 0xdd, 0xbc,
  0xaf, 0x85, 0x75, 0xbd, 0xad, 0xac, 0x30, 0xbd, 0x22, 0x95, 0x11, 0xbe,
  0x79, 0x90, 0xd5, 0xbd, 0xb6, 0xaa, 0x30, 0xbe, 0x9e, 0x42, 0x30, 0x3d,
  0xd0, 0x1d, 0x08, 0xbe, 0xb6, 0xae, 0x9f, 0x3c, 0xaa, 0x8d, 0x3b, 0xbe,
  0x76, 0xf0, 0x59, 0xbd, 0x67, 0x5b, 0xac, 0xbc, 0x73, 0x7b, 0x52, 0xbe,
  0x32, 0xf9, 0x09, 0x3d, 0x9b, 0xc5, 0xa0, 0xbd, 0x64, 0x1c, 0x6a, 0xbe,
  0xbd, 0xb8, 0xe9, 0xbd, 0x9c, 0x09, 0x01, 0xbe, 0x91, 0x35, 0xe3, 0xbc,
  0x1e, 0x8d, 0x9c, 0xbd, 0x48, 0x36, 0x2d, 0x3c, 0x62, 0xee, 0x0b, 0xbe,
  0x70, 0x14, 0xa3, 0xbd, 0x7e, 0x95, 0x5f, 0xbd, 0xc1, 0x45, 0xc6, 0xbd,
  0xd1, 0x16, 0x1f, 0x3d, 0x8c, 0xa2, 0xb9, 0xbd, 0x58, 0x7d, 0x42, 0xbe,
  0x60, 0xfe, 0xc7, 0xbd, 0xa4, 0x23, 0x8a, 0xbd, 0x23, 0xc1, 0x36, 0xbd,
  0xae, 0xef, 0xc7, 0xbd, 0x15, 0x7b, 0xbf, 0x3d, 0xfc, 0x75, 0x1c, 0xbe,
  0x5f, 0xbe, 0xe3, 0xbd, 0x7d, 0x03, 0x55, 0xbb, 0x83, 0x47, 0x8f, 0xbd,
  0xcd, 0xe6, 0x46, 0x3d, 0x45, 0x3c, 0xcd, 0xbd, 0x7e, 0x34, 0xb4, 0xbd,
  0x4f, 0xc2, 0xd9, 0xbd, 0x41, 0xa6, 0x5a, 0xbc, 0xf4, 0xbc, 0x07, 0x3c,
  0xeb, 0xaa, 0xcf, 0xbd, 0x1b, 0x91, 0x89, 0x3d, 0x75, 0x28, 0x1a, 0x3d,
  0xad, 0xec, 0xe4, 0xbd, 0x19, 0x29, 0x77, 0x3d, 0xe0, 0x98, 0xd3, 0xbd,
  0xcf, 0xf6, 0xff, 0xbc, 0x92, 0xb4, 0xbe, 0x3c, 0x69, 0x39, 0x43, 0x3d,
  0xd6, 0x0b, 0x79, 0xbd, 0x2e, 0xe5, 0xa7, 0xbc, 0x7a, 0x45, 0x1a, 0x3d,
  0x22, 0x38, 0x84, 0x3d, 0x06, 0xe1, 0xc2, 0x3b, 0x0c, 0x66, 0x13, 0x3e,
  0xc7, 0x47, 0x18, 0xbe, 0xe1, 0x62, 0x02, 0xbe, 0x0f, 0x04, 0x6b, 0xbd,
  0xde, 0xb4, 0x5c, 0x3d, 0xea, 0xdc, 0x0b, 0x3e, 0x86, 0xae, 0xd5, 0x3d,
  0x27, 0x0d, 0x8e, 0xbe, 0xe3, 0xc5, 0x9e, 0x3d, 0x2b, 0x2e, 0x4e, 0xbe,
  0xaf, 0x1d, 0xed, 0xbd, 0x26, 0xf2, 0x82, 0xbb, 0xa0, 0xc6, 0x48, 0x3d,
  0xec, 0x9b, 0x81, 0xbd, 0x8f, 0x18, 0xb0, 0xbe, 0xa5, 0xe4, 0x63, 0x3d,
  0xfd, 0xab, 0xf6, 0x3d, 0x9f, 0xe5, 0x99, 0xbc, 0xd9, 0xe5, 0x73, 0x3d,
  0xe1, 0xb5, 0x3f, 0xbe, 0x0e, 0x5a, 0xce, 0x3d, 0x74, 0x8e, 0x85, 0xbe,
  0x26, 0xb5, 0x3f, 0xbe, 0xd6, 0x47, 0xff, 0xbd, 0x49, 0xd2, 0xcd, 0xbd,
  0xb3, 0x11, 0x39, 0xbd, 0x87, 0x80, 0xc8, 0xbe, 0xf3, 0x88, 0x04, 0x3d,
  0x97, 0x82, 0xe0, 0x3c, 0x19, 0x46, 0x53, 0xbc, 0xff, 0x5a, 0xa8, 0x3d,
  0xd7, 0x4c, 0x5e, 0xbe, 0x52, 0xb4, 0x0d, 0x3d, 0xca, 0x10, 0xeb, 0xbd,
  0x5e, 0xdc, 0x85, 0xbd, 0x65, 0xb9, 0xd8, 0xbe, 0xf8, 0x4d, 0x2e, 0x3d,
  0x16, 0x10, 0x8d, 0x3b, 0xea, 0x31, 0x3c, 0xbe, 0x3a, 0x2e, 0x6c, 0xbc,
  0x02, 0x12, 0x46, 0xbe, 0x44, 0x67, 0x14, 0xbe, 0xca, 0x67, 0x9a, 0xbd,
  0x93, 0x99, 0x1d, 0xbd, 0xaf, 0xdc, 0x30, 0xbe, 0x05, 0xe1, 0xb5, 0x3c,
  0xb4, 0x19, 0xfe, 0xbd, 0xde, 0xaa, 0xd3, 0xbd, 0x3f, 0xf7, 0x9b, 0x3d,
  0x13, 0x78, 0xcb, 0x3d, 0x81, 0xe1, 0xfa, 0x3c, 0x7b, 0x97, 0x29, 0xbd,
  0x81, 0x2b, 0x61, 0xbd, 0x7d, 0xd9, 0x9b, 0xbb, 0xfe, 0x69, 0xb1, 0xbd,
  0xb3, 0x9d, 0xa1, 0x3d, 0xdf, 0x99, 0x19, 0xbe, 0x2d, 0x9d, 0x4f, 0x3d,
  0xf5, 0x36, 0x4e, 0xbd, 0xc0, 0xd2, 0x86, 0x3d, 0xdc, 0x37, 0x1e, 0x3d,
  0xc9, 0xf2, 0xcf, 0x3c, 0xf7, 0x21, 0x4d, 0xbd, 0x5a, 0xd8, 0xdc, 0x3d,
  0x6a, 0x11, 0xef, 0xbd, 0x9e, 0xa1, 0xa8, 0xbd, 0xb7, 0x4a, 0xab, 0xbd,
  0xf7, 0x79, 0x43, 0x3d, 0x87, 0x20, 0xda, 0xbd, 0x1d, 0xd2, 0xa7, 0x3c,
  0x75, 0xc5, 0xd9, 0x3d, 0x59, 0x46, 0xe6, 0xbc, 0xe2, 0x4e, 0xc4, 0xbd,
  0x8f, 0xda, 0x99, 0x3d, 0x4c, 0x3c, 0x70, 0x3d, 0xd5, 0xfd, 0x24, 0x3d,
  0x30, 0x0b, 0xd1, 0xbd, 0x70, 0xa5, 0xd7, 0xbc, 0xf4, 0xb1, 0xb9, 0x3d,
  0xf4, 0xce, 0x59, 0xbc, 0x2b, 0xa7, 0x03, 0xbe, 0xc5, 0x2c, 0x27, 0x3d,
  0x87, 0xdc, 0xb4, 0x3c, 0x6b, 0x0e, 0xbc, 0x3c, 0x5d, 0x2c, 0x28, 0x3d,
  0xc2, 0xa2, 0xd6, 0x3d, 0xdf, 0xb2, 0x08, 0xbc, 0xf2, 0xa9, 0x16, 0xbc,
  0xca, 0xf7, 0x36, 0xbd, 0x5c, 0xd7, 0x12, 0xbd, 0xd0, 0x7e, 0x85, 0xbd,
  0x64, 0x06, 0x36, 0x3e, 0x17, 0xfb, 0x87, 0xba, 0x78, 0x20, 0xfe, 0x3d,
  0x4b, 0xad, 0x1f, 0x3e, 0xf0, 0x2b, 0x7d, 0xbc, 0x58, 0x33, 0x00, 0xbd,
  0xac, 0x75, 0xd4, 0x3d, 0xe7, 0x76, 0x19, 0x3e, 0x9f, 0xbe, 0x16, 0xbd,
  0xb3, 0x08, 0x84, 0xbd, 0xa2, 0xf1, 0x7b, 0x3d, 0xf9, 0xd8, 0xbc, 0x3d,
  0xbb, 0x70, 0xef, 0x3d, 0xac, 0x91, 0xe3, 0x3d, 0xff, 0x4c, 0xce, 0x3d,
  0x25, 0x31, 0x97, 0x3e, 0xe1, 0xc8, 0xda, 0xbd, 0x34, 0xd4, 0x31, 0x3e,
  0x25, 0x2b, 0xd9, 0x3c, 0x3e, 0xcd, 0x6e, 0x3d, 0x30, 0x5b, 0xfe, 0x3d,
  0x1e, 0x31, 0x4b, 0x3c, 0xe9, 0xf5, 0xf2, 0x3d, 0xeb, 0xfc, 0xbb, 0x3b,
  0x7c, 0xa8, 0xc2, 0x3d, 0x76, 0x77, 0x6b, 0x3c, 0x0b, 0x18, 0x34, 0x3d,
  0x2f, 0x82, 0x8a, 0x3e, 0x37, 0x13, 0x8d, 0xbc, 0x56, 0x9d, 0xf0, 0x3a,
  0xc3, 0xe9, 0xb2, 0xbc, 0x03, 0x61, 0x1e, 0xbe, 0x5c, 0x54, 0x27, 0x3e,
  0x5d, 0xd9, 0x88, 0xba, 0x3e, 0xf6, 0x37, 0x3d, 0x16, 0x83, 0x8c, 0x3c,
  0x36, 0x8a, 0xcc, 0x3d, 0x7a, 0xdc, 0x8c, 0x3d, 0x8e, 0x27, 0xd2, 0xbb,
  0xc4, 0x14, 0x82, 0x3d, 0x76, 0xc6, 0x5d, 0xbe, 0x36, 0xfa, 0x75, 0xbd,
  0x67, 0x81, 0x34, 0xbc, 0x6a, 0xc3, 0xb0, 0xbe, 0xf3, 0x4e, 0xac, 0x3d,
  0x5f, 0x06, 0xfb, 0xbd, 0x62, 0x5b, 0x19, 0x3b, 0x0b, 0xd3, 0xe5, 0x3c,
  0x5f, 0x10, 0xd8, 0x3d, 0x88, 0x12, 0xc5, 0xbc, 0x87, 0xd9, 0x8e, 0xbd,
  0x30, 0xc6, 0xc1, 0x3c, 0x83, 0x1a, 0xd5, 0xbe, 0xcb, 0x05, 0x5b, 0xbd,
  0xd0, 0x1b, 0xf3, 0xbd, 0xa5, 0xbe, 0x87, 0xbe, 0x4a, 0xaf, 0xa4, 0xbd,
  0x0b, 0x44, 0x37, 0xbe, 0x98, 0x61, 0xb1, 0xbd, 0xb9, 0x48, 0x8f, 0x3d,
  0x77, 0xbd, 0x4d, 0xbd, 0x38, 0x8d, 0x23, 0xbd, 0x95, 0x12, 0xb7, 0xbd,
  0xaa, 0x72, 0x12, 0xbe, 0xef, 0x09, 0x92, 0xbe, 0x5a, 0x83, 0x42, 0x3d,
  0xfb, 0x4d, 0x48, 0xbe, 0x88, 0x5c, 0xa5, 0xbc, 0x7d, 0x63, 0xeb, 0xbd,
  0x19, 0x3a, 0x01, 0xbe, 0xf5, 0x2a, 0x0e, 0xbe, 0x61, 0x71, 0x99, 0xbd,
  0xd7, 0x30, 0x25, 0xbe, 0xde, 0x0c, 0xce, 0xbc, 0xd5, 0xb3, 0x19, 0x3d,
  0x57, 0xab, 0x1a, 0xbe, 0x1b, 0x51, 0xcc, 0x3c, 0x7d, 0x5c, 0xc8, 0x3c,
  0xe9, 0x06, 0xd2, 0xbd, 0x83, 0x8e, 0x94, 0x3d, 0xcb, 0xc6, 0x07, 0xbd,
  0x2d, 0x24, 0x39, 0xbe, 0x5c, 0xad, 0x1b, 0xbe, 0x9a, 0xd6, 0x54, 0xbd,
  0xf5, 0x65, 0x9e, 0xbd, 0x94, 0xaf, 0x52, 0xbd, 0x1e, 0x6d, 0x40, 0xbd,
  0xd7, 0x96, 0x19, 0xbc, 0x26, 0x8f, 0x11, 0x3e, 0xbc, 0xc3, 0xe1, 0xbd,
  0x1a, 0x93, 0xf6, 0x3d, 0x8f, 0xbc, 0xa5, 0x3d, 0x62, 0xab, 0xfa, 0xbd,
  0x45, 0x50, 0x8b, 0x3b, 0x72, 0x9d, 0xe4, 0x3c, 0x95, 0x29, 0x95, 0xbd,
  0xd2, 0xa5, 0x59, 0x3e, 0xee, 0xff, 0x8d, 0xbe, 0x19, 0x5b, 0x0a, 0xbe,
  0x32, 0x04, 0xb5, 0x3b, 0x1e, 0xee, 0x60, 0xbc, 0x7b, 0x9d, 0x99, 0xbe,
  0x90, 0x44, 0x86, 0xbd, 0xfb, 0x10, 0x25, 0x3e, 0x8b, 0x18, 0x0a, 0xbe,
  0xd3, 0xdc, 0xca, 0x3d, 0x62, 0x0f, 0x8a, 0x3b, 0x0b, 0x7d, 0x13, 0xbe,
  0x71, 0xc9, 0xb2, 0x3d, 0xd7, 0x1b, 0x8e, 0xbd, 0x31, 0xbc, 0x33, 0xbd,
  0x4a, 0xe9, 0xc1, 0x3d, 0x96, 0x60, 0x8c, 0xbc, 0x66, 0xaf, 0x1d, 0xbe,
  0x63, 0x3c, 0x13, 0x3d, 0x48, 0xc0, 0xda, 0x3a, 0x2e, 0x66, 0xf4, 0xbd,
  0x29, 0x52, 0xec, 0x3c, 0x82, 0xf2, 0x53, 0x3d, 0xcd, 0x30, 0xf6, 0xbd,
  0x36, 0x1a, 0x33, 0xbe, 0x23, 0xb1, 0xfe, 0x3c, 0x03, 0xa1, 0x68, 0xbc,
  0x27, 0x45, 0x21, 0xbe, 0x5c, 0x95, 0xbb, 0xbd, 0x8b, 0xaa, 0x01, 0x3e,
  0xff, 0x93, 0x5a, 0xbc, 0x98, 0x63, 0x98, 0x3d, 0xc5, 0x33, 0xb6, 0xbd,
  0x13, 0x10, 0x70, 0xbc, 0x98, 0xc0, 0xa7, 0x3d, 0x28, 0x88, 0x4d, 0xbd,
  0x4e, 0x2d, 0xd5, 0xbd, 0x0f, 0xfc, 0x3b, 0xbd, 0xf5, 0x1a, 0xcc, 0x3d,
  0xda, 0xfa, 0x45, 0xbd, 0xff, 0xce, 0x15, 0x3d, 0xd6, 0x10, 0xc6, 0xbd,
  0x52, 0x7f, 0x29, 0x3b, 0x39, 0x6d, 0xdc, 0xbd, 0x73, 0x06, 0x08, 0xbe,
  0x2d, 0x9c, 0xe6, 0x3c, 0x39, 0xb2, 0x1f, 0x3d, 0x9e, 0xe2, 0xaf, 0x3a,
  0x21, 0x55, 0x3d, 0xbc, 0xe5, 0x3d, 0xa3, 0x3c, 0x92, 0xe2, 0xba, 0x3d,
  0x33, 0x50, 0xf1, 0x3c, 0x9a, 0xef, 0x35, 0x3d, 0x7b, 0x52, 0x81, 0xbe,
  0xad, 0xbc, 0x40, 0xbd, 0x34, 0x0b, 0xf6, 0x3c, 0x35, 0x22, 0x89, 0xbd,
  0x14, 0xdf, 0x4f, 0x3d, 0xe3, 0x42, 0x18, 0x3c, 0xe7, 0x47, 0xb2, 0x3d,
  0xae, 0x5c, 0x29, 0xbc, 0xa9, 0x07, 0x8c, 0x3d, 0xf6, 0x57, 0xc2, 0x3d,
  0xee, 0x69, 0x25, 0x3b, 0xcb, 0x72, 0xdd, 0xbb, 0xd5, 0x2a, 0x4b, 0xbe,
  0xa4, 0x4a, 0xb2, 0xbd, 0xa1, 0x25, 0x01, 0xbe, 0x44, 0xc6, 0xea, 0xbc,
  0xc1, 0x2d, 0x62, 0x3d, 0xc7, 0xae, 0xa8, 0xbd, 0x66, 0x95, 0x21, 0x3d,
  0x5d, 0xa5, 0x1c, 0xbe, 0xf4, 0xd1, 0x9b, 0xbb, 0xc1, 0xdc, 0xc8, 0x3d,
  0xd0, 0xb0, 0x2f, 0xbe, 0x07, 0x0a, 0x1f, 0xbe, 0x6b, 0x4d, 0x48, 0x3d,
  0x94, 0x7a, 0x11, 0xbe, 0xd3, 0x28, 0xe6, 0xbe, 0xc5, 0x7b, 0xfd, 0xbc,
  0x98, 0x89, 0x99, 0x3d, 0x00, 0x8c, 0xa0, 0xbd, 0xef, 0xf3, 0xab, 0xbc,
  0xe3, 0xaf, 0x06, 0xbe, 0xfa, 0x19, 0xe0, 0x3d, 0xf1, 0x66, 0xef, 0xbd,
  0x16, 0x16, 0x71, 0xbe, 0x53, 0x87, 0x0d, 0xbe, 0xf4, 0xf1, 0x22, 0x3e,
  0x53, 0x49, 0xbb, 0x3c, 0x1d, 0xc3, 0x45, 0xbe, 0xc2, 0xca, 0xd0, 0xbd,
  0xa0, 0x5b, 0x02, 0x3c, 0x39, 0xcf, 0x74, 0xbd, 0xf1, 0x5c, 0xf3, 0x3d,
  0x15, 0xca, 0xa9, 0x3c, 0x99, 0xd4, 0x12, 0x3d, 0x5c, 0xd6, 0xb4, 0xbe,
  0xdb, 0xa6, 0x0c, 0xbe, 0xe5, 0x84, 0xb9, 0xbc, 0x32, 0x06, 0x09, 0x3d,
  0x1a, 0x97, 0xa8, 0x3d, 0xce, 0x14, 0xd6, 0xbd, 0x53, 0x40, 0x32, 0xbe,
  0x2d, 0x50, 0x94, 0xbe, 0x26, 0x71, 0xc7, 0xbd, 0x69, 0x0f, 0xa5, 0xbd,
  0xfb, 0xae, 0x69, 0x3e, 0xf8, 0x5a, 0x07, 0xbe, 0x0e, 0x81, 0x0c, 0xbe,
  0x05, 0xf9, 0x46, 0xbe, 0x48, 0x44, 0xfd, 0xbc, 0xa9, 0x78, 0x01, 0x3e,
  0x08, 0xd5, 0x24, 0xbd, 0x8e, 0xba, 0x32, 0xbe, 0x2f, 0x57, 0x5f, 0xbd,
  0xd2, 0xf0, 0xb2, 0x3d, 0x87, 0x4b, 0xa5, 0xbe, 0x0b, 0xe8, 0xe7, 0xbd,
  0x5d, 0x7a, 0x0d, 0xbd, 0xdf, 0x30, 0x55, 0xbc, 0xac, 0xcb, 0x39, 0x3d,
  0xa4, 0x1f, 0xba, 0x3c, 0x21, 0x2f, 0xf8, 0x3c, 0xf5, 0x2e, 0xaf, 0x3d,
  0x40, 0xc2, 0x30, 0x3d, 0xa3, 0x22, 0x9e, 0x3d, 0x43, 0xf5, 0x0a, 0xbe,
  0xd3, 0x5f, 0x41, 0xbb, 0x89, 0x3c, 0x95, 0xbe, 0xf5, 0x85, 0xbf, 0x3c,
  0xb9, 0x9f, 0x17, 0x3c, 0x70, 0x85, 0x41, 0xbc, 0x2d, 0xfa, 0x53, 0xbe,
  0x26, 0x8d, 0x93, 0x3d, 0xe8, 0xc5, 0xf3, 0x3d, 0x3b, 0x34, 0x42, 0x3d,
  0xe7, 0xcb, 0xe6, 0x3b, 0x53, 0xda, 0x01, 0x3e, 0x86, 0xa9, 0x59, 0xbd,
  0x63, 0x49, 0x80, 0xbc, 0x3d, 0xb7, 0x21, 0xbe, 0x8a, 0xf6, 0x93, 0x3d,
  0xf8, 0x27, 0x3f, 0x3e, 0x74, 0xe4, 0x5e, 0xbe, 0xd1, 0xc9, 0xa8, 0xbe,
  0x5d, 0xad, 0xb4, 0x3d, 0x17, 0x88, 0x1a, 0x3e, 0x3e, 0x80, 0xee, 0xbd,
  0x47, 0x80, 0x1d, 0xbd, 0x0b, 0xd6, 0xba, 0x3d, 0x5b, 0x19, 0xbe, 0xbd,
  0xab, 0x28, 0x8e, 0x3d, 0x3b, 0x27, 0x5c, 0x3d, 0x28, 0x0c, 0xb4, 0xbd,
  0x88, 0x8c, 0xd5, 0x3d, 0xb9, 0x33, 0x3a, 0xbe, 0xc6, 0x4f, 0xc0, 0xbd,
  0x3e, 0x8f, 0x0f, 0x3e, 0x8d, 0x19, 0x43, 0x3d, 0x60, 0x06, 0x21, 0xbe,
  0x6d, 0x4b, 0x60, 0x3c, 0x09, 0x41, 0x4d, 0xbc, 0x96, 0x5e, 0xb5, 0xbd,
  0x7b, 0x52, 0xfa, 0x3c, 0x60, 0xa7, 0xfa, 0x3d, 0xa6, 0x1a, 0xa6, 0xbe,
  0x48, 0xf3, 0xed, 0xbd, 0x3c, 0x65, 0x5f, 0x3d, 0x85, 0x7c, 0xf6, 0xbc,
  0x66, 0x49, 0x34, 0x3d, 0x19, 0x81, 0x25, 0xbd, 0x33, 0xdb, 0xb8, 0xbb,
  0xf4, 0x8e, 0x34, 0xbd, 0xe9, 0x46, 0x9e, 0x3d, 0x38, 0xb3, 0xd2, 0xbe,
  0x31, 0x99, 0x42, 0x3d, 0x7a, 0xe3, 0x87, 0x3d, 0x06, 0x96, 0x01, 0xbd,
  0x40, 0x38, 0xb0, 0xbc, 0x6c, 0x2c, 0x57, 0x3d, 0x3d, 0x18, 0x81, 0x3d,
  0x88, 0x6c, 0x3f, 0x3c, 0x21, 0xb3, 0xd1, 0xbd, 0x4e, 0x60, 0xa5, 0x3d,
  0x64, 0xdb, 0x39, 0xbc, 0xa3, 0x59, 0x49, 0xbe, 0x80, 0xeb, 0xe2, 0x3c,
  0xc0, 0xb8, 0x1d, 0x3d, 0x21, 0xe8, 0x39, 0xbd, 0xe9, 0x4b, 0x0d, 0x3d,
  0x64, 0x0b, 0x6f, 0xbd, 0x5e, 0x51, 0x34, 0x3d, 0x7d, 0x7c, 0x46, 0x3d,
  0xef, 0xd4, 0xa1, 0x3d, 0x3c, 0x78, 0xc0, 0xbd, 0xa9, 0x98, 0x21, 0x3d,
  0xed, 0xcd, 0xa3, 0x3d, 0x4b, 0x25, 0xc1, 0xbd, 0x47, 0x3b, 0x7c, 0x3b,
  0x14, 0x17, 0xef, 0x3b, 0x26, 0x11, 0x68, 0xbc, 0x72, 0xdb, 0x21, 0xbd,
  0x6f, 0xa9, 0x1f, 0x3d, 0xd9, 0x13, 0x30, 0x3d, 0x58, 0x74, 0x83, 0xbd,
  0x66, 0x05, 0xc6, 0xbd, 0x9a, 0x02, 0xcd, 0xbd, 0x7c, 0xe4, 0x84, 0xba,
  0x61, 0xd6, 0xd1, 0x3d, 0x26, 0x02, 0x44, 0xbd, 0xbf, 0x95, 0x47, 0x3d,
  0x8d, 0x2b, 0xa4, 0xbd, 0x3f, 0x65, 0x2e, 0xbe, 0x3b, 0x5f, 0x12, 0x3d,
  0x4b, 0x83, 0xd4, 0x3c, 0x5f, 0x5e, 0x17, 0xbe, 0x0d, 0xf1, 0xd0, 0xba,
  0x90, 0x1d, 0x22, 0xbe, 0x03, 0xd2, 0x4c, 0xbe, 0x5b, 0x28, 0x4a, 0x3e,
  0xec, 0xf4, 0xe7, 0x3d, 0xfd, 0x4d, 0x24, 0xbe, 0x4a, 0x4a, 0x1e, 0x3c,
  0x7b, 0x91, 0x3c, 0x3e, 0x89, 0x21, 0x68, 0xbd, 0x9c, 0x34, 0xc8, 0xbd,
  0x7a, 0x44, 0x3b, 0x3e, 0xf7, 0xe3, 0x63, 0xbe, 0xab, 0x30, 0x68, 0x3d,
  0x82, 0x0c, 0x74, 0xbc, 0x62, 0xbc, 0x43, 0xbd, 0x60, 0x0f, 0xbd, 0xbd,
  0x02, 0xe6, 0xbf, 0x3d, 0x71, 0x6e, 0xda, 0x3c, 0x1d, 0xcb, 0xf6, 0x3d,
  0x18, 0x3e, 0x3b, 0xbe, 0x31, 0xe6, 0x86, 0xbc, 0x15, 0xe1, 0x20, 0xbd,
  0x4b, 0xcd, 0xbf, 0x3c, 0x11, 0xd0, 0xb1, 0xbd, 0x94, 0xb3, 0x85, 0x3a,
  0x6e, 0x13, 0x9f, 0x3d, 0xe3, 0xdd, 0xd8, 0x3d, 0x8a, 0x37, 0x9a, 0x3d,
  0xc6, 0x54, 0x9a, 0x3c, 0x89, 0xbf, 0x70, 0xbc, 0x14, 0x1f, 0xeb, 0x3d,
  0x0e, 0xa8, 0xba, 0xbc, 0xc8, 0x6a, 0xa1, 0xbb, 0x2c, 0x31, 0x35, 0x3e,
  0xd1, 0xb9, 0x38, 0x3e, 0x85, 0x46, 0x25, 0xbd, 0xe7, 0x72, 0xdf, 0xbd,
  0x31, 0x2c, 0x4f, 0x3e, 0xaf, 0xac, 0x07, 0x3d, 0xcb, 0xc4, 0x86, 0x3e,
  0x55, 0xb6, 0xd3, 0x3c, 0x4c, 0xd3, 0x0a, 0x3a, 0x8b, 0x19, 0x0d, 0x3e,
  0xc2, 0x4b, 0xc2, 0xbb, 0x68, 0x50, 0x55, 0x3e, 0x79, 0x4e, 0x96, 0x3d,
  0xa6, 0x7e, 0x95, 0x3d, 0x0e, 0xb6, 0xf8, 0x3d, 0x2b, 0x37, 0x4d, 0xbd,
  0xd1, 0x69, 0x9f, 0x3d, 0x9d, 0xe0, 0xfa, 0x3c, 0x6f, 0xee, 0x74, 0x3e,
  0xe2, 0xdf, 0x13, 0xbd, 0x21, 0x5a, 0x85, 0x3c, 0x7e, 0xac, 0x43, 0xbb,
  0x1e, 0x0e, 0xf6, 0x3d, 0x2f, 0x9c, 0x97, 0x3e, 0x29, 0x0d, 0x42, 0xbd,
  0x30, 0x52, 0x0b, 0x3e, 0x6d, 0x32, 0x11, 0x3d, 0xe9, 0xc2, 0x0c, 0x3c,
  0x02, 0xdb, 0x8d, 0x3d, 0x96, 0x05, 0x45, 0x3d, 0x07, 0x42, 0x3c, 0xbe,
  0x93, 0x9b, 0xd9, 0xbd, 0xb4, 0x3b, 0xb1, 0x3c, 0xc1, 0xc1, 0xb1, 0x3b,
  0x93, 0x0a, 0x4d, 0x3c, 0xde, 0x34, 0x88, 0x3b, 0x2f, 0xc2, 0xab, 0x3d,
  0xed, 0x5a, 0x99, 0x3d, 0x24, 0xa4, 0x8d, 0x3d, 0x88, 0xcf, 0x75, 0x3e,
  0xe9, 0x40, 0xbc, 0xbc, 0x65, 0xd7, 0x22, 0x3d, 0x44, 0xd2, 0x16, 0x3e,
  0x09, 0x00, 0x78, 0xbd, 0x47, 0x50, 0x8c, 0xbd, 0xdd, 0x73, 0xd3, 0x3d,
  0xa3, 0xe9, 0xd4, 0x3d, 0x7b, 0x13, 0x67, 0x3e, 0xf6, 0x86, 0x8e, 0x3c,
  0x6c, 0xc3, 0xde, 0x3c, 0x43, 0x54, 0x02, 0xbd, 0x5c, 0x8e, 0xac, 0x3d,
  0xb7, 0x3f, 0xac, 0x3d, 0xf9, 0xa5, 0x71, 0xbd, 0xa0, 0x2b, 0xad, 0x3d,
  0xee, 0xe4, 0x17, 0xbe, 0x53, 0x73, 0xff, 0xba, 0xff, 0x74, 0x01, 0xbe,
  0xca, 0x62, 0xd8, 0x3d, 0xd6, 0x45, 0x95, 0x3e, 0x90, 0xd9, 0xb3, 0xbd,
  0x21, 0x0b, 0x4a, 0x3d, 0x93, 0x02, 0x03, 0x3e, 0x3a, 0x1a, 0x15, 0xbc,
  0x6c, 0xb6, 0xc0, 0x3d, 0x4c, 0x60, 0xc0, 0x3d, 0xed, 0xdf, 0x7f, 0x3d,
  0x25, 0x5b, 0xc7, 0xbd, 0x45, 0x16, 0x77, 0xbd, 0x7d, 0x90, 0x00, 0xbe,
  0x6e, 0x90, 0xb9, 0x3d, 0x3e, 0x51, 0xa5, 0x3d, 0x40, 0xb0, 0x57, 0xbd,
  0xf8, 0xfa, 0xf9, 0xbd, 0x6f, 0x3d, 0x62, 0x3d, 0x35, 0x30, 0x8f, 0xba,
  0xaf, 0x33, 0x81, 0x3d, 0x33, 0x39, 0x00, 0xbd, 0xac, 0x9f, 0x35, 0x3c,
  0xa2, 0x9a, 0x02, 0xbd, 0x8e, 0x5d, 0xa0, 0x3d, 0x54, 0xd1, 0x5f, 0x3c,
  0x84, 0xb8, 0xe6, 0x3d, 0x8a, 0x84, 0x8f, 0x3e, 0xa6, 0x5a, 0x2c, 0x3d,
  0xc7, 0x1a, 0xde, 0xbc, 0xae, 0x2d, 0x07, 0x3e, 0x2d, 0xb5, 0x88, 0x3e,
  0x0d, 0xaa, 0x66, 0xbd, 0x9b, 0x46, 0x0e, 0x3d, 0x7c, 0x76, 0x40, 0xbe,
  0x0d, 0x45, 0x06, 0xbd, 0xdd, 0x6c, 0x8f, 0xbc, 0x4d, 0xcc, 0x8d, 0x3b,
  0x59, 0xb0, 0xdf, 0x3d, 0xdd, 0xd2, 0x5a, 0x3d, 0x35, 0x5e, 0xb0, 0x3b,
  0xcc, 0x9c, 0x62, 0xbd, 0x32, 0x9f, 0x83, 0x3e, 0x2f, 0xfa, 0xf8, 0x3c,
  0x9f, 0x19, 0x05, 0xbe, 0x8a, 0x2f, 0x00, 0xbd, 0xf8, 0xc7, 0xba, 0xbd,
  0xbf, 0x97, 0xa1, 0xba, 0xb1, 0xd0, 0x37, 0x3d, 0x6b, 0x38, 0x03, 0xbe,
  0x9d, 0xbc, 0x61, 0xbe, 0x5e, 0xb4, 0xa1, 0xbd, 0x0b, 0xa8, 0xc8, 0xbc,
  0xa4, 0xbc, 0x26, 0x3e, 0x7b, 0x38, 0xc3, 0xbe, 0x41, 0xf7, 0x33, 0xbe,
  0x6d, 0x3c, 0x8d, 0x3d, 0xcc, 0x01, 0xf7, 0x3d, 0x66, 0x0f, 0x50, 0xbe,
  0x38, 0x9a, 0x2f, 0xbe, 0x6d, 0xfb, 0x7e, 0x3d, 0x59, 0x65, 0x76, 0xbd,
  0xf3, 0xe9, 0x47, 0x3d, 0x43, 0xfa, 0xa7, 0x3d, 0x19, 0xaa, 0xaa, 0xbd,
  0x8c, 0x94, 0x0a, 0x3a, 0x50, 0x5f, 0x88, 0xbd, 0x7f, 0x5b, 0xe6, 0xbd,
  0x14, 0xed, 0xd3, 0x3b, 0xec, 0xd6, 0xb9, 0x3d, 0x38, 0x52, 0x54, 0xbe,
  0x4a, 0xba, 0x0d, 0xbe, 0xed, 0x7d, 0xe8, 0x3d, 0xf2, 0xb0, 0xa0, 0x3d,
  0x10, 0x13, 0xb2, 0xbd, 0xef, 0xc2, 0xc1, 0x3b, 0xbd, 0x8b, 0x5a, 0xbe,
  0x17, 0x4d, 0xb1, 0x3d, 0xb8, 0x4c, 0x93, 0xbd, 0x34, 0x4d, 0x09, 0x3d,
  0x35, 0x2a, 0x09, 0x3e, 0x65, 0x77, 0x0a, 0x3d, 0x19, 0x94, 0xda, 0x3d,
  0x15, 0x98, 0xf9, 0xbd, 0x07, 0xba, 0xdb, 0xbc, 0x01, 0xfe, 0xeb, 0xbd,
  0xb7, 0xb8, 0x2c, 0x3d, 0xb1, 0xc7, 0x34, 0x3e, 0xd8, 0x29, 0x9d, 0xbb,
  0xd9, 0x7b, 0xf9, 0x3d, 0xec, 0x07, 0xa0, 0x3c, 0x2a, 0x16, 0x80, 0x3d,
  0xbf, 0x8c, 0x7a, 0x3d, 0xd1, 0xe7, 0x1d, 0x3d, 0x41, 0x7c, 0xa3, 0x3d,
  0x5a, 0xfd, 0xae, 0xbc, 0xb0, 0x4f, 0x96, 0x3d, 0xb0, 0xc8, 0xc7, 0x3d,
  0x34, 0x75, 0x97, 0x3d, 0x22, 0xc4, 0x0a, 0x3e, 0xf1, 0x9c, 0xdf, 0x3d,
  0x5b, 0x17, 0x03, 0xbd, 0xdc, 0x5c, 0xe5, 0x3d, 0xce, 0x22, 0xdc, 0xbd,
  0x65, 0xcc, 0xc4, 0x3d, 0xec, 0xbd, 0x98, 0x3d, 0x89, 0x2f, 0x02, 0x3c,
  0x30, 0xb3, 0x0a, 0xbe, 0x75, 0xc7, 0xfa, 0x3d, 0xb2, 0xb8, 0xc1, 0xbc,
  0x48, 0x57, 0x1c, 0xb9, 0xa4, 0xc0, 0x48, 0x3d, 0xbe, 0x69, 0x4c, 0x3d,
  0xaf, 0x26, 0x7c, 0xbb, 0xcb, 0x67, 0x88, 0x3d, 0x5e, 0xc4, 0x25, 0xbe,
  0xd4, 0x2e, 0xc0, 0x3d, 0x08, 0x29, 0x67, 0xbd, 0x3b, 0xaa, 0x06, 0xbe,
  0x3b, 0x1d, 0x2c, 0xbe, 0xcd, 0x49, 0x7a, 0xbd, 0x15, 0x2a, 0xb8, 0x3d,
  0xfa, 0xcf, 0x2a, 0x3d, 0xc1, 0xf0, 0xf0, 0x3d, 0xf1, 0x7b, 0x31, 0x3e,
  0xe3, 0xe0, 0x7b, 0xbd, 0x32, 0x6b, 0x3b, 0x3d, 0x70, 0x1b, 0x9a, 0xbd,
  0xff, 0x26, 0xd4, 0x3d, 0xab, 0x1e, 0x6b, 0xbe, 0x55, 0xac, 0xcd, 0xbd,
  0x29, 0x98, 0x5c, 0xbe, 0x49, 0x6a, 0x8e, 0xbe, 0xd7, 0x92, 0x11, 0x3e,
  0xcb, 0x1d, 0x90, 0x3b, 0x08, 0x3a, 0xb3, 0xbd, 0x8f, 0x06, 0x50, 0x3c,
  0xe4, 0x7b, 0xab, 0xbd, 0x74, 0x4a, 0x01, 0xbd, 0x57, 0xe8, 0x00, 0x3e,
  0xf0, 0xaf, 0x14, 0x3d, 0x58, 0xb2, 0x68, 0xbe, 0x6d, 0xf2, 0x93, 0x3d,
  0x02, 0x19, 0x28, 0xbe, 0xc7, 0x92, 0xb6, 0x3d, 0xa3, 0xe1, 0xea, 0x3c,
  0xa4, 0xa8, 0xba, 0xbd, 0xf4, 0x32, 0x3f, 0x3d, 0xc3, 0xcd, 0x05, 0x3d,
  0x38, 0x8f, 0xb0, 0xbd, 0x62, 0x58, 0x68, 0xbd, 0xe3, 0xe0, 0x0d, 0x3e,
  0xc4, 0x0d, 0x6b, 0x3d, 0x5c, 0x61, 0x82, 0xbc, 0x98, 0xb2, 0x7e, 0x3d,
  0x4c, 0x79, 0x00, 0xbd, 0x65, 0xcb, 0x9c, 0x3d, 0xd4, 0xb0, 0x5e, 0x3d,
  0xbe, 0xf0, 0x2a, 0xbc, 0xf8, 0xd1, 0x3f, 0x3e, 0xe6, 0x92, 0xb8, 0xbc,
  0x35, 0x9d, 0x2e, 0xbc, 0xfd, 0x53, 0x00, 0xbe, 0x1b, 0xd4, 0xba, 0x3e,
  0x25, 0xac, 0x47, 0x3d, 0xaa, 0xaa, 0x5c, 0xbd, 0x42, 0xdd, 0xff, 0xff,
  0x34, 0x00, 0x00, 0x00, 0x0f, 0x00, 0x00, 0x00, 0x08, 0x00, 0x00, 0x00,
  0x3c, 0x00, 0x00, 0x00, 0x1c, 0x00, 0x00, 0x00, 0x66, 0x75, 0x6e, 0x63,
  0x74, 0x69, 0x6f, 0x6e, 0x61, 0x6c, 0x5f, 0x31, 0x2f, 0x63, 0x6f, 0x6e,
  0x76, 0x32, 0x64, 0x5f, 0x31, 0x2f, 0x43, 0x6f, 0x6e, 0x76, 0x32, 0x44,
  0x00, 0x00, 0x00, 0x00, 0x04, 0x00, 0x00, 0x00, 0x0c, 0x00, 0x00, 0x00,
  0x01, 0x00, 0x00, 0x00, 0x0a, 0x00, 0x00, 0x00, 0x0c, 0x00, 0x00, 0x00,
  0xc0, 0xdc, 0xff, 0xff, 0xe6, 0xdd, 0xff, 0xff, 0x04, 0x00, 0x00, 0x00,
  0xc0, 0x03, 0x00, 0x00, 0xac, 0x0b, 0xbf, 0xbd, 0xbc, 0xe3, 0x22, 0xbe,
  0xa7, 0x13, 0x8d, 0x3d, 0xa6, 0x20, 0x90, 0x3d, 0x32, 0xe6, 0x22, 0x3e,
  0x2d, 0xa0, 0x15, 0xbd, 0x00, 0xab, 0xd4, 0x3d, 0x04, 0x84, 0xe2, 0x3d,
  0x77, 0xa7, 0x54, 0xbd, 0xf4, 0x3b, 0x37, 0xbe, 0x40, 0x22, 0x00, 0xbe,
  0xe6, 0xb1, 0x57, 0xbd, 0xc7, 0x85, 0x06, 0x3e, 0xbf, 0x78, 0x1d, 0x3e,
  0xbd, 0x5d, 0x93, 0x3d, 0x6d, 0xa5, 0x0c, 0x3e, 0xf7, 0x66, 0xb2, 0xbd,
  0xd4, 0xa5, 0x22, 0xbe, 0x89, 0x46, 0x0d, 0xbe, 0xe7, 0x70, 0xd4, 0xbd,
  0x7d, 0xd9, 0x17, 0x3e, 0x01, 0x67, 0x0b, 0x3e, 0xa3, 0x1b, 0x97, 0x3d,
  0xea, 0xe6, 0x86, 0x3d, 0xbe, 0xc8, 0xc5, 0xbd, 0xdc, 0x4f, 0x59, 0x3d,
  0x0d, 0x69, 0x12, 0x3d, 0x74, 0x32, 0xce, 0xbd, 0xaa, 0xc4, 0xcf, 0xbc,
  0x94, 0x97, 0xe1, 0xbd, 0xe3, 0xcb, 0x67, 0x3c, 0x98, 0xce, 0x30, 0xbe,
  0xf8, 0x9a, 0x3d, 0xbe, 0xc9, 0xc5, 0x05, 0xbd, 0x88, 0x80, 0x8d, 0xbc,
  0x93, 0xf2, 0xae, 0xbd, 0x5a, 0xb2, 0x6d, 0x3d, 0x82, 0x73, 0x19, 0xbe,
  0x27, 0x49, 0x28, 0x3e, 0x36, 0x4a, 0x3a, 0x3c, 0x8e, 0xcd, 0x87, 0x3d,
  0x2f, 0xd7, 0x9b, 0x3c, 0x54, 0xbb, 0x55, 0x3d, 0x5e, 0x54, 0xfd, 0x3d,
  0xf2, 0xb1, 0x0f, 0x3e, 0xf7, 0xfe, 0xb4, 0x3d, 0xc4, 0x0f, 0xc0, 0xbd,
  0x1c, 0xf6, 0x8e, 0xbd, 0xf1, 0xb4, 0x13, 0x3c, 0x64, 0x4c, 0x13, 0xbe,
  0xd3, 0xf2, 0x1d, 0xbe, 0x4f, 0x5e, 0x1a, 0xbe, 0x5a, 0xf6, 0x52, 0x3d,
  0x22, 0xcf, 0x3e, 0x3d, 0xfc, 0x0e, 0x00, 0xbe, 0x5a, 0x4f, 0x07, 0x3e,
  0x16, 0xdf, 0x18, 0x3e, 0x67, 0x48, 0x0f, 0x3e, 0x6a, 0xaa, 0x06, 0x3d,
  0xc0, 0x8a, 0xe0, 0x3c, 0xd5, 0x32, 0x1a, 0xbe, 0x30, 0x4c, 0xf0, 0xbd,
  0x74, 0x4b, 0x1d, 0xbe, 0xe9, 0x9a, 0xba, 0xbd, 0xcb, 0x5b, 0x42, 0x3d,
  0x6d, 0x62, 0xb9, 0xbb, 0x8c, 0xb7, 0xb9, 0xbd, 0xf1, 0x7a, 0xf2, 0x3d,
  0x50, 0x1f, 0xb4, 0xbc, 0x38, 0xac, 0x2d, 0x3e, 0x4f, 0xf7, 0x27, 0x3d,
  0x6e, 0x12, 0x99, 0x3d, 0x2c, 0x23, 0xf9, 0x3d, 0xf6, 0x0f, 0xab, 0xbc,
  0xf7, 0x02, 0x1d, 0xbd, 0x84, 0x23, 0x27, 0xbd, 0xea, 0xdf, 0xf0, 0xbd,
  0x06, 0x98, 0x8a, 0xbd, 0x9e, 0x36, 0xbf, 0xbd, 0x06, 0xc1, 0xe7, 0xbd,
  0x96, 0xd8, 0x11, 0x3e, 0xed, 0x99, 0x9d, 0x3d, 0x32, 0x1e, 0xa1, 0xbd,
  0xce, 0x69, 0xcd, 0xbd, 0x29, 0x8e, 0x03, 0xbb, 0x8f, 0xdd, 0x39, 0xbe,
  0xae, 0x60, 0xa6, 0xbc, 0x9c, 0x2a, 0x82, 0xbd, 0xf4, 0x2b, 0x29, 0xbd,
  0x91, 0xf7, 0xff, 0xbd, 0x82, 0x69, 0xc9, 0x3d, 0x88, 0xb5, 0xe7, 0xbd,
  0x81, 0x23, 0x4c, 0x3e, 0xe2, 0x6f, 0xcf, 0x3d, 0x56, 0xbd, 0x1c, 0x3e,
  0xa8, 0x64, 0xb4, 0x3c, 0x78, 0xe1, 0x87, 0xbd, 0x40, 0xeb, 0xf3, 0x3d,
  0x04, 0xc9, 0xfc, 0xbc, 0xc3, 0x6c, 0x25, 0x3c, 0xb2, 0xbd, 0x49, 0x3e,
  0xa8, 0x01, 0xb4, 0x3b, 0x9d, 0x09, 0x1e, 0xbd, 0x33, 0xf8, 0xdf, 0xbd,
  0x9c, 0xb3, 0x0b, 0xbe, 0x1c, 0xee, 0x33, 0xbe, 0x2f, 0x4f, 0x29, 0xbe,
  0xff, 0x9b, 0x42, 0xbe, 0x19, 0x73, 0xba, 0xbd, 0x8a, 0x23, 0xb9, 0xbd,
  0x7b, 0x79, 0xee, 0xbc, 0xaf, 0x7a, 0x90, 0xbd, 0x6b, 0x78, 0xca, 0x3d,
  0x73, 0x36, 0xeb, 0x3d, 0x52, 0x6c, 0xb6, 0x3d, 0x25, 0x70, 0x14, 0x3e,
  0x6f, 0xac, 0x55, 0x3d, 0x48, 0xea, 0x28, 0xbc, 0x99, 0xa6, 0x7f, 0x3d,
  0x45, 0xad, 0xa3, 0xbd, 0x0e, 0x98, 0x01, 0xbe, 0x23, 0x7b, 0xdf, 0xbd,
  0x2d, 0x28, 0xa4, 0xbc, 0xc5, 0x7d, 0x8c, 0x3d, 0x56, 0x9c, 0x1e, 0xbe,
  0xcb, 0x35, 0x8e, 0xbd, 0xaa, 0xe7, 0xc3, 0xbd, 0x7c, 0x20, 0x1d, 0xbd,
  0x86, 0xf2, 0x08, 0xbd, 0x24, 0xc0, 0x33, 0x3d, 0x14, 0x5f, 0xf2, 0x3d,
  0xe2, 0x89, 0x8e, 0x3d, 0x70, 0x57, 0x01, 0x3e, 0x24, 0x3c, 0x0b, 0x3d,
  0x96, 0x03, 0x3a, 0x3e, 0x49, 0xf5, 0xe4, 0x3d, 0xd1, 0xf0, 0x2b, 0xbe,
  0xde, 0x8f, 0x12, 0xbe, 0x14, 0x7b, 0x42, 0xbe, 0x2e, 0xc5, 0xfa, 0x3c,
  0xd0, 0x1f, 0xcd, 0x3d, 0x43, 0xc3, 0x53, 0x3e, 0x04, 0xbd, 0xa3, 0xbd,
  0x5e, 0x4e, 0xa0, 0x3d, 0x54, 0x08, 0x75, 0xbd, 0x54, 0x10, 0x27, 0x3c,
  0x0c, 0x80, 0xbb, 0x3d, 0x14, 0x3a, 0xed, 0xbd, 0x9e, 0x8a, 0x28, 0xbe,
  0x74, 0x37, 0xc7, 0xbd, 0x9f, 0x21, 0x49, 0xbe, 0x9a, 0xf9, 0xd5, 0xbb,
  0xe9, 0x29, 0xbe, 0xbd, 0x4a, 0x22, 0xb8, 0xbd, 0x3b, 0x54, 0x03, 0xbd,
  0xb3, 0x2a, 0xef, 0x3c, 0xd3, 0x6d, 0x77, 0xbd, 0xa9, 0xf2, 0xdf, 0xbd,
  0xdf, 0x28, 0xf8, 0x3d, 0xa6, 0x48, 0x29, 0x3e, 0x77, 0xfc, 0x3b, 0xbd,
  0x2b, 0xda, 0x99, 0x3d, 0x97, 0x8b, 0xf8, 0xbd, 0x57, 0x09, 0x15, 0xbe,
  0xd2, 0x5c, 0xdf, 0xbd, 0x9b, 0xea, 0x70, 0xbd, 0x5d, 0xb0, 0xc4, 0xbd,
  0x04, 0xde, 0x1e, 0xbd, 0xc4, 0xa3, 0x0e, 0x3d, 0xf9, 0x68, 0xf4, 0x3b,
  0x69, 0xe4, 0xa9, 0xbd, 0x6c, 0xea, 0xcb, 0xbb, 0x4c, 0x27, 0xfb, 0x3d,
  0xed, 0xf6, 0x0e, 0x3e, 0xa7, 0x64, 0x46, 0x3e, 0x2c, 0xeb, 0x06, 0x3d,
  0xb9, 0xc5, 0xab, 0x3d, 0xca, 0x28, 0xaa, 0xbb, 0x4a, 0x11, 0x5f, 0xbd,
  0x99, 0x2f, 0x4f, 0xbe, 0x30, 0x0c, 0xd5, 0xbd, 0xa5, 0x89, 0x1d, 0xbe,
  0x4f, 0xb7, 0xab, 0xbd, 0x1f, 0xd8, 0xdc, 0xbd, 0x48, 0xc8, 0x0d, 0xbe,
  0xec, 0xbb, 0x78, 0xbd, 0xdd, 0xae, 0x00, 0x3d, 0x9e, 0x09, 0x26, 0x3e,
  0x1b, 0x94, 0xd5, 0x3d, 0x02, 0xc0, 0xe6, 0x3d, 0xce, 0x41, 0x07, 0xbe,
  0xc1, 0xd4, 0x2d, 0xbc, 0x57, 0xe2, 0x03, 0xbe, 0xfe, 0x34, 0x9d, 0x3d,
  0x5c, 0x45, 0x1f, 0x3c, 0xcd, 0xc3, 0x33, 0xbd, 0xf8, 0xe4, 0x49, 0xbd,
  0xd1, 0x16, 0xd3, 0x3d, 0x34, 0x98, 0xbd, 0x3d, 0x08, 0x20, 0xa0, 0xbc,
  0x4e, 0x58, 0x1c, 0xbe, 0x86, 0xb0, 0x3a, 0xbd, 0x47, 0x54, 0x28, 0xbd,
  0xcf, 0x4f, 0xbf, 0xbb, 0x64, 0x37, 0x12, 0x3e, 0x29, 0xf6, 0xe7, 0x3d,
  0xe9, 0x4c, 0xa3, 0xbc, 0x2d, 0xde, 0x1e, 0xbd, 0x3d, 0x9d, 0x8d, 0x3b,
  0x2f, 0x94, 0xb7, 0xbd, 0x8c, 0x8b, 0x38, 0xbd, 0x1d, 0xa3, 0x15, 0xbe,
  0xcb, 0x97, 0x8c, 0xbd, 0xf6, 0x45, 0xa4, 0xbc, 0xd9, 0xd7, 0x87, 0xbc,
  0x25, 0xf6, 0xe0, 0xbd, 0x5c, 0x36, 0xe2, 0x3b, 0x12, 0x00, 0x1f, 0xbd,
  0x2b, 0x22, 0x01, 0x3e, 0xe5, 0x64, 0xa1, 0x3d, 0xeb, 0xda, 0x64, 0x3d,
  0xf9, 0x70, 0xaf, 0xbd, 0x50, 0x73, 0x01, 0xbd, 0x66, 0x8c, 0x34, 0x3e,
  0xaa, 0xa9, 0xc9, 0x3d, 0x33, 0x0a, 0x48, 0x3e, 0x99, 0xa3, 0xae, 0xbd,
  0x6f, 0x84, 0xb4, 0x3d, 0x85, 0x07, 0x05, 0xbe, 0xa4, 0x41, 0x72, 0xbc,
  0xfe, 0xbf, 0x6b, 0xbd, 0xb2, 0x4d, 0x52, 0xbd, 0x8b, 0x37, 0x44, 0xbd,
  0xe9, 0xec, 0x2b, 0x3e, 0xb8, 0x51, 0xc8, 0x3d, 0x0f, 0xe3, 0xa5, 0xbb,
  0x70, 0x3b, 0xf7, 0xbc, 0x8d, 0x5d, 0x01, 0xbc, 0xb5, 0x0f, 0x29, 0x3e,
  0x76, 0xba, 0x03, 0x3e, 0x5e, 0xe1, 0xff, 0xff, 0x30, 0x00, 0x00, 0x00,
  0x0e, 0x00, 0x00, 0x00, 0x08, 0x00, 0x00, 0x00, 0x38, 0x00, 0x00, 0x00,
  0x1a, 0x00, 0x00, 0x00, 0x66, 0x75, 0x6e, 0x63, 0x74, 0x69, 0x6f, 0x6e,
  0x61, 0x6c, 0x5f, 0x31, 0x2f, 0x63, 0x6f, 0x6e, 0x76, 0x32, 0x64, 0x2f,
  0x43, 0x6f, 0x6e, 0x76, 0x32, 0x44, 0x00, 0x00, 0x04, 0x00, 0x00, 0x00,
  0x0c, 0x00, 0x00, 0x00, 0x01, 0x00, 0x00, 0x00, 0x14, 0x00, 0x00, 0x00,
  0x01, 0x00, 0x00, 0x00, 0xd8, 0xe0, 0xff, 0xff, 0xfe, 0xe1, 0xff, 0xff,
  0x04, 0x00, 0x00, 0x00, 0x30, 0x00, 0x00, 0x00, 0x18, 0x91, 0xd2, 0x3f,
  0x64, 0x8f, 0xb4, 0x3f, 0x37, 0xb2, 0xb2, 0x3f, 0x3c, 0x47, 0xf0, 0x3f,
  0xf5, 0xf4, 0xa9, 0x3f, 0x88, 0x1b, 0xcb, 0x3f, 0x8c, 0x9d, 0xba, 0x3f,
  0x53, 0xd4, 0xe5, 0x3f, 0xb8, 0x4c, 0xd0, 0x3f, 0x72, 0x93, 0xd9, 0x3f,
  0x3c, 0xd2, 0xac, 0x3f, 0x3f, 0x71, 0xd8, 0x3f, 0xe6, 0xe1, 0xff, 0xff,
  0x4c, 0x00, 0x00, 0x00, 0x0d, 0x00, 0x00, 0x00, 0x08, 0x00, 0x00, 0x00,
  0x48, 0x00, 0x00, 0x00, 0x34, 0x00, 0x00, 0x00, 0x66, 0x75, 0x6e, 0x63,
  0x74, 0x69, 0x6f, 0x6e, 0x61, 0x6c, 0x5f, 0x31, 0x2f, 0x62, 0x61, 0x74,
  0x63, 0x68, 0x5f, 0x6e, 0x6f, 0x72, 0x6d, 0x61, 0x6c, 0x69, 0x7a, 0x61,
  0x74, 0x69, 0x6f, 0x6e, 0x5f, 0x32, 0x2f, 0x46, 0x75, 0x73, 0x65, 0x64,
  0x42, 0x61, 0x74, 0x63, 0x68, 0x4e, 0x6f, 0x72, 0x6d, 0x56, 0x33, 0x31,
  0x00, 0x00, 0x00, 0x00, 0x01, 0x00, 0x00, 0x00, 0x0c, 0x00, 0x00, 0x00,
  0x70, 0xe1, 0xff, 0xff, 0x96, 0xe2, 0xff, 0xff, 0x04, 0x00, 0x00, 0x00,
  0x30, 0x00, 0x00, 0x00, 0x16, 0xf2, 0xa0, 0xbf, 0xa3, 0x8f, 0xbc, 0xbf,
  0xe7, 0xb0, 0xb8, 0xbf, 0x90, 0x32, 0xef, 0xbf, 0x34, 0xc6, 0xad, 0xbf,
  0x59, 0x87, 0xa4, 0xbf, 0xc9, 0x68, 0xd5, 0xbf, 0xad, 0xea, 0xac, 0xbf,
  0x12, 0x12, 0xc2, 0xbf, 0x15, 0x03, 0x95, 0xbf, 0x4c, 0xc3, 0xa5, 0xbf,
  0xd5, 0x64, 0x65, 0xbf, 0x7e, 0xe2, 0xff, 0xff, 0x48, 0x00, 0x00, 0x00,
  0x0c, 0x00, 0x00, 0x00, 0x08, 0x00, 0x00, 0x00, 0x44, 0x00, 0x00, 0x00,
  0x33, 0x00, 0x00, 0x00, 0x66, 0x75, 0x6e, 0x63, 0x74, 0x69, 0x6f, 0x6e,
  0x61, 0x6c, 0x5f, 0x31, 0x2f, 0x62, 0x61, 0x74, 0x63, 0x68, 0x5f, 0x6e,
  0x6f, 0x72, 0x6d, 0x61, 0x6c, 0x69, 0x7a, 0x61, 0x74, 0x69, 0x6f, 0x6e,
  0x5f, 0x32, 0x2f, 0x46, 0x75, 0x73, 0x65, 0x64, 0x42, 0x61, 0x74, 0x63,
  0x68, 0x4e, 0x6f, 0x72, 0x6d, 0x56, 0x33, 0x00, 0x01, 0x00, 0x00, 0x00,
  0x0c, 0x00, 0x00, 0x00, 0x04, 0xe2, 0xff, 0xff, 0x2a, 0xe3, 0xff, 0xff,
  0x04, 0x00, 0x00, 0x00, 0x30, 0x00, 0x00, 0x00, 0xa2, 0x83, 0x1d, 0x3f,
  0x2c, 0x5c, 0x0e, 0x3f, 0xbf, 0xfe, 0x71, 0x3f, 0x31, 0xfe, 0x26, 0x3f,
  0x12, 0x94, 0x22, 0x3f, 0xb3, 0x6a, 0x3a, 0x3f, 0x0b, 0x23, 0x30, 0x3f,
  0xd9, 0xae, 0x14, 0x3f, 0x94, 0xef, 0x17, 0x3f, 0xc1, 0x43, 0x32, 0x3f,
  0x6b, 0x9d, 0xda, 0x3e, 0x72, 0x63, 0xe2, 0x3e, 0x12, 0xe3, 0xff, 0xff,
  0x4c, 0x00, 0x00, 0x00, 0x0b, 0x00, 0x00, 0x00, 0x08, 0x00, 0x00, 0x00,
  0x48, 0x00, 0x00, 0x00, 0x34, 0x00, 0x00, 0x00, 0x66, 0x75, 0x6e, 0x63,
  0x74, 0x69, 0x6f, 0x6e, 0x61, 0x6c, 0x5f, 0x31, 0x2f, 0x62, 0x61, 0x74,
  0x63, 0x68, 0x5f, 0x6e, 0x6f, 0x72, 0x6d, 0x61, 0x6c, 0x69, 0x7a, 0x61,
  0x74, 0x69, 0x6f, 0x6e, 0x5f, 0x31, 0x2f, 0x46, 0x75, 0x73, 0x65, 0x64,
  0x42, 0x61, 0x74, 0x63, 0x68, 0x4e, 0x6f, 0x72, 0x6d, 0x56, 0x33, 0x31,
  0x00, 0x00, 0x00, 0x00, 0x01, 0x00, 0x00, 0x00, 0x0c, 0x00, 0x00, 0x00,
  0x9c, 0xe2, 0xff, 0xff, 0xc2, 0xe3, 0xff, 0xff, 0x04, 0x00, 0x00, 0x00,
  0x30, 0x00, 0x00, 0x00, 0x27, 0x6a, 0x4b, 0xbf, 0x6e, 0xc0, 0x3d, 0xbf,
  0x42, 0x6f, 0x88, 0xbf, 0xba, 0xd7, 0x41, 0xbf, 0xef, 0x8b, 0x82, 0xbf,
  0x38, 0x20, 0x6c, 0xbf, 0x37, 0x07, 0x6d, 0xbf, 0x2d, 0x49, 0x7a, 0xbf,
  0x2b, 0x4c, 0x6e, 0xbf, 0x28, 0x60, 0x5c, 0xbf, 0xb9, 0xab, 0x20, 0xbf,
  0x57, 0xe1, 0x45, 0xbf, 0xaa, 0xe3, 0xff, 0xff, 0x48, 0x00, 0x00, 0x00,
  0x0a, 0x00, 0x00, 0x00, 0x08, 0x00, 0x00, 0x00, 0x44, 0x00, 0x00, 0x00,
  0x33, 0x00, 0x00, 0x00, 0x66, 0x75, 0x6e, 0x63, 0x74, 0x69, 0x6f, 0x6e,
  0x61, 0x6c, 0x5f, 0x31, 0x2f, 0x62, 0x61, 0x74, 0x63, 0x68, 0x5f, 0x6e,
  0x6f, 0x72, 0x6d, 0x61, 0x6c, 0x69, 0x7a, 0x61, 0x74, 0x69, 0x6f, 0x6e,
  0x5f, 0x31, 0x2f, 0x46, 0x75, 0x73, 0x65, 0x64, 0x42, 0x61, 0x74, 0x63,
  0x68, 0x4e, 0x6f, 0x72, 0x6d, 0x56, 0x33, 0x00, 0x01, 0x00, 0x00, 0x00,
  0x0c, 0x00, 0x00, 0x00, 0x30, 0xe3, 0xff, 0xff, 0x56, 0xe4, 0xff, 0xff,
  0x04, 0x00, 0x00, 0x00, 0x30, 0x00, 0x00, 0x00, 0x24, 0xda, 0xca, 0x40,
  0xb4, 0xa1, 0x48, 0x40, 0x7d, 0xf8, 0xa6, 0x40, 0x03, 0xdb, 0x81, 0x40,
  0xfb, 0x0f, 0x70, 0x40, 0x75, 0x7f, 0x51, 0x40, 0x48, 0x04, 0x45, 0x40,
  0xa4, 0x9d, 0x84, 0x40, 0xcc, 0x1c, 0x46, 0x40, 0x5a, 0xe4, 0x00, 0x41,
  0xc0, 0x29, 0x19, 0x41, 0x3d, 0xdd, 0xac, 0x40, 0x3e, 0xe4, 0xff, 0xff,
  0x48, 0x00, 0x00, 0x00, 0x09, 0x00, 0x00, 0x00, 0x08, 0x00, 0x00, 0x00,
  0x44, 0x00, 0x00, 0x00, 0x32, 0x00, 0x00, 0x00, 0x66, 0x75, 0x6e, 0x63,
  0x74, 0x69, 0x6f, 0x6e, 0x61, 0x6c, 0x5f, 0x31, 0x2f, 0x62, 0x61, 0x74,
  0x63, 0x68, 0x5f, 0x6e, 0x6f, 0x72, 0x6d, 0x61, 0x6c, 0x69, 0x7a, 0x61,
  0x74, 0x69, 0x6f, 0x6e, 0x2f, 0x46, 0x75, 0x73, 0x65, 0x64, 0x42, 0x61,
  0x74, 0x63, 0x68, 0x4e, 0x6f, 0x72, 0x6d, 0x56, 0x33, 0x31, 0x00, 0x00,
  0x01, 0x00, 0x00, 0x00, 0x0c, 0x00, 0x00, 0x00, 0xc4, 0xe3, 0xff, 0xff,
  0xea, 0xe4, 0xff, 0xff, 0x04, 0x00, 0x00, 0x00, 0x30, 0x00, 0x00, 0x00,
  0x4e, 0x6d, 0x62, 0xbf, 0xd4, 0x2c, 0x6a, 0xbf, 0xb3, 0x8c, 0x03, 0xbf,
  0x7a, 0x4e, 0x2d, 0xbf, 0xca, 0x9b, 0xdd, 0xbe, 0xa0, 0xc2, 0x66, 0xbf,
  0x14, 0x75, 0x6d, 0xbf, 0xc5, 0xe5, 0x36, 0xbf, 0x2e, 0xc7, 0x34, 0xbf,
  0xb1, 0x27, 0xb8, 0xbe, 0xac, 0x98, 0xc9, 0xbe, 0xd4, 0xa8, 0x3a, 0xbf,
  0xd2, 0xe4, 0xff, 0xff, 0x48, 0x00, 0x00, 0x00, 0x08, 0x00, 0x00, 0x00,
  0x08, 0x00, 0x00, 0x00, 0x44, 0x00, 0x00, 0x00, 0x31, 0x00, 0x00, 0x00,
  0x66, 0x75, 0x6e, 0x63, 0x74, 0x69, 0x6f, 0x6e, 0x61, 0x6c, 0x5f, 0x31,
  0x2f, 0x62, 0x61, 0x74, 0x63, 0x68, 0x5f, 0x6e, 0x6f, 0x72, 0x6d, 0x61,
  0x6c, 0x69, 0x7a, 0x61, 0x74, 0x69, 0x6f, 0x6e, 0x2f, 0x46, 0x75, 0x73,
  0x65, 0x64, 0x42, 0x61, 0x74, 0x63, 0x68, 0x4e, 0x6f, 0x72, 0x6d, 0x56,
  0x33, 0x00, 0x00, 0x00, 0x01, 0x00, 0x00, 0x00, 0x0c, 0x00, 0x00, 0x00,
  0x58, 0xe4, 0xff, 0xff, 0x7e, 0xe5, 0xff, 0xff, 0x04, 0x00, 0x00, 0x00,
  0x00, 0x18, 0x00, 0x00, 0x7c, 0x9e, 0xf9, 0x3e, 0x53, 0x08, 0x04, 0x3f,
  0x20, 0x35, 0x97, 0x3f, 0xe6, 0x79, 0x20, 0x3f, 0xed, 0x25, 0xe1, 0x3e,
  0xd5, 0x9c, 0x3f, 0xbd, 0xb3, 0x0b, 0xdf, 0x3e, 0x6c, 0x29, 0x7c, 0xbe,
  0x8e, 0x87, 0x59, 0xbc, 0x29, 0x05, 0x8d, 0x3e, 0x9e, 0x1b, 0x12, 0x3f,
  0xb3, 0x84, 0x6e, 0x3f, 0x39, 0xcd, 0x35, 0x3f, 0x5e, 0x24, 0x06, 0x3e,
  0x1d, 0x98, 0x4a, 0x3f, 0x86, 0x34, 0xbd, 0x3c, 0x4c, 0x4d, 0x4c, 0x3f,
  0x2d, 0xd1, 0xf8, 0x3d, 0x6c, 0xcd, 0xde, 0x3e, 0x08, 0x2f, 0xa2, 0x3e,
  0x90, 0x58, 0xbb, 0x3e, 0x69, 0x5d, 0xef, 0x3e, 0x95, 0x50, 0x0d, 0x3f,
  0x42, 0x82, 0x89, 0x3e, 0xf6, 0x93, 0x25, 0x3f, 0xd9, 0xe4, 0x0f, 0x3e,
  0x5e, 0x6e, 0x04, 0x3d, 0x40, 0xf4, 0xff, 0x3d, 0xd0, 0x46, 0xfd, 0x3c,
  0x10, 0x4c, 0x17, 0x3f, 0x50, 0x28, 0x88, 0x3e, 0x13, 0x92, 0x2d, 0xbd,
  0x77, 0xd7, 0x05, 0xbc, 0x1e, 0x1a, 0x45, 0x3e, 0x98, 0xb0, 0xba, 0xbc,
  0x38, 0xcd, 0x29, 0x3e, 0x7e, 0xe8, 0x12, 0x3e, 0x65, 0x54, 0x6e, 0xbe,
  0xe1, 0x23, 0x9f, 0x3d, 0x07, 0x1b, 0x9d, 0x3e, 0x85, 0x14, 0x4f, 0xbe,
  0x31, 0x8f, 0xd9, 0x3c, 0xd1, 0xc3, 0xbf, 0x3e, 0x59, 0x05, 0x01, 0xbc,
  0x76, 0x21, 0x2e, 0xbd, 0x0e, 0x59, 0x26, 0x3d, 0xc2, 0x5f, 0xbd, 0xbe,
  0x7d, 0x39, 0x39, 0x3e, 0xf6, 0x10, 0xa9, 0xbd, 0x65, 0x8f, 0x9b, 0x3d,
  0x2b, 0x02, 0x75, 0x3c, 0x66, 0x59, 0xd4, 0xbc, 0x59, 0x63, 0x66, 0xbe,
  0x90, 0x8e, 0x48, 0xbe, 0x00, 0xb6, 0x73, 0x3c, 0xbc, 0x1e, 0xca, 0x3c,
  0x3d, 0xa8, 0x31, 0x3e, 0x52, 0xf3, 0x92, 0x3e, 0xab, 0xaf, 0x7c, 0xbe,
  0x7e, 0xca, 0x9d, 0x3e, 0x6f, 0x64, 0x60, 0x3d, 0x89, 0x02, 0x82, 0xbb,
  0xdc, 0x3b, 0x00, 0x3d, 0x9e, 0x5e, 0x79, 0x3c, 0x7a, 0x17, 0x4e, 0xbd,
  0xeb, 0x9c, 0x8d, 0x3d, 0x91, 0x74, 0x86, 0x3e, 0xec, 0x82, 0x7c, 0x3d,
  0xc9, 0xa1, 0xc8, 0x3d, 0x41, 0x1f, 0x20, 0x3d, 0xb0, 0xf7, 0x28, 0x3d,
  0xfe, 0x24, 0x0a, 0x3e, 0x05, 0xda, 0x28, 0x3e, 0xdf, 0x04, 0x02, 0xbe,
  0x8a, 0x41, 0x01, 0xbe, 0xb0, 0x0e, 0x66, 0xbe, 0xac, 0xff, 0x7f, 0xbe,
  0xb9, 0xc7, 0xac, 0x3d, 0x8a, 0x6c, 0x95, 0x3e, 0x11, 0xc5, 0xab, 0x3e,
  0x1d, 0xa5, 0x19, 0x3e, 0x20, 0x8d, 0xaa, 0x3b, 0xd6, 0x34, 0x80, 0x3d,
  0x4c, 0xf4, 0x98, 0x3e, 0x4f, 0x07, 0x1b, 0xbe, 0xe2, 0x0f, 0x80, 0xbe,
  0x71, 0x2f, 0xee, 0xbe, 0x2c, 0xc8, 0x05, 0xbf, 0x95, 0xf1, 0x17, 0xbd,
  0x3c, 0x14, 0xc1, 0x3e, 0xfd, 0x4f, 0x82, 0xbd, 0x73, 0xf3, 0xfa, 0xbd,
  0xa1, 0x60, 0xae, 0xbb, 0xcc, 0x42, 0x4f, 0x3e, 0xa7, 0xe6, 0x88, 0xbe,
  0xe1, 0xf6, 0xaf, 0xbe, 0xd3, 0x92, 0x32, 0x3e, 0x7f, 0x1f, 0x16, 0x3f,
  0x42, 0x56, 0x80, 0x3e, 0xb1, 0x85, 0xde, 0x3d, 0xbb, 0xf3, 0xd2, 0xbe,
  0x94, 0xb7, 0xc9, 0xbe, 0xac, 0x22, 0x41, 0x3e, 0x1d, 0xb0, 0x0c, 0xbe,
  0xff, 0x67, 0x88, 0xbe, 0xb1, 0xef, 0x27, 0x3f, 0x25, 0xe4, 0x88, 0xbe,
  0x24, 0x7c, 0xfe, 0x3e, 0x9a, 0x4e, 0xb7, 0x3e, 0x82, 0xff, 0xde, 0x3c,
  0x97, 0x76, 0x4b, 0x3e, 0x10, 0xdb, 0x44, 0x3e, 0xd4, 0x6b, 0x6e, 0x3e,
  0x5f, 0xf8, 0x39, 0xbe, 0x52, 0x2f, 0xf8, 0x3e, 0x46, 0x9b, 0xae, 0x3e,
  0x70, 0x23, 0xf3, 0x3d, 0x60, 0x39, 0x6e, 0x3e, 0xe3, 0xfc, 0x93, 0x3e,
  0xaf, 0x80, 0xdc, 0x3e, 0x43, 0xf8, 0xc0, 0x3e, 0xf1, 0xa8, 0x65, 0xbe,
  0x30, 0x6a, 0xfe, 0xbd, 0xa4, 0xfc, 0x84, 0x3d, 0xfb, 0x4a, 0x83, 0x3e,
  0xda, 0x16, 0xb9, 0x3e, 0xee, 0xbc, 0x9b, 0xbd, 0x49, 0xfa, 0xc0, 0x3e,
  0x29, 0x3e, 0xd7, 0x3e, 0x64, 0x20, 0x57, 0x3d, 0x6f, 0xcf, 0xc1, 0x3e,
  0x10, 0x66, 0xc9, 0x3d, 0xc5, 0xd3, 0xa5, 0x3e, 0x70, 0x7c, 0x57, 0x3c,
  0x3e, 0xa3, 0x4b, 0xbe, 0x96, 0x74, 0x03, 0x3f, 0xbe, 0xba, 0xe4, 0x3d,
  0x2a, 0x19, 0x99, 0x3e, 0x23, 0x95, 0xd0, 0xbe, 0x9b, 0xb4, 0x9b, 0xbd,
  0xc2, 0x09, 0xc8, 0x3a, 0x6e, 0x21, 0x2e, 0x3d, 0x91, 0xfa, 0x20, 0x3e,
  0x2d, 0x0e, 0x83, 0x3e, 0xea, 0x69, 0xcb, 0x3c, 0x21, 0x7e, 0xff, 0x3e,
  0x43, 0x1a, 0x9a, 0x3d, 0x22, 0xf6, 0xfb, 0x3e, 0x1f, 0x75, 0x4d, 0x3e,
  0xc4, 0x4d, 0xde, 0xbd, 0x9b, 0x0c, 0xcc, 0xbe, 0x2e, 0xe4, 0x36, 0x3e,
  0xb9, 0x37, 0x8f, 0x3c, 0x32, 0xd7, 0x28, 0xbd, 0x6f, 0xf5, 0x1f, 0x3e,
  0x7c, 0x48, 0xaf, 0x3e, 0x54, 0xaa, 0x6f, 0x3d, 0x98, 0x4f, 0xd9, 0x3e,
  0xd4, 0x77, 0xb8, 0x3e, 0xba, 0x12, 0x86, 0xbe, 0x73, 0x41, 0x26, 0x3e,
  0x6e, 0xd3, 0xbb, 0x3e, 0x2b, 0x97, 0x15, 0x3e, 0xb7, 0x64, 0x7f, 0x3e,
  0xf4, 0x14, 0x9d, 0x3c, 0x5d, 0xda, 0xaa, 0xbe, 0x57, 0x78, 0x4a, 0x3e,
  0xae, 0x88, 0xd2, 0xbd, 0x4f, 0x58, 0x72, 0x3e, 0x1d, 0x0d, 0xb2, 0x3d,
  0x22, 0x15, 0xc0, 0x3d, 0x4a, 0xc4, 0x84, 0xbe, 0x20, 0xcc, 0xdf, 0xbd,
  0xf8, 0x02, 0xc3, 0x3e, 0xcf, 0x2a, 0x54, 0x3e, 0xbc, 0x1c, 0x7b, 0x3d,
  0xc1, 0x5f, 0xc1, 0x3d, 0x4e, 0x8a, 0x8c, 0x3e, 0x12, 0x9a, 0x20, 0x3e,
  0x2a, 0x8c, 0x10, 0xbd, 0x34, 0xf3, 0x73, 0x3d, 0xe8, 0xd3, 0x80, 0x3e,
  0x25, 0x92, 0x4b, 0xbe, 0x84, 0xb0, 0x33, 0xbd, 0x88, 0x99, 0xda, 0xbd,
  0x81, 0x1d, 0x5d, 0x3e, 0xb5, 0xa2, 0x2a, 0x3e, 0x16, 0x6b, 0x85, 0xbe,
  0x9b, 0x51, 0x83, 0x3d, 0x6c, 0xe4, 0x88, 0x3e, 0xed, 0x87, 0x07, 0xbe,
  0x09, 0xef, 0x90, 0xbe, 0x82, 0x2d, 0x1b, 0x3e, 0x68, 0xaa, 0x25, 0x3e,
  0xad, 0x50, 0x8f, 0x3d, 0x4b, 0xcf, 0x03, 0xbf, 0x1d, 0xd2, 0x80, 0xbe,
  0xca, 0x92, 0x7a, 0x3d, 0x51, 0x59, 0xf4, 0x3e, 0x03, 0xc5, 0x59, 0x3d,
  0xde, 0xe9, 0xaa, 0xbe, 0x01, 0x99, 0x5a, 0x3e, 0xdd, 0xb4, 0xbc, 0xbe,
  0x39, 0x67, 0x1a, 0x3e, 0x21, 0x22, 0x4b, 0x3e, 0x61, 0xd8, 0x9c, 0x3c,
  0x7a, 0x4c, 0xf3, 0xbc, 0xda, 0xeb, 0xc1, 0x3d, 0x96, 0x70, 0xad, 0xbe,
  0x54, 0x67, 0x20, 0xbe, 0xab, 0x94, 0x1f, 0x3f, 0x00, 0xf0, 0x76, 0xbe,
  0xed, 0xf8, 0x18, 0xbf, 0x5c, 0x55, 0x01, 0x3d, 0xf1, 0x16, 0xa4, 0xbe,
  0x2c, 0x6c, 0xe5, 0x3e, 0x35, 0xc6, 0x71, 0xbe, 0x74, 0xe4, 0xeb, 0x3d,
  0xe3, 0xf1, 0x8c, 0x3c, 0x9f, 0x05, 0x9d, 0xbd, 0x17, 0xe5, 0xef, 0xbd,
  0x63, 0x64, 0x5b, 0xbe, 0x92, 0x20, 0xc3, 0x3e, 0xce, 0x0a, 0xb2, 0x3e,
  0x28, 0x02, 0x86, 0x3e, 0xc2, 0x35, 0x47, 0x3e, 0xb9, 0xf1, 0xb7, 0xbe,
  0xc8, 0x57, 0x23, 0x3e, 0x28, 0xb8, 0xea, 0x3c, 0xe7, 0x9b, 0xcd, 0xbd,
  0x8e, 0x27, 0xb9, 0xbd, 0x3a, 0xa5, 0xe9, 0xbd, 0xa6, 0x9d, 0xb9, 0xbe,
  0xd0, 0xfa, 0x8a, 0xbe, 0xa4, 0xea, 0x9e, 0xbe, 0xf7, 0xbc, 0xc2, 0x3e,
  0x4b, 0xba, 0x21, 0x3e, 0xef, 0x8d, 0xef, 0x3e, 0xc4, 0x8b, 0x1c, 0xbf,
  0xce, 0xec, 0x83, 0x3c, 0x8a, 0x35, 0x54, 0x3e, 0xc2, 0xbf, 0x7e, 0xbd,
  0xf9, 0x84, 0x38, 0xbd, 0x76, 0x96, 0x00, 0x3f, 0xbb, 0x0b, 0xa0, 0x3c,
  0x86, 0xf7, 0x3c, 0x3e, 0xd8, 0x3a, 0x1f, 0x3e, 0x40, 0xb4, 0x19, 0x3e,
  0xcf, 0xb3, 0x91, 0x3e, 0xf9, 0xd6, 0xd8, 0x3c, 0xdf, 0x16, 0xff, 0xbd,
  0x3e, 0x3e, 0xc8, 0x3e, 0x32, 0x0c, 0x37, 0x3e, 0x21, 0xe0, 0x7d, 0x3e,
  0x72, 0x84, 0x9f, 0x3e, 0xdb, 0x76, 0xe1, 0x3e, 0xf4, 0xf6, 0xfd, 0x3e,
  0x82, 0x82, 0x3b, 0x3e, 0x86, 0xb6, 0xa9, 0x3e, 0x64, 0x6c, 0x96, 0x3e,
  0xa0, 0x1d, 0xa4, 0x3e, 0x2b, 0x3a, 0xdd, 0x3d, 0x94, 0x86, 0xea, 0x3e,
  0xbf, 0x0c, 0xd2, 0x3e, 0x2e, 0x70, 0x95, 0x3e, 0x0f, 0x20, 0xc2, 0xbd,
  0x4e, 0x16, 0x15, 0x3f, 0x5a, 0x48, 0x55, 0x3e, 0x66, 0x49, 0x26, 0x3e,
  0x26, 0x18, 0xf0, 0x3e, 0xb7, 0x11, 0x26, 0xbe, 0xc0, 0xd2, 0x09, 0x3e,
  0xb9, 0x86, 0xab, 0x3d, 0xc8, 0x5d, 0x5c, 0xbd, 0xe0, 0x4c, 0x19, 0x3f,
  0xab, 0xe8, 0x46, 0x3e, 0xba, 0x2c, 0x9e, 0xbe, 0x32, 0x56, 0x90, 0xbe,
  0x64, 0x8b, 0xa9, 0x3d, 0xab, 0xc7, 0x2d, 0xbb, 0x89, 0x96, 0x00, 0xbc,
  0xd6, 0xf5, 0xa3, 0x3e, 0x7e, 0xda, 0x42, 0xbe, 0x11, 0x36, 0x06, 0xbe,
  0x24, 0x77, 0xaa, 0xbc, 0x18, 0x4b, 0x75, 0xbe, 0xdc, 0xb9, 0x8b, 0xbe,
  0x41, 0x07, 0xc0, 0xbe, 0x61, 0x84, 0xa0, 0xbe, 0xf1, 0x43, 0xa9, 0x3e,
  0xa9, 0x4a, 0x17, 0x3e, 0x62, 0xf4, 0xfd, 0x3c, 0xfb, 0x54, 0x11, 0xbe,
  0xa4, 0xa4, 0x5c, 0x3e, 0xc9, 0xa1, 0x24, 0xbe, 0x23, 0xcc, 0xa6, 0x3e,
  0xc2, 0xe5, 0x23, 0x3e, 0x3c, 0x6f, 0x51, 0x3e, 0x3d, 0xf1, 0x75, 0xbd,
  0x6f, 0xb7, 0xe9, 0x3d, 0x2b, 0x83, 0x03, 0x3e, 0x02, 0x21, 0x5a, 0x3e,
  0x63, 0x1d, 0x9c, 0x3e, 0xaf, 0x40, 0xe5, 0x3e, 0x2a, 0xb0, 0x3b, 0xbe,
  0x87, 0x38, 0xc3, 0x3c, 0x69, 0x9c, 0x81, 0x3d, 0x77, 0x52, 0x3e, 0x3e,
  0x8b, 0x7d, 0x3e, 0x3e, 0x71, 0xcc, 0x62, 0x3e, 0x08, 0xb3, 0x48, 0xbe,
  0x08, 0x4f, 0x0f, 0x3f, 0x2a, 0xcf, 0xd5, 0xbd, 0x5f, 0x1b, 0x4f, 0xbe,
  0x73, 0x95, 0x66, 0x3d, 0x4c, 0x82, 0x34, 0xbc, 0xc8, 0x2d, 0xbf, 0x3e,
  0x08, 0x6e, 0xd0, 0x3e, 0x2d, 0xa5, 0x93, 0x3e, 0xda, 0xf4, 0x14, 0x3f,
  0x61, 0x15, 0x41, 0x3f, 0x31, 0xd4, 0x9a, 0x3e, 0x84, 0x48, 0x4b, 0x3e,
  0x26, 0x08, 0xf9, 0x3d, 0x26, 0x38, 0xe6, 0x3e, 0x03, 0x49, 0xd4, 0xbd,
  0xca, 0xf1, 0x8f, 0xbc, 0x99, 0x46, 0xe8, 0xbd, 0xfe, 0xf9, 0x08, 0xbe,
  0x80, 0xde, 0xf6, 0x3e, 0x19, 0x52, 0xa4, 0xbd, 0x6d, 0x3c, 0x95, 0x3e,
  0x39, 0x8b, 0x9f, 0x3e, 0x06, 0xe7, 0xfd, 0xbd, 0xf7, 0xcf, 0x1d, 0x3e,
  0x77, 0xee, 0xe3, 0x3c, 0x71, 0xf4, 0x2c, 0x3f, 0x23, 0xda, 0x56, 0x3e,
  0x10, 0xa5, 0xf9, 0x3d, 0x62, 0x82, 0xaf, 0x3d, 0x1c, 0x8c, 0xce, 0x3d,
  0x1e, 0x63, 0x7e, 0x3e, 0xe3, 0x78, 0x2b, 0x3d, 0xe1, 0x9c, 0x76, 0xbd,
  0xca, 0x48, 0x0c, 0x3d, 0x9e, 0x0b, 0x4e, 0xbe, 0xda, 0x1f, 0x96, 0x3e,
  0xcd, 0xfc, 0x8c, 0x3e, 0xd2, 0xa7, 0xe3, 0x3e, 0x16, 0xa0, 0xe6, 0x3e,
  0x59, 0x5a, 0xca, 0x3e, 0x4b, 0xee, 0x45, 0x3d, 0xeb, 0x76, 0x57, 0x3e,
  0x0b, 0x8f, 0x4e, 0x3e, 0x49, 0xad, 0xa7, 0x3e, 0x03, 0x34, 0x16, 0xbe,
  0x14, 0xfe, 0x39, 0xbc, 0x9c, 0x43, 0x44, 0xbd, 0x56, 0x7e, 0xb9, 0x3e,
  0x93, 0xe0, 0x8d, 0x3e, 0x7d, 0x4b, 0x15, 0x3f, 0xcc, 0x31, 0x05, 0x3f,
  0x63, 0x9f, 0x9c, 0x3e, 0xfe, 0xf7, 0x16, 0xbe, 0x3d, 0x39, 0x7a, 0x3d,
  0x7e, 0xaa, 0xe6, 0x3d, 0x62, 0x98, 0x4f, 0x3e, 0x86, 0xb5, 0x1a, 0xbe,
  0x98, 0x0d, 0xd1, 0x3d, 0x42, 0xeb, 0x11, 0x3f, 0xab, 0x7e, 0xfa, 0x3e,
  0x3f, 0x71, 0x2a, 0x3d, 0xe3, 0x51, 0x10, 0x3f, 0xd5, 0x68, 0x12, 0x3f,
  0x43, 0x90, 0x01, 0xbe, 0x28, 0x80, 0x36, 0xbe, 0x5f, 0x10, 0x14, 0xbe,
  0x0a, 0xcc, 0x8f, 0xbe, 0x8c, 0x3b, 0x3f, 0x3e, 0x33, 0x3c, 0x1d, 0xbf,
  0x24, 0xc2, 0x47, 0xbe, 0x14, 0x5a, 0x16, 0x3f, 0xb3, 0x04, 0x87, 0xbd,
  0x18, 0xb0, 0x46, 0xbe, 0x75, 0xc7, 0xfb, 0x3d, 0x76, 0x79, 0x59, 0x3e,
  0x7b, 0x71, 0x3f, 0xbe, 0xf9, 0x77, 0x18, 0xbe, 0x0b, 0x3a, 0xca, 0xbc,
  0x8e, 0xa5, 0xf1, 0x3e, 0x22, 0x78, 0xa5, 0xbd, 0x9b, 0xd5, 0x71, 0x3e,
  0xaf, 0x85, 0x1b, 0x3d, 0x71, 0xf4, 0x8e, 0x3d, 0x40, 0xb2, 0xc3, 0xbd,
  0xdd, 0x7e, 0x13, 0xbe, 0x29, 0x15, 0xf7, 0x3e, 0xa1, 0x49, 0x90, 0x3e,
  0x42, 0x4e, 0x82, 0xbc, 0xcc, 0xc9, 0x93, 0x3e, 0x1f, 0x61, 0x69, 0x3d,
  0xde, 0xd4, 0x5d, 0x3e, 0xa5, 0x12, 0x45, 0xbd, 0xd5, 0xbd, 0x89, 0xbd,
  0xdf, 0x96, 0x06, 0xbe, 0x0d, 0x42, 0xe8, 0xbd, 0x78, 0x1a, 0xb7, 0x3d,
  0x3c, 0x9b, 0xe2, 0x3e, 0x75, 0xcc, 0x20, 0x3e, 0x62, 0xd6, 0xcd, 0x3e,
  0xdd, 0xf8, 0x23, 0x3f, 0x43, 0x53, 0x04, 0x3e, 0xd1, 0x05, 0x0b, 0x3f,
  0x40, 0x77, 0x09, 0x3e, 0x7a, 0xcc, 0xdc, 0x3e, 0x65, 0x8c, 0x14, 0x3e,
  0xd3, 0x55, 0x54, 0x3e, 0x23, 0xd4, 0x40, 0x3e, 0x3c, 0xfd, 0x2d, 0x3f,
  0x01, 0x24, 0x14, 0x3f, 0xfb, 0xbf, 0x00, 0x3f, 0x24, 0x1b, 0xd5, 0x3e,
  0x48, 0x0c, 0xcb, 0x3e, 0x0f, 0xbf, 0xb2, 0xbe, 0x81, 0xc9, 0x9d, 0x3e,
  0x19, 0xf9, 0xba, 0x3e, 0x42, 0xe4, 0xd3, 0x3e, 0x5e, 0x6e, 0x1c, 0x3d,
  0x2c, 0xcd, 0x18, 0x3e, 0xe0, 0xae, 0xdd, 0x3d, 0xa3, 0xde, 0x62, 0x3e,
  0x8a, 0x44, 0x9c, 0xbd, 0xbd, 0x84, 0x69, 0x3e, 0xd5, 0x0c, 0x0e, 0x3f,
  0x11, 0xf0, 0x1c, 0x3e, 0xfa, 0x80, 0x41, 0xbe, 0x5b, 0x2f, 0x69, 0xbe,
  0x62, 0x2d, 0xee, 0x3c, 0x48, 0x6d, 0x90, 0x3e, 0x65, 0xac, 0x21, 0x3d,
  0xb7, 0xa6, 0xff, 0xbc, 0x8f, 0xd0, 0x5c, 0x3e, 0x85, 0x09, 0xf1, 0xbd,
  0xb5, 0x8b, 0x2d, 0x3c, 0xa0, 0x37, 0x19, 0xbc, 0x04, 0xb6, 0x39, 0x3d,
  0x79, 0x65, 0x06, 0x3c, 0xac, 0xe3, 0x35, 0x3e, 0xcc, 0xde, 0xfa, 0xbd,
  0xe3, 0xe5, 0x1c, 0x3e, 0xc3, 0x16, 0x2d, 0x3e, 0x01, 0xb3, 0x8f, 0x3e,
  0x24, 0x01, 0xaa, 0x39, 0x86, 0x30, 0xfd, 0x3e, 0x54, 0xda, 0x9e, 0xbd,
  0xb2, 0x50, 0x41, 0x3e, 0x16, 0xc2, 0x85, 0x3d, 0x04, 0xdd, 0x98, 0x3d,
  0xc7, 0xf7, 0x10, 0xbe, 0x49, 0x7a, 0x16, 0x3d, 0x19, 0x58, 0xfd, 0xbd,
  0x78, 0xeb, 0xd4, 0x3d, 0xf3, 0x09, 0x33, 0x3e, 0x2e, 0xa8, 0x0e, 0x3f,
  0x35, 0xf0, 0xd3, 0x3e, 0x4d, 0x62, 0x27, 0x3e, 0x33, 0xea, 0x0e, 0x3e,
  0xef, 0xeb, 0x40, 0x3e, 0x97, 0x8e, 0x87, 0xbc, 0x65, 0xe2, 0x38, 0xbe,
  0xae, 0x47, 0x9a, 0xbe, 0xee, 0x74, 0xd3, 0xbe, 0xf0, 0xd4, 0xb0, 0xbd,
  0xc9, 0x60, 0xa1, 0x3d, 0xed, 0xfb, 0x8b, 0x3b, 0xff, 0x3d, 0xf7, 0x3e,
  0x61, 0xc2, 0xd0, 0x3e, 0x31, 0xb5, 0x83, 0x3d, 0xa5, 0xfe, 0x82, 0xbe,
  0x3d, 0x4e, 0xaf, 0xbe, 0xeb, 0xba, 0xee, 0x3e, 0x5f, 0xe5, 0x93, 0xbe,
  0xe1, 0xc4, 0x10, 0xbe, 0x63, 0x73, 0x5e, 0x3e, 0xe7, 0x65, 0x1c, 0x3e,
