
// This code is generated automatically, manuall changes will be overwritten.

#include "tea_fingerprint_64ch_model.h"
#include "normalization.h"
#include "mbed_toolchain.h"
#include <stdint.h>

namespace tea_fingerprint_64ch_model_namespace {
static unsigned char model_data[] = {
  0x1c, 0x00, 0x00, 0x00, 0x54, 0x46, 0x4c, 0x33, 0x00, 0x00, 0x12, 0x00,
  0x1c, 0x00, 0x04, 0x00, 0x08, 0x00, 0x0c, 0x00, 0x10, 0x00, 0x14, 0x00,
  0x00, 0x00, 0x18, 0x00, 0x12, 0x00, 0x00, 0x00, 0x03, 0x00, 0x00, 0x00,
  0x94, 0x00, 0x00, 0x00, 0x88, 0x00, 0x00, 0x00, 0xf4, 0x00, 0x00, 0x00,
  0x08, 0x00, 0x00, 0x00, 0x9c, 0x00, 0x00, 0x00, 0x1d, 0x00, 0x00, 0x00,
  0x5c, 0x55, 0x00, 0x00, 0x58, 0x55, 0x00, 0x00, 0x6c, 0x54, 0x00, 0x00,
  0xa8, 0x53, 0x00, 0x00, 0xfc, 0x52, 0x00, 0x00, 0x50, 0x52, 0x00, 0x00,
  0xa8, 0x51, 0x00, 0x00, 0x00, 0x51, 0x00, 0x00, 0x58, 0x50, 0x00, 0x00,
  0xac, 0x4f, 0x00, 0x00, 0x04, 0x4f, 0x00, 0x00, 0x58, 0x4e, 0x00, 0x00,
  0xfc, 0x48, 0x00, 0x00, 0x9c, 0x20, 0x00, 0x00, 0x3c, 0x0c, 0x00, 0x00,
  0x20, 0x55, 0x00, 0x00, 0x1c, 0x55, 0x00, 0x00, 0x18, 0x55, 0x00, 0x00,
  0x14, 0x55, 0x00, 0x00, 0x10, 0x55, 0x00, 0x00, 0x0c, 0x55, 0x00, 0x00,
  0x08, 0x55, 0x00, 0x00, 0x04, 0x55, 0x00, 0x00, 0x00, 0x55, 0x00, 0x00,
  0xfc, 0x54, 0x00, 0x00, 0xf8, 0x54, 0x00, 0x00, 0xf4, 0x54, 0x00, 0x00,
  0xf0, 0x54, 0x00, 0x00, 0x58, 0x00, 0x00, 0x00, 0x01, 0x00, 0x00, 0x00,
  0x90, 0x00, 0x00, 0x00, 0x05, 0x00, 0x00, 0x00, 0xfc, 0x0a, 0x00, 0x00,
  0x1c, 0x0a, 0x00, 0x00, 0x34, 0x09, 0x00, 0x00, 0x6c, 0x08, 0x00, 0x00,
  0x84, 0x01, 0x00, 0x00, 0x01, 0x00, 0x00, 0x00, 0x0c, 0x00, 0x00, 0x00,
  0x08, 0x00, 0x0c, 0x00, 0x04, 0x00, 0x08, 0x00, 0x08, 0x00, 0x00, 0x00,
  0x08, 0x00, 0x00, 0x00, 0x1c, 0x00, 0x00, 0x00, 0x13, 0x00, 0x00, 0x00,
  0x6d, 0x69, 0x6e, 0x5f, 0x72, 0x75, 0x6e, 0x74, 0x69, 0x6d, 0x65, 0x5f,
  0x76, 0x65, 0x72, 0x73, 0x69, 0x6f, 0x6e, 0x00, 0x5a, 0xac, 0xff, 0xff,
  0x04, 0x00, 0x00, 0x00, 0x10, 0x00, 0x00, 0x00, 0x31, 0x2e, 0x36, 0x2e,
  0x30, 0x00, 0x00, 0x00, 0x00, 0x00, 0x00, 0x00, 0x00, 0x00, 0x00, 0x00,
  0x0f, 0x00, 0x00, 0x00, 0x4d, 0x4c, 0x49, 0x52, 0x20, 0x43, 0x6f, 0x6e,
  0x76, 0x65, 0x72, 0x74, 0x65, 0x64, 0x2e, 0x00, 0x00, 0x00, 0x0e, 0x00,
  0x18, 0x00, 0x04, 0x00, 0x08, 0x00, 0x0c, 0x00, 0x10, 0x00, 0x14, 0x00,
  0x0e, 0x00, 0x00, 0x00, 0x68, 0x00, 0x00, 0x00, 0x5c, 0x00, 0x00, 0x00,
  0x50, 0x00, 0x00, 0x00, 0x14, 0x00, 0x00, 0x00, 0x04, 0x00, 0x00, 0x00,
  0x04, 0x00, 0x00, 0x00, 0x6d, 0x61, 0x69, 0x6e, 0x00, 0x00, 0x00, 0x00,
  0x0d, 0x00, 0x00, 0x00, 0xf8, 0x09, 0x00, 0x00, 0x20, 0x09, 0x00, 0x00,
  0x54, 0x08, 0x00, 0x00, 0x80, 0x07, 0x00, 0x00, 0x4c, 0x06, 0x00, 0x00,
  0x9c, 0x05, 0x00, 0x00, 0xe8, 0x04, 0x00, 0x00, 0x34, 0x04, 0x00, 0x00,
  0x20, 0x03, 0x00, 0x00, 0x70, 0x02, 0x00, 0x00, 0xbc, 0x01, 0x00, 0x00,
  0x08, 0x01, 0x00, 0x00, 0x84, 0x00, 0x00, 0x00, 0x01, 0x00, 0x00, 0x00,
  0x1a, 0x00, 0x00, 0x00, 0x01, 0x00, 0x00, 0x00, 0x00, 0x00, 0x00, 0x00,
  0x1b, 0x00, 0x00, 0x00, 0x90, 0x53, 0x00, 0x00, 0x1c, 0x53, 0x00, 0x00,
  0x90, 0x52, 0x00, 0x00, 0xd4, 0x51, 0x00, 0x00, 0x28, 0x51, 0x00, 0x00,
  0x80, 0x50, 0x00, 0x00, 0xd8, 0x4f, 0x00, 0x00, 0x30, 0x4f, 0x00, 0x00,
  0x84, 0x4e, 0x00, 0x00, 0xdc, 0x4d, 0x00, 0x00, 0x30, 0x4d, 0x00, 0x00,
  0x94, 0x4c, 0x00, 0x00, 0x34, 0x47, 0x00, 0x00, 0xd4, 0x1e, 0x00, 0x00,
  0xd8, 0x09, 0x00, 0x00, 0xf8, 0x08, 0x00, 0x00, 0x10, 0x08, 0x00, 0x00,
  0x44, 0x07, 0x00, 0x00, 0x08, 0x06, 0x00, 0x00, 0x58, 0x05, 0x00, 0x00,
  0x98, 0x04, 0x00, 0x00, 0xe4, 0x03, 0x00, 0x00, 0xdc, 0x02, 0x00, 0x00,
  0x2c, 0x02, 0x00, 0x00, 0x6c, 0x01, 0x00, 0x00, 0xb8, 0x00, 0x00, 0x00,
  0x40, 0x00, 0x00, 0x00, 0x66, 0xf8, 0xff, 0xff, 0x00, 0x00, 0x00, 0x1b,
  0x04, 0x00, 0x00, 0x00, 0x18, 0x00, 0x00, 0x00, 0x0c, 0x00, 0x00, 0x00,
  0x04, 0x00, 0x00, 0x00, 0xa4, 0xac, 0xff, 0xff, 0x01, 0x00, 0x00, 0x00,
  0x1a, 0x00, 0x00, 0x00, 0x02, 0x00, 0x00, 0x00, 0x19, 0x00, 0x00, 0x00,
  0x01, 0x00, 0x00, 0x00, 0xa2, 0xf6, 0xff, 0xff, 0x00, 0x00, 0x00, 0x28,
  0x01, 0x00, 0x00, 0x00, 0x2c, 0xad, 0xff, 0xff, 0x30, 0x00, 0x00, 0x00,
  0x1b, 0x00, 0x00, 0x00, 0x18, 0x00, 0x00, 0x00, 0x30, 0x00, 0x00, 0x00,
  0x04, 0x00, 0x00, 0x00, 0x02, 0x00, 0x00, 0x00, 0xff, 0xff, 0xff, 0xff,
  0x10, 0x00, 0x00, 0x00, 0x08, 0x00, 0x00, 0x00, 0x49, 0x64, 0x65, 0x6e,
  0x74, 0x69, 0x74, 0x79, 0x00, 0x00, 0x00, 0x00, 0x02, 0x00, 0x00, 0x00,
  0x01, 0x00, 0x00, 0x00, 0x10, 0x00, 0x00, 0x00, 0x08, 0xad, 0xff, 0xff,
  0xe6, 0xf8, 0xff, 0xff, 0x00, 0x00, 0x00, 0x0b, 0x03, 0x00, 0x00, 0x00,
  0x18, 0x00, 0x00, 0x00, 0x0c, 0x00, 0x00, 0x00, 0x04, 0x00, 0x00, 0x00,
  0x24, 0xad, 0xff, 0xff, 0x01, 0x00, 0x00, 0x00, 0x19, 0x00, 0x00, 0x00,
  0x02, 0x00, 0x00, 0x00, 0x18, 0x00, 0x00, 0x00, 0x09, 0x00, 0x00, 0x00,
  0xa0, 0xad, 0xff, 0xff, 0x64, 0x00, 0x00, 0x00, 0x1a, 0x00, 0x00, 0x00,
  0x20, 0x00, 0x00, 0x00, 0x6c, 0x00, 0x00, 0x00, 0x04, 0x00, 0x00, 0x00,
  0x04, 0x00, 0x00, 0x00, 0xff, 0xff, 0xff, 0xff, 0x01, 0x00, 0x00, 0x00,
  0x01, 0x00, 0x00, 0x00, 0x10, 0x00, 0x00, 0x00, 0x34, 0x00, 0x00, 0x00,
  0x66, 0x75, 0x6e, 0x63, 0x74, 0x69, 0x6f, 0x6e, 0x61, 0x6c, 0x5f, 0x31,
  0x2f, 0x62, 0x61, 0x74, 0x63, 0x68, 0x5f, 0x6e, 0x6f, 0x72, 0x6d, 0x61,
  0x6c, 0x69, 0x7a, 0x61, 0x74, 0x69, 0x6f, 0x6e, 0x5f, 0x32, 0x2f, 0x46,
  0x75, 0x73, 0x65, 0x64, 0x42, 0x61, 0x74, 0x63, 0x68, 0x4e, 0x6f, 0x72,
  0x6d, 0x56, 0x33, 0x33, 0x00, 0x00, 0x00, 0x00, 0x04, 0x00, 0x00, 0x00,
  0x01, 0x00, 0x00, 0x00, 0x01, 0x00, 0x00, 0x00, 0x01, 0x00, 0x00, 0x00,
  0x10, 0x00, 0x00, 0x00, 0xb8, 0xad, 0xff, 0xff, 0x96, 0xf9, 0xff, 0xff,
  0x00, 0x00, 0x00, 0x15, 0x02, 0x00, 0x00, 0x00, 0x18, 0x00, 0x00, 0x00,
  0x0c, 0x00, 0x00, 0x00, 0x04, 0x00, 0x00, 0x00, 0xd4, 0xad, 0xff, 0xff,
  0x01, 0x00, 0x00, 0x00, 0x18, 0x00, 0x00, 0x00, 0x02, 0x00, 0x00, 0x00,
  0x17, 0x00, 0x00, 0x00, 0x0a, 0x00, 0x00, 0x00, 0x50, 0xae, 0xff, 0xff,
  0x64, 0x00, 0x00, 0x00, 0x19, 0x00, 0x00, 0x00, 0x20, 0x00, 0x00, 0x00,
  0x6c, 0x00, 0x00, 0x00, 0x04, 0x00, 0x00, 0x00, 0x04, 0x00, 0x00, 0x00,
  0xff, 0xff, 0xff, 0xff, 0x01, 0x00, 0x00, 0x00, 0x01, 0x00, 0x00, 0x00,
  0x10, 0x00, 0x00, 0x00, 0x34, 0x00, 0x00, 0x00, 0x66, 0x75, 0x6e, 0x63,
  0x74, 0x69, 0x6f, 0x6e, 0x61, 0x6c, 0x5f, 0x31, 0x2f, 0x62, 0x61, 0x74,
  0x63, 0x68, 0x5f, 0x6e, 0x6f, 0x72, 0x6d, 0x61, 0x6c, 0x69, 0x7a, 0x61,
  0x74, 0x69, 0x6f, 0x6e, 0x5f, 0x32, 0x2f, 0x46, 0x75, 0x73, 0x65, 0x64,
  0x42, 0x61, 0x74, 0x63, 0x68, 0x4e, 0x6f, 0x72, 0x6d, 0x56, 0x33, 0x32,
  0x00, 0x00, 0x00, 0x00, 0x04, 0x00, 0x00, 0x00, 0x01, 0x00, 0x00, 0x00,
  0x01, 0x00, 0x00, 0x00, 0x01, 0x00, 0x00, 0x00, 0x10, 0x00, 0x00, 0x00,
  0x68, 0xae, 0xff, 0xff, 0x46, 0xfa, 0xff, 0xff, 0x00, 0x00, 0x00, 0x05,
  0x01, 0x00, 0x00, 0x00, 0x28, 0x00, 0x00, 0x00, 0x1c, 0x00, 0x00, 0x00,
  0x04, 0x00, 0x00, 0x00, 0x6e, 0xf9, 0xff, 0xff, 0x02, 0x00, 0x00, 0x00,
  0x02, 0x00, 0x00, 0x00, 0x02, 0x00, 0x00, 0x00, 0x02, 0x00, 0x00, 0x00,
  0x01, 0x00, 0x00, 0x00, 0x17, 0x00, 0x00, 0x00, 0x01, 0x00, 0x00, 0x00,
  0x16, 0x00, 0x00, 0x00, 0x0c, 0xaf, 0xff, 0xff, 0x54, 0x00, 0x00, 0x00,
  0x18, 0x00, 0x00, 0x00, 0x20, 0x00, 0x00, 0x00, 0x5c, 0x00, 0x00, 0x00,
  0x04, 0x00, 0x00, 0x00, 0x04, 0x00, 0x00, 0x00, 0xff, 0xff, 0xff, 0xff,
  0x01, 0x00, 0x00, 0x00, 0x01, 0x00, 0x00, 0x00, 0x10, 0x00, 0x00, 0x00,
  0x24, 0x00, 0x00, 0x00, 0x66, 0x75, 0x6e, 0x63, 0x74, 0x69, 0x6f, 0x6e,
  0x61, 0x6c, 0x5f, 0x31, 0x2f, 0x6d, 0x61, 0x78, 0x5f, 0x70, 0x6f, 0x6f,
  0x6c, 0x69, 0x6e, 0x67, 0x32, 0x64, 0x5f, 0x32, 0x2f, 0x4d, 0x61, 0x78,
  0x50, 0x6f, 0x6f, 0x6c, 0x00, 0x00, 0x00, 0x00, 0x04, 0x00, 0x00, 0x00,
  0x01, 0x00, 0x00, 0x00, 0x01, 0x00, 0x00, 0x00, 0x01, 0x00, 0x00, 0x00,
  0x10, 0x00, 0x00, 0x00, 0x14, 0xaf, 0xff, 0xff, 0x56, 0xf9, 0xff, 0xff,
  0x00, 0x00, 0x00, 0x01, 0x24, 0x00, 0x00, 0x00, 0x18, 0x00, 0x00, 0x00,
  0x04, 0x00, 0x00, 0x00, 0x48, 0xf9, 0xff, 0xff, 0x02, 0x00, 0x00, 0x00,
  0x02, 0x00, 0x00, 0x00, 0x00, 0x00, 0x00, 0x01, 0x01, 0x00, 0x00, 0x00,
  0x16, 0x00, 0x00, 0x00, 0x03, 0x00, 0x00, 0x00, 0x15, 0x00, 0x00, 0x00,
  0x0d, 0x00, 0x00, 0x00, 0x04, 0x00, 0x00, 0x00, 0xb8, 0xaf, 0xff, 0xff,
  0xb8, 0x00, 0x00, 0x00, 0x17, 0x00, 0x00, 0x00, 0x20, 0x00, 0x00, 0x00,
  0xc0, 0x00, 0x00, 0x00, 0x04, 0x00, 0x00, 0x00, 0x04, 0x00, 0x00, 0x00,
  0xff, 0xff, 0xff, 0xff, 0x01, 0x00, 0x00, 0x00, 0x02, 0x00, 0x00, 0x00,
  0x10, 0x00, 0x00, 0x00, 0x8b, 0x00, 0x00, 0x00, 0x66, 0x75, 0x6e, 0x63,
  0x74, 0x69, 0x6f, 0x6e, 0x61, 0x6c, 0x5f, 0x31, 0x2f, 0x63, 0x6f, 0x6e,
  0x76, 0x32, 0x64, 0x5f, 0x32, 0x2f, 0x52, 0x65, 0x6c, 0x75, 0x3b, 0x66,
  0x75, 0x6e, 0x63, 0x74, 0x69, 0x6f, 0x6e, 0x61, 0x6c, 0x5f, 0x31, 0x2f,
  0x63, 0x6f, 0x6e, 0x76, 0x32, 0x64, 0x5f, 0x32, 0x2f, 0x42, 0x69, 0x61,
  0x73, 0x41, 0x64, 0x64, 0x3b, 0x66, 0x75, 0x6e, 0x63, 0x74, 0x69, 0x6f,
  0x6e, 0x61, 0x6c, 0x5f, 0x31, 0x2f, 0x63, 0x6f, 0x6e, 0x76, 0x32, 0x64,
  0x5f, 0x32, 0x2f, 0x43, 0x6f, 0x6e, 0x76, 0x32, 0x44, 0x3b, 0x66, 0x75,
  0x6e, 0x63, 0x74, 0x69, 0x6f, 0x6e, 0x61, 0x6c, 0x5f, 0x31, 0x2f, 0x63,
  0x6f, 0x6e, 0x76, 0x32, 0x64, 0x5f, 0x32, 0x2f, 0x42, 0x69, 0x61, 0x73,
  0x41, 0x64, 0x64, 0x2f, 0x52, 0x65, 0x61, 0x64, 0x56, 0x61, 0x72, 0x69,
  0x61, 0x62, 0x6c, 0x65, 0x4f, 0x70, 0x2f, 0x72, 0x65, 0x73, 0x6f, 0x75,
  0x72, 0x63, 0x65, 0x00, 0x04, 0x00, 0x00, 0x00, 0x01, 0x00, 0x00, 0x00,
  0x01, 0x00, 0x00, 0x00, 0x02, 0x00, 0x00, 0x00, 0x10, 0x00, 0x00, 0x00,
  0x24, 0xb0, 0xff, 0xff, 0x02, 0xfc, 0xff, 0xff, 0x00, 0x00, 0x00, 0x0b,
  0x03, 0x00, 0x00, 0x00, 0x18, 0x00, 0x00, 0x00, 0x0c, 0x00, 0x00, 0x00,
  0x04, 0x00, 0x00, 0x00, 0x40, 0xb0, 0xff, 0xff, 0x01, 0x00, 0x00, 0x00,
  0x15, 0x00, 0x00, 0x00, 0x02, 0x00, 0x00, 0x00, 0x14, 0x00, 0x00, 0x00,
  0x07, 0x00, 0x00, 0x00, 0xbc, 0xb0, 0xff, 0xff, 0x64, 0x00, 0x00, 0x00,
  0x16, 0x00, 0x00, 0x00, 0x20, 0x00, 0x00, 0x00, 0x6c, 0x00, 0x00, 0x00,
  0x04, 0x00, 0x00, 0x00, 0x04, 0x00, 0x00, 0x00, 0xff, 0xff, 0xff, 0xff,
  0x01, 0x00, 0x00, 0x00, 0x04, 0x00, 0x00, 0x00, 0x10, 0x00, 0x00, 0x00,
  0x34, 0x00, 0x00, 0x00, 0x66, 0x75, 0x6e, 0x63, 0x74, 0x69, 0x6f, 0x6e,
  0x61, 0x6c, 0x5f, 0x31, 0x2f, 0x62, 0x61, 0x74, 0x63, 0x68, 0x5f, 0x6e,
  0x6f, 0x72, 0x6d, 0x61, 0x6c, 0x69, 0x7a, 0x61, 0x74, 0x69, 0x6f, 0x6e,
  0x5f, 0x31, 0x2f, 0x46, 0x75, 0x73, 0x65, 0x64, 0x42, 0x61, 0x74, 0x63,
  0x68, 0x4e, 0x6f, 0x72, 0x6d, 0x56, 0x33, 0x33, 0x00, 0x00, 0x00, 0x00,
  0x04, 0x00, 0x00, 0x00, 0x01, 0x00, 0x00, 0x00, 0x01, 0x00, 0x00, 0x00,
  0x04, 0x00, 0x00, 0x00, 0x10, 0x00, 0x00, 0x00, 0xd4, 0xb0, 0xff, 0xff,
  0xb2, 0xfc, 0xff, 0xff, 0x00, 0x00, 0x00, 0x15, 0x02, 0x00, 0x00, 0x00,
  0x18, 0x00, 0x00, 0x00, 0x0c, 0x00, 0x00, 0x00, 0x04, 0x00, 0x00, 0x00,
  0xf0, 0xb0, 0xff, 0xff, 0x01, 0x00, 0x00, 0x00, 0x14, 0x00, 0x00, 0x00,
  0x02, 0x00, 0x00, 0x00, 0x13, 0x00, 0x00, 0x00, 0x08, 0x00, 0x00, 0x00,
  0x6c, 0xb1, 0xff, 0xff, 0x64, 0x00, 0x00, 0x00, 0x15, 0x00, 0x00, 0x00,
  0x20, 0x00, 0x00, 0x00, 0x6c, 0x00, 0x00, 0x00, 0x04, 0x00, 0x00, 0x00,
  0x04, 0x00, 0x00, 0x00, 0xff, 0xff, 0xff, 0xff, 0x01, 0x00, 0x00, 0x00,
  0x04, 0x00, 0x00, 0x00, 0x10, 0x00, 0x00, 0x00, 0x34, 0x00, 0x00, 0x00,
  0x66, 0x75, 0x6e, 0x63, 0x74, 0x69, 0x6f, 0x6e, 0x61, 0x6c, 0x5f, 0x31,
  0x2f, 0x62, 0x61, 0x74, 0x63, 0x68, 0x5f, 0x6e, 0x6f, 0x72, 0x6d, 0x61,
  0x6c, 0x69, 0x7a, 0x61, 0x74, 0x69, 0x6f, 0x6e, 0x5f, 0x31, 0x2f, 0x46,
  0x75, 0x73, 0x65, 0x64, 0x42, 0x61, 0x74, 0x63, 0x68, 0x4e, 0x6f, 0x72,
  0x6d, 0x56, 0x33, 0x32, 0x00, 0x00, 0x00, 0x00, 0x04, 0x00, 0x00, 0x00,
  0x01, 0x00, 0x00, 0x00, 0x01, 0x00, 0x00, 0x00, 0x04, 0x00, 0x00, 0x00,
  0x10, 0x00, 0x00, 0x00, 0x84, 0xb1, 0xff, 0xff, 0x62, 0xfd, 0xff, 0xff,
  0x00, 0x00, 0x00, 0x05, 0x01, 0x00, 0x00, 0x00, 0x28, 0x00, 0x00, 0x00,
  0x1c, 0x00, 0x00, 0x00, 0x04, 0x00, 0x00, 0x00, 0x8a, 0xfc, 0xff, 0xff,
  0x02, 0x00, 0x00, 0x00, 0x02, 0x00, 0x00, 0x00, 0x02, 0x00, 0x00, 0x00,
  0x02, 0x00, 0x00, 0x00, 0x01, 0x00, 0x00, 0x00, 0x13, 0x00, 0x00, 0x00,
  0x01, 0x00, 0x00, 0x00, 0x12, 0x00, 0x00, 0x00, 0x28, 0xb2, 0xff, 0xff,
  0x54, 0x00, 0x00, 0x00, 0x14, 0x00, 0x00, 0x00, 0x20, 0x00, 0x00, 0x00,
  0x5c, 0x00, 0x00, 0x00, 0x04, 0x00, 0x00, 0x00, 0x04, 0x00, 0x00, 0x00,
  0xff, 0xff, 0xff, 0xff, 0x01, 0x00, 0x00, 0x00, 0x04, 0x00, 0x00, 0x00,
  0x10, 0x00, 0x00, 0x00, 0x24, 0x00, 0x00, 0x00, 0x66, 0x75, 0x6e, 0x63,
  0x74, 0x69, 0x6f, 0x6e, 0x61, 0x6c, 0x5f, 0x31, 0x2f, 0x6d, 0x61, 0x78,
  0x5f, 0x70, 0x6f, 0x6f, 0x6c, 0x69, 0x6e, 0x67, 0x32, 0x64, 0x5f, 0x31,
  0x2f, 0x4d, 0x61, 0x78, 0x50, 0x6f, 0x6f, 0x6c, 0x00, 0x00, 0x00, 0x00,
  0x04, 0x00, 0x00, 0x00, 0x01, 0x00, 0x00, 0x00, 0x01, 0x00, 0x00, 0x00,
  0x04, 0x00, 0x00, 0x00, 0x10, 0x00, 0x00, 0x00, 0x30, 0xb2, 0xff, 0xff,
  0x72, 0xfc, 0xff, 0xff, 0x00, 0x00, 0x00, 0x01, 0x24, 0x00, 0x00, 0x00,
  0x18, 0x00, 0x00, 0x00, 0x04, 0x00, 0x00, 0x00, 0x64, 0xfc, 0xff, 0xff,
  0x02, 0x00, 0x00, 0x00, 0x02, 0x00, 0x00, 0x00, 0x00, 0x00, 0x00, 0x01,
  0x01, 0x00, 0x00, 0x00, 0x12, 0x00, 0x00, 0x00, 0x03, 0x00, 0x00, 0x00,
  0x11, 0x00, 0x00, 0x00, 0x0c, 0x00, 0x00, 0x00, 0x03, 0x00, 0x00, 0x00,
  0xd4, 0xb2, 0xff, 0xff, 0xd8, 0x00, 0x00, 0x00, 0x13, 0x00, 0x00, 0x00,
  0x20, 0x00, 0x00, 0x00, 0xe0, 0x00, 0x00, 0x00, 0x04, 0x00, 0x00, 0x00,
  0x04, 0x00, 0x00, 0x00, 0xff, 0xff, 0xff, 0xff, 0x01, 0x00, 0x00, 0x00,
  0x08, 0x00, 0x00, 0x00, 0x10, 0x00, 0x00, 0x00, 0xa8, 0x00, 0x00, 0x00,
  0x66, 0x75, 0x6e, 0x63, 0x74, 0x69, 0x6f, 0x6e, 0x61, 0x6c, 0x5f, 0x31,
  0x2f, 0x63, 0x6f, 0x6e, 0x76, 0x32, 0x64, 0x5f, 0x31, 0x2f, 0x52, 0x65,
  0x6c, 0x75, 0x3b, 0x66, 0x75, 0x6e, 0x63, 0x74, 0x69, 0x6f, 0x6e, 0x61,
  0x6c, 0x5f, 0x31, 0x2f, 0x63, 0x6f, 0x6e, 0x76, 0x32, 0x64, 0x5f, 0x31,
  0x2f, 0x42, 0x69, 0x61, 0x73, 0x41, 0x64, 0x64, 0x3b, 0x66, 0x75, 0x6e,
  0x63, 0x74, 0x69, 0x6f, 0x6e, 0x61, 0x6c, 0x5f, 0x31, 0x2f, 0x63, 0x6f,
  0x6e, 0x76, 0x32, 0x64, 0x5f, 0x32, 0x2f, 0x43, 0x6f, 0x6e, 0x76, 0x32,
  0x44, 0x3b, 0x66, 0x75, 0x6e, 0x63, 0x74, 0x69, 0x6f, 0x6e, 0x61, 0x6c,
  0x5f, 0x31, 0x2f, 0x63, 0x6f, 0x6e, 0x76, 0x32, 0x64, 0x5f, 0x31, 0x2f,
  0x43, 0x6f, 0x6e, 0x76, 0x32, 0x44, 0x3b, 0x66, 0x75, 0x6e, 0x63, 0x74,
  0x69, 0x6f, 0x6e, 0x61, 0x6c, 0x5f, 0x31, 0x2f, 0x63, 0x6f, 0x6e, 0x76,
  0x32, 0x64, 0x5f, 0x31, 0x2f, 0x42, 0x69, 0x61, 0x73, 0x41, 0x64, 0x64,
  0x2f, 0x52, 0x65, 0x61, 0x64, 0x56, 0x61, 0x72, 0x69, 0x61, 0x62, 0x6c,
  0x65, 0x4f, 0x70, 0x2f, 0x72, 0x65, 0x73, 0x6f, 0x75, 0x72, 0x63, 0x65,
  0x00, 0x00, 0x00, 0x00, 0x04, 0x00, 0x00, 0x00, 0x01, 0x00, 0x00, 0x00,
  0x01, 0x00, 0x00, 0x00, 0x08, 0x00, 0x00, 0x00, 0x10, 0x00, 0x00, 0x00,
  0x60, 0xb3, 0xff, 0xff, 0x3e, 0xff, 0xff, 0xff, 0x00, 0x00, 0x00, 0x0b,
  0x03, 0x00, 0x00, 0x00, 0x18, 0x00, 0x00, 0x00, 0x0c, 0x00, 0x00, 0x00,
  0x04, 0x00, 0x00, 0x00, 0x7c, 0xb3, 0xff, 0xff, 0x01, 0x00, 0x00, 0x00,
  0x11, 0x00, 0x00, 0x00, 0x02, 0x00, 0x00, 0x00, 0x10, 0x00, 0x00, 0x00,
  0x05, 0x00, 0x00, 0x00, 0x00, 0x00, 0x0a, 0x00, 0x08, 0x00, 0x00, 0x00,
  0x00, 0x00, 0x04, 0x00, 0x0a, 0x00, 0x00, 0x00, 0x01, 0x00, 0x00, 0x00,
  0x0c, 0xb4, 0xff, 0xff, 0x60, 0x00, 0x00, 0x00, 0x12, 0x00, 0x00, 0x00,
  0x20, 0x00, 0x00, 0x00, 0x68, 0x00, 0x00, 0x00, 0x04, 0x00, 0x00, 0x00,
  0x04, 0x00, 0x00, 0x00, 0xff, 0xff, 0xff, 0xff, 0x01, 0x00, 0x00, 0x00,
  0x10, 0x00, 0x00, 0x00, 0x10, 0x00, 0x00, 0x00, 0x32, 0x00, 0x00, 0x00,
  0x66, 0x75, 0x6e, 0x63, 0x74, 0x69, 0x6f, 0x6e, 0x61, 0x6c, 0x5f, 0x31,
  0x2f, 0x62, 0x61, 0x74, 0x63, 0x68, 0x5f, 0x6e, 0x6f, 0x72, 0x6d, 0x61,
  0x6c, 0x69, 0x7a, 0x61, 0x74, 0x69, 0x6f, 0x6e, 0x2f, 0x46, 0x75, 0x73,
  0x65, 0x64, 0x42, 0x61, 0x74, 0x63, 0x68, 0x4e, 0x6f, 0x72, 0x6d, 0x56,
  0x33, 0x33, 0x00, 0x00, 0x04, 0x00, 0x00, 0x00, 0x01, 0x00, 0x00, 0x00,
  0x01, 0x00, 0x00, 0x00, 0x10, 0x00, 0x00, 0x00, 0x10, 0x00, 0x00, 0x00,
  0x14, 0xb5, 0xff, 0xff, 0x00, 0x00, 0x0e, 0x00, 0x18, 0x00, 0x08, 0x00,
  0x0c, 0x00, 0x10, 0x00, 0x07, 0x00, 0x14, 0x00, 0x0e, 0x00, 0x00, 0x00,
  0x00, 0x00, 0x00, 0x15, 0x02, 0x00, 0x00, 0x00, 0x18, 0x00, 0x00, 0x00,
  0x0c, 0x00, 0x00, 0x00, 0x04, 0x00, 0x00, 0x00, 0x4c, 0xb4, 0xff, 0xff,
  0x01, 0x00, 0x00, 0x00, 0x10, 0x00, 0x00, 0x00, 0x02, 0x00, 0x00, 0x00,
  0x0f, 0x00, 0x00, 0x00, 0x06, 0x00, 0x00, 0x00, 0x4a, 0xfe, 0xff, 0xff,
  0x00, 0x00, 0x00, 0x12, 0x01, 0x00, 0x00, 0x00, 0xd4, 0xb4, 0xff, 0xff,
  0x60, 0x00, 0x00, 0x00, 0x11, 0x00, 0x00, 0x00, 0x20, 0x00, 0x00, 0x00,
  0x68, 0x00, 0x00, 0x00, 0x04, 0x00, 0x00, 0x00, 0x04, 0x00, 0x00, 0x00,
  0xff, 0xff, 0xff, 0xff, 0x01, 0x00, 0x00, 0x00, 0x10, 0x00, 0x00, 0x00,
  0x10, 0x00, 0x00, 0x00, 0x32, 0x00, 0x00, 0x00, 0x66, 0x75, 0x6e, 0x63,
  0x74, 0x69, 0x6f, 0x6e, 0x61, 0x6c, 0x5f, 0x31, 0x2f, 0x62, 0x61, 0x74,
  0x63, 0x68, 0x5f, 0x6e, 0x6f, 0x72, 0x6d, 0x61, 0x6c, 0x69, 0x7a, 0x61,
  0x74, 0x69, 0x6f, 0x6e, 0x2f, 0x46, 0x75, 0x73, 0x65, 0x64, 0x42, 0x61,
  0x74, 0x63, 0x68, 0x4e, 0x6f, 0x72, 0x6d, 0x56, 0x33, 0x32, 0x00, 0x00,
  0x04, 0x00, 0x00, 0x00, 0x01, 0x00, 0x00, 0x00, 0x01, 0x00, 0x00, 0x00,
  0x10, 0x00, 0x00, 0x00, 0x10, 0x00, 0x00, 0x00, 0xdc, 0xb5, 0xff, 0xff,
  0x00, 0x00, 0x0e, 0x00, 0x1a, 0x00, 0x08, 0x00, 0x0c, 0x00, 0x10, 0x00,
  0x07, 0x00, 0x14, 0x00, 0x0e, 0x00, 0x00, 0x00, 0x00, 0x00, 0x00, 0x05,
  0x01, 0x00, 0x00, 0x00, 0x38, 0x00, 0x00, 0x00, 0x2c, 0x00, 0x00, 0x00,
  0x14, 0x00, 0x00, 0x00, 0x00, 0x00, 0x0e, 0x00, 0x14, 0x00, 0x00, 0x00,
  0x10, 0x00, 0x0c, 0x00, 0x08, 0x00, 0x04, 0x00, 0x0e, 0x00, 0x00, 0x00,
  0x02, 0x00, 0x00, 0x00, 0x02, 0x00, 0x00, 0x00, 0x02, 0x00, 0x00, 0x00,
  0x02, 0x00, 0x00, 0x00, 0x01, 0x00, 0x00, 0x00, 0x0f, 0x00, 0x00, 0x00,
  0x01, 0x00, 0x00, 0x00, 0x0e, 0x00, 0x00, 0x00, 0x2e, 0xff, 0xff, 0xff,
  0x00, 0x00, 0x00, 0x11, 0x01, 0x00, 0x00, 0x00, 0xb8, 0xb5, 0xff, 0xff,
  0x50, 0x00, 0x00, 0x00, 0x10, 0x00, 0x00, 0x00, 0x20, 0x00, 0x00, 0x00,
  0x58, 0x00, 0x00, 0x00, 0x04, 0x00, 0x00, 0x00, 0x04, 0x00, 0x00, 0x00,
  0xff, 0xff, 0xff, 0xff, 0x01, 0x00, 0x00, 0x00, 0x10, 0x00, 0x00, 0x00,
  0x10, 0x00, 0x00, 0x00, 0x22, 0x00, 0x00, 0x00, 0x66, 0x75, 0x6e, 0x63,
  0x74, 0x69, 0x6f, 0x6e, 0x61, 0x6c, 0x5f, 0x31, 0x2f, 0x6d, 0x61, 0x78,
  0x5f, 0x70, 0x6f, 0x6f, 0x6c, 0x69, 0x6e, 0x67, 0x32, 0x64, 0x2f, 0x4d,
  0x61, 0x78, 0x50, 0x6f, 0x6f, 0x6c, 0x00, 0x00, 0x04, 0x00, 0x00, 0x00,
  0x01, 0x00, 0x00, 0x00, 0x01, 0x00, 0x00, 0x00, 0x10, 0x00, 0x00, 0x00,
  0x10, 0x00, 0x00, 0x00, 0xb0, 0xb6, 0xff, 0xff, 0x00, 0x00, 0x0e, 0x00,
  0x14, 0x00, 0x00, 0x00, 0x08, 0x00, 0x0c, 0x00, 0x07, 0x00, 0x10, 0x00,
  0x0e, 0x00, 0x00, 0x00, 0x00, 0x00, 0x00, 0x01, 0x30, 0x00, 0x00, 0x00,
  0x24, 0x00, 0x00, 0x00, 0x10, 0x00, 0x00, 0x00, 0x0c, 0x00, 0x10, 0x00,
  0x00, 0x00, 0x04, 0x00, 0x08, 0x00, 0x0f, 0x00, 0x0c, 0x00, 0x00, 0x00,
  0x02, 0x00, 0x00, 0x00, 0x02, 0x00, 0x00, 0x00, 0x00, 0x00, 0x00, 0x01,
  0x01, 0x00, 0x00, 0x00, 0x0e, 0x00, 0x00, 0x00, 0x03, 0x00, 0x00, 0x00,
  0x00, 0x00, 0x00, 0x00, 0x0b, 0x00, 0x00, 0x00, 0x02, 0x00, 0x00, 0x00,
  0x00, 0x00, 0x0a, 0x00, 0x0c, 0x00, 0x07, 0x00, 0x00, 0x00, 0x08, 0x00,
  0x0a, 0x00, 0x00, 0x00, 0x00, 0x00, 0x00, 0x03, 0x01, 0x00, 0x00, 0x00,
  0x94, 0xb6, 0xff, 0xff, 0xd0, 0x00, 0x00, 0x00, 0x0f, 0x00, 0x00, 0x00,
  0x20, 0x00, 0x00, 0x00, 0xd8, 0x00, 0x00, 0x00, 0x04, 0x00, 0x00, 0x00,
  0x04, 0x00, 0x00, 0x00, 0xff, 0xff, 0xff, 0xff, 0x01, 0x00, 0x00, 0x00,
  0x20, 0x00, 0x00, 0x00, 0x10, 0x00, 0x00, 0x00, 0xa0, 0x00, 0x00, 0x00,
  0x66, 0x75, 0x6e, 0x63, 0x74, 0x69, 0x6f, 0x6e, 0x61, 0x6c, 0x5f, 0x31,
  0x2f, 0x63, 0x6f, 0x6e, 0x76, 0x32, 0x64, 0x2f, 0x52, 0x65, 0x6c, 0x75,
  0x3b, 0x66, 0x75, 0x6e, 0x63, 0x74, 0x69, 0x6f, 0x6e, 0x61, 0x6c, 0x5f,
  0x31, 0x2f, 0x63, 0x6f, 0x6e, 0x76, 0x32, 0x64, 0x2f, 0x42, 0x69, 0x61,
  0x73, 0x41, 0x64, 0x64, 0x3b, 0x66, 0x75, 0x6e, 0x63, 0x74, 0x69, 0x6f,
  0x6e, 0x61, 0x6c, 0x5f, 0x31, 0x2f, 0x63, 0x6f, 0x6e, 0x76, 0x32, 0x64,
  0x5f, 0x32, 0x2f, 0x43, 0x6f, 0x6e, 0x76, 0x32, 0x44, 0x3b, 0x66, 0x75,
  0x6e, 0x63, 0x74, 0x69, 0x6f, 0x6e, 0x61, 0x6c, 0x5f, 0x31, 0x2f, 0x63,
  0x6f, 0x6e, 0x76, 0x32, 0x64, 0x2f, 0x43, 0x6f, 0x6e, 0x76, 0x32, 0x44,
  0x3b, 0x66, 0x75, 0x6e, 0x63, 0x74, 0x69, 0x6f, 0x6e, 0x61, 0x6c, 0x5f,
  0x31, 0x2f, 0x63, 0x6f, 0x6e, 0x76, 0x32, 0x64, 0x2f, 0x42, 0x69, 0x61,
  0x73, 0x41, 0x64, 0x64, 0x2f, 0x52, 0x65, 0x61, 0x64, 0x56, 0x61, 0x72,
  0x69, 0x61, 0x62, 0x6c, 0x65, 0x4f, 0x70, 0x2f, 0x72, 0x65, 0x73, 0x6f,
  0x75, 0x72, 0x63, 0x65, 0x00, 0x00, 0x00, 0x00, 0x04, 0x00, 0x00, 0x00,
  0x01, 0x00, 0x00, 0x00, 0x01, 0x00, 0x00, 0x00, 0x20, 0x00, 0x00, 0x00,
  0x10, 0x00, 0x00, 0x00, 0x18, 0xb7, 0xff, 0xff, 0x06, 0xb8, 0xff, 0xff,
  0x04, 0x00, 0x00, 0x00, 0x00, 0x14, 0x00, 0x00, 0x5b, 0x62, 0x4e, 0xc0,
  0x8e, 0xb6, 0xb4, 0xc0, 0x34, 0xd4, 0x6e, 0x3f, 0xa0, 0xc3, 0x64, 0x3f,
  0xf9, 0xe2, 0xb7, 0xbf, 0xe6, 0x14, 0xe9, 0xbe, 0x37, 0x48, 0x78, 0x3e,
  0x67, 0x4b, 0xb2, 0xbf, 0x80, 0x69, 0x26, 0x40, 0x27, 0x19, 0x10, 0x40,
  0xe9, 0xac, 0x4d, 0x3f, 0xf6, 0x69, 0xd4, 0x3d, 0x49, 0xa1, 0xb3, 0xbf,
  0xcb, 0xd6, 0x1e, 0xc0, 0xb4, 0x9b, 0xe6, 0xbf, 0x17, 0xb6, 0x8b, 0xc0,
  0x67, 0x0f, 0xcc, 0xbd, 0xab, 0xdc, 0x44, 0xc0, 0xfa, 0x8d, 0xa3, 0xbf,
  0x54, 0xcd, 0xe0, 0x3e, 0x9a, 0xce, 0x63, 0x3d, 0xf3, 0x61, 0x1d, 0xbf,
  0xef, 0x46, 0x77, 0xbe, 0xf8, 0xf3, 0xbe, 0x3f, 0xb0, 0xad, 0xee, 0x3e,
  0x2b, 0x5d, 0x3f, 0xc0, 0x45, 0xf4, 0x3c, 0xbf, 0xe5, 0x1e, 0x94, 0x3c,
  0x89, 0xec, 0xad, 0xbd, 0x45, 0xbc, 0x09, 0xbe, 0x4a, 0x24, 0x2f, 0x3e,
  0xb2, 0x06, 0xb9, 0x3b, 0x49, 0x26, 0xee, 0x3f, 0x71, 0x16, 0xf9, 0xbf,
  0xf8, 0x67, 0xb3, 0x3f, 0x2f, 0xbd, 0xd9, 0xbf, 0x4d, 0x7c, 0x35, 0xc0,
  0x5c, 0xef, 0xeb, 0x3f, 0xde, 0x53, 0xc0, 0xbe, 0xff, 0x29, 0x38, 0xbf,
  0x38, 0x59, 0x6b, 0x3f, 0xbb, 0x19, 0xab, 0x3f, 0xcd, 0xbb, 0x89, 0xbe,
  0x42, 0xda, 0xce, 0x3e, 0x91, 0x9d, 0xcf, 0x3f, 0x61, 0xed, 0x1b, 0xbf,
  0x3f, 0xa2, 0x13, 0xc0, 0x91, 0x6b, 0x0a, 0x3f, 0x68, 0x6f, 0xb2, 0x3f,
  0xd2, 0x79, 0x60, 0x3f, 0xfe, 0x0a, 0x2b, 0x40, 0x08, 0x91, 0x0d, 0x3f,
  0xd5, 0x76, 0xa8, 0xbf, 0xa3, 0x88, 0xd0, 0xbf, 0x81, 0xf6, 0xae, 0xbf,
  0x7d, 0xf3, 0xa4, 0xbf, 0x96, 0x42, 0xa8, 0x3f, 0x77, 0xa1, 0xe1, 0x3f,
  0xf1, 0x51, 0x39, 0xc0, 0xe5, 0xc6, 0xba, 0x3f, 0x84, 0xd1, 0x26, 0xc0,
  0xc6, 0xb3, 0xea, 0x3d, 0x82, 0x2a, 0xc1, 0xbe, 0x7c, 0x8b, 0x7e, 0xbf,
  0x85, 0x75, 0xa2, 0x3c, 0x85, 0xba, 0x17, 0x40, 0x5b, 0x42, 0xbd, 0xbf,
  0x6a, 0xcd, 0x77, 0xbe, 0x47, 0x4d, 0x27, 0x40, 0x55, 0x1b, 0x8f, 0x3f,
  0x1f, 0xfa, 0x8b, 0x3f, 0xfb, 0x67, 0x59, 0xbe, 0xc7, 0x52, 0x24, 0x3f,
  0x4d, 0x79, 0x8b, 0xbf, 0xe5, 0x28, 0xec, 0x3e, 0x8e, 0xa2, 0x21, 0xbf,
  0xc4, 0x0e, 0x72, 0x3f, 0x2a, 0x43, 0x86, 0xbf, 0x91, 0x18, 0x2e, 0x40,
  0x71, 0xf8, 0x02, 0xbf, 0x67, 0x01, 0x86, 0x3e, 0x85, 0x7d, 0x3c, 0xbf,
  0xc8, 0xb6, 0x17, 0x40, 0xee, 0x36, 0x93, 0xbf, 0x30, 0x5b, 0xac, 0x3f,
  0x58, 0x45, 0x8c, 0xbf, 0xb1, 0x0c, 0x9e, 0xc0, 0x22, 0xd3, 0xb3, 0x3f,
  0x2d, 0xb1, 0x18, 0x3d, 0x12, 0x4e, 0x1e, 0x3d, 0x0b, 0xb0, 0x8c, 0xbd,
  0x60, 0x0d, 0x8b, 0x3f, 0x6d, 0xc2, 0xf5, 0x3e, 0xfc, 0x91, 0xbd, 0xbe,
  0xa6, 0xab, 0x22, 0xc0, 0x28, 0xaf, 0x61, 0xbf, 0x1b, 0xc6, 0x81, 0x3f,
  0xcf, 0x3f, 0x30, 0x3f, 0x61, 0x6f, 0xb9, 0x3f, 0x90, 0x35, 0x8f, 0xbf,
  0x4f, 0x02, 0x8c, 0x40, 0x1e, 0xb1, 0x56, 0xbf, 0x49, 0x89, 0xc4, 0x3f,
  0x2b, 0x27, 0xa3, 0x3f, 0x69, 0x1c, 0xc5, 0x3e, 0xf3, 0x9f, 0x01, 0x3f,
  0xd8, 0xa8, 0x14, 0xc0, 0xb1, 0xeb, 0x8c, 0x3f, 0x58, 0x78, 0x98, 0xbe,
  0x9a, 0xce, 0xa9, 0xbf, 0x27, 0xec, 0xdc, 0x3e, 0xf6, 0x71, 0x49, 0xbf,
  0xbb, 0xe4, 0x68, 0x3f, 0x2b, 0xe2, 0x91, 0x3f, 0xe8, 0xa3, 0x96, 0xbf,
  0x46, 0x86, 0xdf, 0xbe, 0x64, 0x53, 0x1e, 0xc0, 0xad, 0x38, 0x85, 0xbd,
  0xf2, 0x47, 0x34, 0x40, 0x20, 0x2e, 0x86, 0xbf, 0x71, 0xda, 0x3b, 0x40,
  0xad, 0x77, 0xab, 0x3f, 0xa0, 0x7d, 0x58, 0xbe, 0x7b, 0xaf, 0x13, 0xc0,
  0x2a, 0x73, 0x26, 0xbf, 0x2d, 0x14, 0xc9, 0xbd, 0x55, 0xd6, 0xbb, 0x3f,
  0x27, 0xa4, 0x2a, 0xbf, 0x9b, 0x99, 0x00, 0xc0, 0x28, 0x37, 0x21, 0x3f,
  0x52, 0x66, 0x0d, 0xbd, 0x82, 0x22, 0xb8, 0xbe, 0x34, 0x88, 0xe8, 0xbf,
  0x52, 0x2c, 0x3e, 0xbf, 0x98, 0xb2, 0x9f, 0xbf, 0xf9, 0x75, 0xc0, 0xbe,
  0x1b, 0x58, 0xaa, 0x3e, 0xad, 0x37, 0x8c, 0xbe, 0x33, 0x53, 0xf2, 0x3f,
  0x38, 0xa5, 0xbf, 0x3e, 0x5b, 0xb8, 0xb4, 0xbf, 0xd7, 0x90, 0x06, 0xc0,
  0x9f, 0x23, 0xd6, 0x3e, 0xca, 0x71, 0x06, 0xc0, 0x76, 0xe2, 0xc9, 0xbe,
  0x7b, 0xad, 0xbc, 0xbf, 0x84, 0x0b, 0x35, 0x3e, 0x9d, 0x20, 0xc3, 0xbf,
  0xf9, 0x79, 0x51, 0x3f, 0xd8, 0x25, 0xee, 0x3f, 0x00, 0x24, 0xc7, 0xc0,
  0x68, 0x3a, 0xaf, 0xbf, 0x05, 0xf6, 0xef, 0xbf, 0x3b, 0xd4, 0x1a, 0xc0,
  0x35, 0x67, 0x6f, 0xbf, 0xf1, 0xd1, 0x7a, 0xbe, 0x5b, 0x28, 0xc3, 0x3e,
  0xdd, 0xdf, 0x0c, 0x40, 0xc7, 0x92, 0x6d, 0xc0, 0x35, 0x83, 0xbc, 0x3d,
  0x29, 0xcb, 0x47, 0x40, 0xe6, 0x34, 0x4b, 0x3e, 0xbc, 0x33, 0xf9, 0xbe,
  0xfb, 0x7f, 0x17, 0xc0, 0x58, 0x1d, 0xd5, 0xbe, 0x85, 0x45, 0x00, 0x40,
  0xb4, 0xe5, 0xf0, 0x3f, 0x0b, 0x46, 0x9d, 0xbd, 0x24, 0x29, 0x94, 0xbf,
  0xba, 0xee, 0x8b, 0xc0, 0x12, 0x10, 0x0e, 0xc0, 0xcd, 0xa6, 0x11, 0x3f,
  0x5f, 0x26, 0x5a, 0xc0, 0x81, 0x6e, 0x80, 0xbf, 0xb3, 0x5c, 0x0d, 0xc0,
  0xfb, 0x8b, 0xb8, 0x3f, 0xe8, 0x7d, 0x85, 0x38, 0x81, 0x79, 0xab, 0xbe,
  0xbc, 0x92, 0x3a, 0xbf, 0x80, 0xca, 0xe7, 0x3f, 0xae, 0xc3, 0xaa, 0x3d,
  0xcc, 0x8e, 0x0b, 0xbf, 0xb3, 0x82, 0x68, 0x3f, 0x9d, 0x2b, 0x3d, 0x3f,
  0xf4, 0xe7, 0x93, 0x3e, 0x03, 0xac, 0x6d, 0x3d, 0xb2, 0x39, 0xd6, 0xbe,
  0x26, 0xd1, 0x3a, 0x3e, 0x65, 0xf1, 0x92, 0x3f, 0xeb, 0xe9, 0x53, 0x3f,
  0x6e, 0xa6, 0xeb, 0xbe, 0xf3, 0x02, 0x9e, 0x3f, 0x1f, 0xf9, 0x9a, 0xbf,
  0x27, 0x24, 0x5f, 0x3e, 0x0e, 0x35, 0x2e, 0x40, 0x5e, 0xb0, 0x87, 0xbe,
  0x89, 0xa5, 0x31, 0xc0, 0xe0, 0xd7, 0x15, 0xbf, 0x43, 0x2b, 0x0e, 0xbe,
  0x17, 0xee, 0x8e, 0x3f, 0xc1, 0x45, 0x19, 0x40, 0xdc, 0xb0, 0x69, 0x3e,
  0xa0, 0x54, 0x75, 0x3f, 0x99, 0x49, 0x48, 0xbf, 0x1b, 0x20, 0xe2, 0x3f,
  0x8b, 0xb3, 0x56, 0xbf, 0xba, 0x0a, 0xa2, 0x3e, 0x0c, 0xa2, 0x0d, 0x3f,
  0xc0, 0x6e, 0x41, 0x3f, 0xf6, 0x8e, 0xc0, 0xbf, 0xd9, 0x7c, 0x9c, 0x3f,
  0x49, 0x44, 0xa1, 0x3f, 0x2d, 0x78, 0x4a, 0xc0, 0x75, 0x03, 0x1a, 0x3e,
  0x2a, 0x83, 0x1f, 0xbe, 0xeb, 0x60, 0xfc, 0x3f, 0xcd, 0xf6, 0x97, 0xbd,
  0x7c, 0xcb, 0x81, 0xbe, 0xf3, 0x78, 0xa6, 0xbf, 0xff, 0xfe, 0x76, 0x3f,
  0x24, 0x3c, 0xa6, 0xbf, 0x06, 0x2c, 0xf0, 0xbf, 0xa4, 0x2c, 0xbb, 0xbf,
  0xea, 0x2e, 0x2e, 0xc0, 0x0c, 0x35, 0xa7, 0x3e, 0xb2, 0x55, 0xaa, 0x3c,
  0xac, 0xb8, 0x02, 0xbf, 0xd6, 0xc9, 0xd1, 0xc0, 0x67, 0x3c, 0xb4, 0xbe,
  0xa2, 0xe0, 0xb5, 0x3f, 0x3a, 0x41, 0x58, 0xbf, 0x41, 0x8c, 0x20, 0x40,
  0x59, 0xea, 0x0b, 0xc0, 0x32, 0x39, 0x1c, 0x3f, 0x41, 0x30, 0xf6, 0xbf,
  0x8c, 0x51, 0xa4, 0x3f, 0x56, 0x75, 0xf6, 0xbf, 0xe7, 0x6e, 0x9f, 0xbf,
  0xeb, 0x52, 0x14, 0x40, 0xd0, 0xa7, 0x37, 0xc0, 0xf4, 0x91, 0xf1, 0xbf,
  0xa7, 0xdd, 0x6f, 0x3f, 0x68, 0x43, 0x05, 0xbf, 0x5c, 0xc4, 0xbf, 0x3e,
  0xd5, 0x60, 0x21, 0xc0, 0x2d, 0x70, 0xd6, 0x3f, 0x5e, 0xc7, 0x93, 0xc0,
  0x22, 0x04, 0xe7, 0x3d, 0x43, 0x65, 0x68, 0x3b, 0xcc, 0x5a, 0x8d, 0x3f,
  0x4e, 0xac, 0xfa, 0xbe, 0x35, 0xef, 0x4b, 0xc0, 0xc8, 0x62, 0x95, 0xc0,
  0xa8, 0xd7, 0x01, 0x3f, 0xc9, 0x3c, 0x18, 0xc0, 0x42, 0x53, 0x97, 0xbf,
  0x13, 0xce, 0x9a, 0xbf, 0x05, 0xf8, 0x8a, 0x3e, 0x3e, 0x58, 0x01, 0xbe,
  0x41, 0x3c, 0x9b, 0xbe, 0xe8, 0x12, 0x6d, 0xbf, 0x15, 0x80, 0x1c, 0x3e,
  0xe1, 0xd8, 0xae, 0x3d, 0xc0, 0x5b, 0xb8, 0x3f, 0x38, 0x4d, 0x86, 0x3f,
  0x00, 0xdc, 0x84, 0x3e, 0x60, 0x98, 0xd4, 0x3e, 0xe8, 0xd6, 0x1b, 0xbf,
  0x44, 0xdf, 0x64, 0x3f, 0xcf, 0xde, 0x77, 0x3d, 0x19, 0xdc, 0x23, 0xbf,
  0xfb, 0xdf, 0x8f, 0xbe, 0x9b, 0x61, 0x19, 0xc0, 0x0e, 0xeb, 0x68, 0x3f,
  0x27, 0xb0, 0x2a, 0xbf, 0x4b, 0xa8, 0x78, 0x3f, 0xbc, 0x0f, 0x3f, 0xbf,
  0x5c, 0x3e, 0xf1, 0xbf, 0x66, 0xc6, 0xf7, 0x3a, 0xc0, 0x4b, 0xc8, 0xbf,
  0x93, 0xc6, 0x81, 0x3e, 0xde, 0xdd, 0x95, 0x3f, 0x7c, 0xd2, 0x05, 0x40,
  0xd0, 0xec, 0xcc, 0x3f, 0xfa, 0x40, 0x37, 0x40, 0xc8, 0x2e, 0x8e, 0xc0,
  0x2d, 0x7f, 0x00, 0xbf, 0x38, 0x00, 0xb4, 0xbe, 0x99, 0x18, 0xe4, 0xbf,
  0xdc, 0x65, 0x42, 0xc0, 0x8d, 0xc0, 0x07, 0xbf, 0xda, 0xe9, 0xbb, 0x3f,
  0xd9, 0xde, 0x68, 0x3f, 0x37, 0xa4, 0x27, 0xbe, 0xa4, 0xaf, 0x01, 0xc0,
  0xb0, 0xff, 0x01, 0xc0, 0x12, 0x2d, 0x05, 0xc0, 0x6b, 0x60, 0x86, 0x3c,
  0xbc, 0xd4, 0x27, 0xbf, 0xcc, 0x7d, 0x15, 0xbf, 0xea, 0x98, 0x74, 0xbe,
  0x81, 0x1c, 0x61, 0xbf, 0xec, 0x48, 0x28, 0x3f, 0x1d, 0x22, 0x1a, 0x3f,
  0x5d, 0x26, 0xab, 0x3f, 0x2f, 0x1c, 0x64, 0xbf, 0x91, 0x70, 0xbb, 0x3f,
  0x29, 0xf1, 0x78, 0xbf, 0xd7, 0x76, 0x2d, 0xbf, 0x0b, 0x8f, 0x28, 0x40,
  0x73, 0xaa, 0xfe, 0x3f, 0xbf, 0xad, 0x27, 0xbe, 0x33, 0x2b, 0xe1, 0x3e,
  0x80, 0x99, 0x50, 0xbe, 0xfc, 0xef, 0xc2, 0x3f, 0xc9, 0xb6, 0x3a, 0xc0,
  0x37, 0x7f, 0x2a, 0xc0, 0x05, 0xb1, 0x1c, 0x3f, 0x90, 0x1a, 0x0c, 0xc0,
  0x4b, 0x43, 0xc7, 0x3c, 0x47, 0x78, 0xaf, 0xbf, 0x1a, 0xf4, 0xa1, 0x3f,
  0x27, 0xc5, 0x47, 0x40, 0x10, 0xc7, 0x6c, 0xbd, 0x80, 0x3f, 0x08, 0xbf,
  0xa3, 0x9f, 0x06, 0xbe, 0xdb, 0xd5, 0xda, 0x3e, 0x13, 0xb2, 0x8b, 0x3d,
  0x84, 0x0e, 0xac, 0xbe, 0x07, 0xe5, 0xaf, 0x3f, 0xa6, 0xad, 0xb5, 0xbf,
  0x82, 0xe3, 0x01, 0x40, 0x87, 0x3d, 0x41, 0xbf, 0xec, 0xe5, 0xf9, 0x3c,
  0x62, 0x5b, 0xf0, 0x3e, 0x77, 0xe4, 0x03, 0x3e, 0x2b, 0x53, 0x1f, 0xbe,
  0x96, 0x9b, 0xab, 0x3e, 0x9a, 0xcb, 0xf8, 0x3f, 0xfe, 0x1f, 0xf1, 0xbf,
  0xdc, 0x28, 0xa6, 0x3d, 0x5f, 0xb8, 0x82, 0x3f, 0x0f, 0x73, 0x95, 0xbf,
  0xec, 0x22, 0x2f, 0xbf, 0x99, 0x11, 0x2d, 0x3f, 0xe8, 0x33, 0x00, 0x40,
  0xbf, 0xea, 0x05, 0x40, 0xbd, 0x4b, 0x09, 0x40, 0x17, 0x11, 0x40, 0x3f,
  0x89, 0x83, 0xad, 0xbf, 0xcc, 0x9f, 0x17, 0x40, 0x00, 0xf0, 0x2e, 0xc0,
  0x95, 0xc6, 0x31, 0xbd, 0x3d, 0x79, 0xae, 0x3f, 0x90, 0x77, 0x1a, 0x3f,
  0x94, 0x5a, 0x8c, 0xbe, 0x43, 0x0c, 0x83, 0xbe, 0x6c, 0x12, 0x70, 0xc0,
  0x29, 0x0c, 0x81, 0xbf, 0xd9, 0xdb, 0x98, 0x3f, 0x38, 0x34, 0xb1, 0x3f,
  0xcc, 0x8b, 0xac, 0x3f, 0xae, 0xb3, 0x2d, 0xc0, 0x69, 0x62, 0xaa, 0x3f,
  0x0d, 0xa9, 0x61, 0xc0, 0x28, 0x11, 0x4a, 0x3c, 0xbb, 0x68, 0x9d, 0x3e,
  0xf7, 0xcc, 0xce, 0xbf, 0xf9, 0x18, 0x7d, 0x3f, 0xc8, 0x89, 0x5e, 0xbf,
  0x68, 0xcd, 0x95, 0xbf, 0x2d, 0x66, 0xc2, 0xbf, 0x66, 0xa7, 0x2b, 0x3f,
  0xda, 0xad, 0x13, 0xc0, 0x2f, 0x1d, 0x27, 0x3f, 0x4a, 0xb5, 0xb7, 0xbe,
  0x41, 0x9a, 0x8a, 0x3b, 0x88, 0xf7, 0xae, 0xbe, 0xa1, 0x36, 0x6a, 0xbf,
  0x18, 0xe2, 0x85, 0xbf, 0xb1, 0x62, 0x82, 0xbf, 0xdb, 0x0a, 0x23, 0x40,
  0x07, 0xe6, 0x09, 0xbf, 0xba, 0xbc, 0x47, 0x3f, 0x74, 0x5b, 0x9e, 0x3e,
  0x51, 0x46, 0x85, 0x3f, 0x8f, 0x79, 0x8d, 0x3f, 0x35, 0x7e, 0xfb, 0x3f,
  0x28, 0x8c, 0x09, 0xbd, 0xb1, 0xa3, 0x2e, 0x40, 0xe1, 0x44, 0xe5, 0x3e,
  0x30, 0xae, 0x2a, 0x3f, 0x59, 0x7d, 0xea, 0xbf, 0xe9, 0x13, 0x6b, 0xc0,
  0xb2, 0x3d, 0x96, 0x3f, 0xdd, 0x5d, 0xeb, 0x3f, 0x6a, 0xd5, 0x8c, 0x3f,
  0xc8, 0x9d, 0x21, 0x3e, 0x33, 0x59, 0xa8, 0xbf, 0xdb, 0x66, 0xfa, 0x3f,
  0x94, 0x6d, 0x20, 0x3f, 0xb4, 0x29, 0x9e, 0xbf, 0x88, 0x18, 0xaf, 0x3f,
  0xb4, 0xa0, 0x8b, 0x3b, 0x82, 0x46, 0x04, 0xbf, 0xf1, 0x13, 0x9b, 0xbb,
  0x34, 0xcd, 0x3f, 0x3f, 0x19, 0xf5, 0x8e, 0xbf, 0xc5, 0x40, 0xcf, 0xbe,
  0xc6, 0x39, 0x28, 0xbe, 0xae, 0xb4, 0x4c, 0xbf, 0xd3, 0x14, 0x98, 0x3f,
  0x1f, 0xf1, 0xa4, 0xbf, 0xb0, 0xb3, 0x1f, 0xbe, 0x2b, 0x9b, 0x9c, 0xbf,
  0x6d, 0x0c, 0xe0, 0xbf, 0xff, 0x86, 0x2b, 0x3f, 0x4b, 0x1f, 0xb0, 0xc0,
  0xa5, 0xa4, 0x83, 0xbd, 0x73, 0xa6, 0x98, 0x3f, 0x34, 0x3f, 0x5f, 0x3f,
  0x6f, 0x10, 0x39, 0x40, 0x3f, 0x37, 0xc7, 0xbe, 0xf0, 0x93, 0x3e, 0x40,
  0x48, 0x9c, 0xa6, 0xbe, 0x7e, 0x94, 0x75, 0xc0, 0x68, 0x8b, 0x63, 0x3f,
  0xbe, 0xc1, 0x3b, 0x40, 0xd6, 0x47, 0x92, 0xbf, 0x67, 0x38, 0x0a, 0x40,
  0x43, 0x81, 0x04, 0x3f, 0x64, 0x39, 0xd3, 0x3f, 0xf7, 0xcf, 0x78, 0x3f,
  0x8c, 0x92, 0xec, 0x3d, 0x29, 0xeb, 0xd6, 0x3f, 0x38, 0x89, 0xc3, 0x3f,
  0x89, 0x07, 0x1b, 0xbf, 0xfc, 0xbe, 0x87, 0xbf, 0xfa, 0x02, 0x9c, 0x3f,
  0x46, 0xd8, 0x14, 0x3f, 0x6b, 0xbd, 0xf8, 0x3d, 0x71, 0x80, 0x1e, 0x3f,
  0x28, 0x96, 0x0a, 0xbf, 0xfc, 0x4b, 0x2e, 0x40, 0xf6, 0xef, 0x90, 0xbe,
  0x16, 0x0f, 0x99, 0x3f, 0xa3, 0xa4, 0xfa, 0xbf, 0x9e, 0xff, 0xbe, 0xbf,
  0x86, 0xc6, 0xcc, 0x3f, 0x7d, 0x1d, 0x42, 0x3f, 0xf9, 0x4b, 0x1c, 0xbf,
  0x10, 0xe8, 0xc1, 0x3f, 0x2b, 0x10, 0x19, 0xc0, 0xd7, 0xae, 0x84, 0xbf,
  0xfc, 0x39, 0x4d, 0x3f, 0x27, 0x0f, 0x40, 0xbe, 0x7f, 0x8f, 0xb2, 0xbf,
  0x02, 0x93, 0x40, 0xbf, 0xcc, 0x0c, 0xb6, 0xbf, 0x32, 0xd3, 0x40, 0xbf,
  0x0b, 0x1f, 0xc2, 0x3f, 0x34, 0x6e, 0xa7, 0x3e, 0x38, 0xd6, 0x05, 0x3f,
  0xd5, 0x8e, 0x02, 0xc0, 0xa0, 0x3f, 0x0e, 0xc0, 0xbd, 0xaf, 0x4f, 0xbf,
  0x47, 0x0e, 0x2f, 0x3f, 0x40, 0xfe, 0xb7, 0x3f, 0x23, 0x6f, 0x71, 0x40,
  0xa9, 0x18, 0x9b, 0x3f, 0x8f, 0xb4, 0x7d, 0xbf, 0x43, 0x92, 0x5d, 0x3f,
  0x6c, 0x46, 0x6f, 0xbf, 0xf1, 0xf3, 0x83, 0x3f, 0xf4, 0x59, 0xb9, 0xbf,
  0x35, 0xe1, 0x14, 0x3f, 0x3f, 0x4c, 0xc7, 0x3d, 0x46, 0x8d, 0x98, 0xbf,
  0xd0, 0x5a, 0x5c, 0x3f, 0x02, 0xaf, 0xeb, 0x3e, 0xee, 0x75, 0x82, 0x3f,
  0x07, 0xb8, 0x27, 0x3f, 0x82, 0xa9, 0xc3, 0x3f, 0xd1, 0x99, 0x26, 0xbf,
  0x94, 0x7b, 0xef, 0x3f, 0xb1, 0x74, 0xf7, 0x3e, 0xbb, 0x59, 0x7a, 0xbe,
  0xe6, 0x31, 0x45, 0xbf, 0x23, 0xb6, 0x46, 0x40, 0xd0, 0x1d, 0x96, 0x3f,
  0xde, 0x60, 0xe6, 0xbe, 0x45, 0x51, 0x3b, 0xc0, 0xdd, 0x02, 0xae, 0x3e,
  0x68, 0xf4, 0xe7, 0xbf, 0x37, 0xb2, 0xd1, 0x3f, 0x8b, 0x32, 0xa5, 0xbe,
  0xa4, 0x55, 0x29, 0xbe, 0xe2, 0xc4, 0x6c, 0x3e, 0x27, 0x75, 0xed, 0x3e,
  0x2c, 0x58, 0x03, 0x3e, 0x7f, 0xf5, 0x03, 0x3f, 0xdc, 0x6d, 0xd9, 0x3f,
  0x73, 0x9c, 0xcd, 0xbf, 0x1b, 0x2e, 0x58, 0xbe, 0xec, 0xbf, 0x64, 0x3f,
  0xe5, 0x36, 0xc5, 0x3f, 0xeb, 0xaa, 0xc5, 0xbf, 0xf4, 0x1f, 0xf4, 0xbf,
  0xe3, 0xc8, 0x4a, 0x40, 0xcd, 0x15, 0x8a, 0xbe, 0x12, 0x17, 0x87, 0x3e,
  0x3d, 0xa9, 0xa0, 0xbf, 0x25, 0xfd, 0xc5, 0x3f, 0x68, 0xa4, 0xad, 0x3f,
  0xc1, 0x5d, 0xb2, 0x3e, 0x22, 0x61, 0xbc, 0xbf, 0xf9, 0x4c, 0x03, 0xc0,
  0xee, 0x8c, 0xc1, 0xbe, 0x63, 0xba, 0x03, 0x3f, 0xb5, 0xbe, 0x5d, 0xbf,
  0x64, 0x98, 0xe3, 0x3f, 0x03, 0xe8, 0x13, 0x3e, 0x06, 0x01, 0xf6, 0xbe,
  0x57, 0x35, 0x0e, 0xbf, 0x56, 0x6c, 0x31, 0xbe, 0xfd, 0x41, 0xab, 0xbd,
  0x25, 0x81, 0xeb, 0x3e, 0x79, 0x8d, 0xb2, 0x3e, 0x6e, 0x77, 0x92, 0x3f,
  0x4c, 0x8e, 0xd7, 0xbf, 0xb5, 0xf7, 0xba, 0xbb, 0x53, 0x74, 0x08, 0x3e,
  0x4f, 0x9e, 0x03, 0x3f, 0x9f, 0x86, 0x06, 0x3f, 0xa6, 0x89, 0x6a, 0xbe,
  0x7c, 0x76, 0x95, 0x3f, 0xcc, 0x3d, 0x17, 0x3f, 0x9a, 0xb8, 0x41, 0xbf,
  0x36, 0x92, 0x08, 0xbf, 0x0a, 0xdf, 0x0d, 0xbe, 0xb7, 0x9d, 0xb1, 0x3f,
  0xf2, 0xbd, 0xa2, 0x3f, 0xaf, 0xe3, 0xc5, 0x3d, 0xe4, 0x80, 0x02, 0xbf,
  0x48, 0xdd, 0xad, 0xc0, 0x96, 0xba, 0x09, 0xbf, 0x83, 0x18, 0x86, 0xc0,
  0xfb, 0x6b, 0xeb, 0x3f, 0xf6, 0x68, 0xb6, 0x3f, 0x7f, 0x5b, 0xa2, 0xc0,
  0xfe, 0x9e, 0x03, 0xc0, 0xc2, 0x79, 0xbc, 0x3f, 0x24, 0x01, 0xaf, 0xbe,
  0xf7, 0x50, 0xb3, 0x3f, 0xb4, 0x51, 0xbf, 0x3d, 0x42, 0xc2, 0x08, 0xc0,
  0x3b, 0xde, 0x12, 0xc0, 0xa5, 0xab, 0xb6, 0x3f, 0xd1, 0x94, 0x57, 0x3f,
  0xeb, 0x05, 0x8c, 0xc0, 0xbc, 0xce, 0x66, 0x3d, 0xc8, 0x03, 0x14, 0x40,
  0x87, 0x22, 0x76, 0xbf, 0x8b, 0x39, 0xab, 0xc0, 0x9d, 0x9a, 0x44, 0xbf,
  0xf6, 0x69, 0x3b, 0x40, 0x90, 0xa2, 0xe3, 0x3e, 0xd4, 0xac, 0xbf, 0x3e,
  0x3d, 0x39, 0x89, 0x3f, 0xe6, 0x81, 0x1b, 0x40, 0xf2, 0x69, 0xbf, 0x3e,
  0x70, 0xf2, 0x74, 0xbf, 0x56, 0xf9, 0xa3, 0x3e, 0xc3, 0xb2, 0xc3, 0x3e,
  0xf1, 0xd8, 0xa3, 0xbf, 0x27, 0xd9, 0xe0, 0x3f, 0x11, 0x84, 0x8a, 0x3f,
  0x71, 0xb2, 0xbc, 0xbf, 0xdb, 0xbb, 0x82, 0x3e, 0xc1, 0x9d, 0xaf, 0x3e,
  0xfa, 0x53, 0x97, 0x3f, 0x9c, 0xba, 0xd9, 0xbf, 0x68, 0x60, 0x98, 0x3e,
  0x16, 0x83, 0x55, 0x3f, 0xe1, 0x8a, 0x5e, 0x3e, 0xee, 0x7d, 0x5c, 0xc0,
  0x0d, 0xab, 0x11, 0xbf, 0xfa, 0x0d, 0x04, 0x3e, 0x2d, 0x3b, 0xd0, 0x3f,
  0x91, 0x05, 0x3a, 0x3e, 0xcf, 0x43, 0x69, 0xbf, 0x24, 0x4c, 0xb6, 0x3f,
  0x5c, 0x3f, 0x52, 0xbf, 0x1a, 0x9d, 0x74, 0x3e, 0xd8, 0xc6, 0x34, 0xc0,
  0x5d, 0xe3, 0xc5, 0x3f, 0x36, 0xb6, 0x1e, 0xc0, 0x28, 0xc5, 0xc1, 0x3e,
  0x7b, 0x9b, 0xb3, 0x3f, 0x7a, 0x54, 0x38, 0xc0, 0x59, 0x63, 0xa2, 0xbf,
  0x8e, 0x74, 0x13, 0xc0, 0x37, 0x07, 0xcc, 0xbf, 0xc1, 0xbd, 0x83, 0x3e,
  0x34, 0xc7, 0x24, 0xbf, 0xd2, 0x64, 0xc1, 0xbd, 0xcb, 0xd3, 0x18, 0x3f,
  0xca, 0xa8, 0x42, 0x3f, 0x87, 0x05, 0xe0, 0x3f, 0x55, 0x9e, 0x29, 0xc0,
  0x68, 0x60, 0x61, 0x3d, 0x89, 0xcd, 0xa3, 0xc0, 0x61, 0x66, 0x8e, 0x3d,
  0xda, 0xf5, 0x43, 0x3f, 0x87, 0x94, 0xa2, 0xbe, 0xa7, 0x6c, 0x8a, 0xbe,
  0x1d, 0xfc, 0x9d, 0x3f, 0x24, 0x94, 0x10, 0x40, 0x68, 0x06, 0x61, 0x3f,
  0xff, 0xbe, 0xae, 0x3d, 0x43, 0xa3, 0x59, 0x3f, 0x11, 0xee, 0x11, 0xc0,
  0x2f, 0xc9, 0x57, 0x3f, 0x15, 0x33, 0xac, 0xbf, 0xad, 0xd2, 0x8a, 0xbf,
  0xd8, 0x6d, 0x87, 0x40, 0xca, 0xfb, 0x8b, 0xbf, 0x68, 0x14, 0xbb, 0x3c,
  0x44, 0x36, 0xb6, 0x3e, 0x46, 0x16, 0x4d, 0x3f, 0xf6, 0xdb, 0xf8, 0xbf,
  0xff, 0x9a, 0x26, 0xbf, 0xbe, 0xd1, 0x4b, 0x3f, 0x4e, 0x68, 0xe1, 0x3f,
  0x61, 0xa5, 0x9b, 0x3f, 0x07, 0xe0, 0x88, 0x3f, 0x37, 0xdb, 0x1a, 0xc0,
  0x81, 0xdf, 0x64, 0x3f, 0x1a, 0x0c, 0xaf, 0xbf, 0x42, 0x0d, 0x5f, 0x3f,
  0x3b, 0x22, 0xe3, 0xc0, 0x90, 0xf2, 0x9d, 0xbe, 0xff, 0x98, 0xd0, 0xbf,
  0x0d, 0x27, 0x50, 0xbf, 0xc0, 0x04, 0xff, 0xbf, 0x46, 0xcf, 0x1b, 0x3f,
  0x28, 0x8e, 0xd8, 0x3f, 0xa9, 0x38, 0xd1, 0x3e, 0x46, 0xa0, 0x91, 0xc0,
  0x9c, 0xe8, 0xd1, 0xbf, 0xf6, 0x50, 0x87, 0x3e, 0x0d, 0x8d, 0x20, 0xc0,
  0xd5, 0x28, 0x00, 0xbf, 0xb8, 0x89, 0xc2, 0xbd, 0x65, 0xf9, 0xfc, 0x3d,
  0xd1, 0x45, 0xe3, 0xbd, 0xd7, 0xb3, 0x23, 0x3f, 0x79, 0xd9, 0xbe, 0x3d,
  0x35, 0x68, 0x73, 0xbf, 0x27, 0xa8, 0xd2, 0xbf, 0xe5, 0x67, 0xf9, 0xbf,
  0x3c, 0xb0, 0xde, 0x3f, 0xb8, 0x8d, 0x02, 0xbf, 0x04, 0x96, 0x7a, 0x3e,
  0xda, 0x5c, 0x39, 0xbe, 0xdd, 0x1d, 0x6d, 0xbf, 0x95, 0xbe, 0xbb, 0xbf,
  0xb0, 0x69, 0xb0, 0xc0, 0xfe, 0x4c, 0x42, 0xbe, 0x6c, 0xd7, 0x93, 0xbe,
  0x93, 0x86, 0x9c, 0x3f, 0xb6, 0x50, 0xcf, 0xbf, 0x62, 0x9b, 0x84, 0x3f,
  0x81, 0xa7, 0xdd, 0xbe, 0xca, 0x2d, 0x9b, 0x3e, 0x15, 0x4b, 0xac, 0xbf,
  0x9a, 0xf6, 0x2d, 0xc0, 0x05, 0x52, 0x21, 0xbf, 0xd5, 0xa9, 0x45, 0xbd,
  0xa9, 0xb3, 0x29, 0x3d, 0x89, 0x8f, 0xd1, 0x3f, 0x57, 0xba, 0xa4, 0xbf,
  0x9a, 0xfe, 0x3b, 0xc0, 0xbf, 0xc7, 0xdb, 0x3f, 0xfd, 0x2f, 0x10, 0x3f,
  0x5c, 0x90, 0x09, 0xc0, 0x3c, 0xf7, 0x2d, 0xc0, 0xc3, 0x3c, 0x49, 0xbf,
  0x18, 0xf8, 0x89, 0x3f, 0x2a, 0xcd, 0x63, 0xbd, 0x31, 0x26, 0x5f, 0xbe,
  0xf4, 0xe3, 0x82, 0x3f, 0x95, 0xbf, 0x03, 0x3e, 0x35, 0x0f, 0x84, 0x3e,
  0x29, 0x65, 0xa0, 0x3f, 0xb7, 0x0c, 0x9b, 0xbf, 0xa7, 0x39, 0xd0, 0x3e,
  0x76, 0xbf, 0x84, 0xbd, 0xc8, 0x6b, 0x14, 0x40, 0xdb, 0x5f, 0x5e, 0x3f,
  0x38, 0xef, 0x07, 0xbb, 0x09, 0x1b, 0xc6, 0xbf, 0x76, 0xcc, 0xd3, 0x3e,
  0x48, 0x89, 0x04, 0x40, 0x3d, 0x00, 0x83, 0xc0, 0x30, 0xd4, 0x30, 0xbf,
  0x5c, 0xaa, 0x3a, 0x3f, 0x81, 0x1b, 0x18, 0x3f, 0xc1, 0x9a, 0x3f, 0xc0,
  0xa8, 0xf8, 0x1c, 0xbe, 0x76, 0x98, 0x91, 0x3f, 0xc6, 0x55, 0x2c, 0x3e,
  0xfe, 0x3d, 0xad, 0xbf, 0x13, 0x60, 0x02, 0x3e, 0x73, 0x6c, 0xea, 0x3e,
  0xf4, 0x68, 0xc4, 0xbf, 0x4f, 0x37, 0xa6, 0xbd, 0x54, 0xdf, 0xf3, 0xbf,
  0x9f, 0xd9, 0x06, 0x40, 0xc2, 0xef, 0xf7, 0x3f, 0x8a, 0xff, 0x00, 0x3f,
  0xf4, 0xa1, 0x93, 0x3e, 0x0a, 0x90, 0x01, 0x3f, 0x2f, 0x8f, 0x2a, 0x40,
  0x1e, 0x65, 0x07, 0xc0, 0xc0, 0xfc, 0xf3, 0xbb, 0x62, 0x22, 0xd4, 0x3d,
  0x03, 0x22, 0x3b, 0x40, 0xdf, 0xd4, 0x0a, 0x3f, 0x98, 0x27, 0x1e, 0x3f,
  0x10, 0xf5, 0x11, 0xbf, 0xcd, 0x7c, 0xce, 0x3f, 0x1e, 0xfb, 0x81, 0x3f,
  0xaf, 0x35, 0x10, 0x40, 0x3b, 0x0a, 0x83, 0x3e, 0x2c, 0xd1, 0x27, 0x3e,
  0x12, 0x3f, 0x62, 0xbf, 0x6b, 0xa8, 0x0c, 0x3f, 0x6d, 0x3b, 0xbc, 0x3e,
  0xcb, 0xbc, 0xfc, 0xbf, 0x55, 0x55, 0x27, 0xc0, 0x86, 0x01, 0x00, 0x40,
  0xa7, 0xb6, 0xbd, 0xbf, 0x74, 0xc4, 0x75, 0xc0, 0x79, 0x06, 0x1d, 0x40,
  0x2b, 0x64, 0xf0, 0x3f, 0x83, 0x3b, 0x3c, 0x3f, 0x03, 0x87, 0x25, 0x3f,
  0x65, 0x34, 0x8e, 0xbf, 0xfc, 0xfd, 0x06, 0xc0, 0x99, 0x22, 0x69, 0x3f,
  0xdf, 0xfb, 0xe9, 0x3f, 0xe5, 0xda, 0x0c, 0xc0, 0x84, 0x5c, 0x81, 0x3f,
  0x7a, 0x5c, 0xe4, 0x3f, 0xbf, 0x27, 0xf9, 0xbf, 0x11, 0x71, 0x80, 0x3d,
  0x68, 0x88, 0x6e, 0x3f, 0xef, 0x66, 0x7f, 0xc0, 0x53, 0x28, 0x9d, 0xbe,
  0xcc, 0x24, 0x1f, 0xc0, 0x0a, 0xe6, 0xf1, 0xbd, 0x36, 0x08, 0xfa, 0xbf,
  0xbf, 0x52, 0xd3, 0xbf, 0x15, 0x9b, 0x99, 0x3f, 0x61, 0x42, 0x58, 0xbf,
  0x1c, 0x28, 0x41, 0xc0, 0x8a, 0xcb, 0x03, 0x40, 0xff, 0xef, 0x51, 0x3e,
  0x7d, 0x24, 0xe2, 0x3f, 0x03, 0xe5, 0x81, 0xbe, 0xec, 0x1f, 0x0f, 0x3f,
  0x03, 0xa5, 0xe1, 0x3f, 0x76, 0x2b, 0x53, 0x3f, 0x5b, 0x85, 0x7a, 0x3f,
  0x39, 0x84, 0xcc, 0x3e, 0x5a, 0x68, 0xba, 0x3c, 0xb8, 0xc9, 0x00, 0x40,
  0x6f, 0x94, 0xa8, 0xbf, 0x58, 0x57, 0x99, 0x3f, 0xe4, 0xfc, 0x21, 0x40,
  0x64, 0xf7, 0xec, 0x3f, 0xde, 0xb1, 0xb7, 0xbf, 0x4d, 0x1f, 0x1e, 0x3f,
  0xa4, 0x5b, 0x03, 0x3e, 0x9a, 0xb5, 0x40, 0xbf, 0x51, 0x25, 0x87, 0x3e,
  0xa3, 0x5a, 0x05, 0x3f, 0x23, 0xbe, 0x81, 0xbf, 0xa3, 0x36, 0xab, 0xbf,
  0x04, 0x2a, 0xc8, 0x3f, 0x42, 0x4a, 0x05, 0x3f, 0x80, 0x54, 0x04, 0xc0,
  0x32, 0xdf, 0xbe, 0xbf, 0xb3, 0xdb, 0x9c, 0xbf, 0xb0, 0xaa, 0x2c, 0xbf,
  0x8d, 0xd5, 0x22, 0xbf, 0x8c, 0x88, 0x88, 0xc0, 0xa7, 0x7a, 0x89, 0xbe,
  0xc0, 0x61, 0xb5, 0xbf, 0xda, 0x92, 0xf4, 0xbd, 0x1b, 0xb9, 0x98, 0xbe,
  0x9a, 0x14, 0x50, 0x3e, 0xfa, 0xfd, 0x94, 0x3f, 0xf0, 0xa2, 0x78, 0x3f,
  0x09, 0xeb, 0x21, 0x40, 0x6f, 0xac, 0x73, 0xbf, 0x38, 0x35, 0x8c, 0xbf,
  0xc9, 0x1a, 0xe9, 0x3e, 0xa3, 0x19, 0xbd, 0xbf, 0x81, 0x81, 0x9c, 0x3f,
  0x81, 0x0e, 0x39, 0xbf, 0xd1, 0x0b, 0x92, 0xbf, 0x9f, 0x99, 0x53, 0xc0,
  0x60, 0x5a, 0xb6, 0x3d, 0x87, 0xc1, 0xbe, 0xbf, 0xf2, 0x3a, 0x32, 0xbe,
  0x61, 0x41, 0x24, 0xbf, 0x2b, 0xd4, 0x3d, 0x40, 0x2d, 0x96, 0x86, 0xbd,
  0x9c, 0x50, 0xa9, 0x3f, 0x29, 0xc5, 0xe3, 0x3f, 0xa0, 0x4c, 0x84, 0xbf,
  0x9b, 0x61, 0x92, 0xc0, 0xa0, 0xb5, 0x88, 0xbf, 0x36, 0xe0, 0x1a, 0xc0,
  0x94, 0xd1, 0x62, 0x40, 0xaa, 0x4f, 0x67, 0x3f, 0x33, 0x9f, 0x34, 0xbf,
  0xfc, 0x47, 0x81, 0xbf, 0x4c, 0xb1, 0x3b, 0xc0, 0x6a, 0x90, 0x3e, 0x3f,
  0x66, 0x4c, 0x93, 0x3f, 0x70, 0x24, 0xa7, 0x3e, 0x48, 0x11, 0xac, 0x3e,
  0xb2, 0xcc, 0x2e, 0x40, 0x71, 0xf8, 0x0e, 0x40, 0xa7, 0xf3, 0x20, 0x40,
  0x2d, 0x31, 0x5f, 0x3f, 0xb1, 0xf5, 0x5f, 0x3f, 0x29, 0x65, 0x9a, 0xbf,
  0x4e, 0x59, 0xd0, 0x3f, 0xfd, 0xa8, 0x0b, 0xbf, 0x7e, 0xc2, 0xff, 0x3f,
  0xe9, 0xe4, 0x17, 0x3f, 0x8f, 0x4b, 0x44, 0xbf, 0xbd, 0xb9, 0x30, 0xbe,
  0x2c, 0x1b, 0x04, 0xc0, 0x40, 0x30, 0x37, 0xbf, 0x78, 0x11, 0x86, 0x3f,
  0xe0, 0xb6, 0xdc, 0xbe, 0x84, 0xa1, 0x99, 0xbe, 0x96, 0xb9, 0x86, 0x3e,
  0x9f, 0xc3, 0x33, 0x3f, 0x03, 0x38, 0x71, 0xbf, 0x19, 0xf8, 0x8b, 0xbe,
  0xca, 0x55, 0xe2, 0x3e, 0x72, 0x22, 0xd6, 0xbd, 0x77, 0x30, 0x50, 0xbf,
  0x5d, 0x27, 0x43, 0xbf, 0x85, 0x81, 0xa6, 0xbf, 0x5c, 0x5f, 0x9a, 0xbf,
  0x28, 0x17, 0xd5, 0xbf, 0xa6, 0xd8, 0x02, 0xbe, 0x8e, 0x1b, 0xe8, 0x3d,
  0xa8, 0xc4, 0x79, 0xbf, 0x43, 0xa9, 0x8d, 0x3f, 0xa6, 0xfc, 0xf0, 0x3e,
  0xd2, 0xae, 0xbf, 0x3e, 0xb2, 0xee, 0xf7, 0xbf, 0xb9, 0x82, 0x87, 0x3d,
  0x83, 0x5a, 0xaf, 0x3e, 0xaa, 0x67, 0x7e, 0xbf, 0x30, 0x29, 0x06, 0x3c,
  0x4b, 0x87, 0x39, 0x3f, 0xc3, 0xe7, 0x4c, 0x3e, 0x59, 0x5e, 0x34, 0x3f,
  0x83, 0x55, 0x79, 0x3f, 0x51, 0x4e, 0x1a, 0xbf, 0xd8, 0xc3, 0xa9, 0x3f,
  0x59, 0xa1, 0xe9, 0x3f, 0x91, 0x85, 0xc5, 0xbe, 0x78, 0x57, 0x5f, 0xbf,
  0xb9, 0x31, 0x7c, 0x3d, 0x1d, 0xa5, 0x69, 0x3d, 0x9c, 0xb3, 0xc4, 0xbe,
  0x68, 0x8c, 0xb6, 0xbe, 0xa9, 0x39, 0x82, 0xbf, 0x35, 0xc7, 0x33, 0xbf,
  0x5b, 0x69, 0x83, 0x3f, 0x22, 0x01, 0x29, 0xbe, 0x16, 0x72, 0x90, 0x3f,
  0x50, 0xf1, 0xd8, 0xbf, 0x47, 0xb6, 0xd3, 0x3f, 0xfb, 0x1a, 0xb2, 0xbe,
  0x38, 0x08, 0x1f, 0x3f, 0x0c, 0x46, 0x75, 0xbf, 0x4e, 0x3b, 0x9b, 0x3f,
  0xda, 0xb6, 0xf5, 0x3e, 0x89, 0xea, 0x43, 0xbf, 0x72, 0xa7, 0x03, 0x40,
  0xbf, 0xd2, 0x1f, 0xc0, 0x3b, 0x5e, 0x9f, 0xbf, 0x09, 0xa0, 0x18, 0x40,
  0x0f, 0xc5, 0xc7, 0xbf, 0x3f, 0xc0, 0x41, 0x3f, 0x0c, 0x7e, 0x8b, 0x40,
  0xd3, 0x16, 0xe1, 0x3f, 0x56, 0x77, 0x73, 0xbd, 0x4c, 0xc3, 0x9e, 0xc0,
  0x59, 0x7e, 0x4a, 0x40, 0xed, 0x27, 0xbf, 0x3f, 0x91, 0x16, 0xbc, 0x3b,
  0xee, 0x5d, 0x93, 0x3f, 0x37, 0x20, 0xd9, 0xbf, 0x0a, 0xf3, 0x78, 0xbf,
  0x4e, 0x3c, 0xf8, 0x3f, 0x38, 0x7e, 0xc4, 0x3f, 0xd7, 0x59, 0xc6, 0x3f,
  0x49, 0x5b, 0xc0, 0x3e, 0xed, 0xad, 0x83, 0x3f, 0x6a, 0x6b, 0x43, 0x3f,
  0xe9, 0x39, 0x30, 0xbf, 0xb6, 0x06, 0x7e, 0x3f, 0x52, 0x4a, 0x40, 0x3e,
  0x4d, 0x56, 0x22, 0x3c, 0x58, 0xca, 0xf6, 0x3f, 0x7d, 0x60, 0x87, 0x3e,
  0x8f, 0x8f, 0x1e, 0x3d, 0x31, 0x03, 0x30, 0xc0, 0x4a, 0x6e, 0x32, 0x3e,
  0x52, 0x01, 0x9d, 0x3e, 0xa6, 0x22, 0x3f, 0xbf, 0xe4, 0x81, 0x07, 0x3f,
  0x14, 0x68, 0xed, 0xbe, 0xfb, 0xa6, 0xbf, 0xbe, 0x15, 0xeb, 0x40, 0xbf,
  0x99, 0xef, 0x5b, 0xbd, 0x78, 0xef, 0x6b, 0xbf, 0x32, 0x9a, 0x26, 0xc0,
  0x91, 0xfe, 0xfe, 0x3f, 0x21, 0x09, 0xdd, 0x3f, 0xb1, 0xe1, 0xa1, 0x3f,
  0x67, 0xfd, 0x60, 0xc0, 0x8b, 0x78, 0xd8, 0xbf, 0x8a, 0x86, 0x42, 0xbf,
  0x74, 0x93, 0x5c, 0xbe, 0xfc, 0xf4, 0x2d, 0xbf, 0x42, 0xa6, 0x9b, 0x3f,
  0x1f, 0x38, 0x23, 0x3e, 0x9d, 0xa1, 0x99, 0xbe, 0x02, 0xda, 0xa7, 0xbd,
  0x6c, 0x1a, 0x64, 0xbe, 0x7a, 0x90, 0xc1, 0x3f, 0xdd, 0x72, 0x37, 0x3f,
  0xb8, 0x81, 0x8e, 0x3f, 0x2c, 0xfd, 0x21, 0xc0, 0x03, 0xdf, 0x01, 0x3e,
  0xb2, 0x7c, 0x12, 0xc0, 0xab, 0x4e, 0x5e, 0xbe, 0x80, 0xc1, 0xae, 0xbf,
  0x53, 0xe9, 0xff, 0xbd, 0x1a, 0xd9, 0x1b, 0xc0, 0x7e, 0xfd, 0x90, 0xbe,
  0x72, 0x50, 0x8d, 0x3f, 0x30, 0x42, 0x1a, 0x3f, 0xc2, 0xce, 0xe6, 0xbf,
  0xa0, 0xd9, 0x60, 0xbf, 0xb1, 0xe0, 0xee, 0x3f, 0x6b, 0x24, 0x87, 0x3f,
  0x8d, 0x36, 0x01, 0x40, 0x5c, 0x1e, 0xad, 0x3f, 0x4c, 0x20, 0xde, 0x3e,
  0xe0, 0x86, 0xa5, 0xbe, 0x9d, 0x88, 0x61, 0x3e, 0xb8, 0xcf, 0xc2, 0x3e,
  0x6d, 0x1c, 0x8d, 0xbf, 0xc5, 0x4b, 0xd6, 0x3f, 0xb4, 0xa3, 0x0f, 0xc0,
  0x72, 0x0a, 0xc2, 0x3f, 0xfe, 0xd4, 0x79, 0xbf, 0x02, 0x94, 0x2f, 0x40,
  0x23, 0x28, 0xf6, 0x3e, 0x97, 0xa8, 0x30, 0xc0, 0xcb, 0x78, 0xa0, 0xc0,
  0x56, 0x17, 0xdb, 0x3e, 0xa7, 0xcb, 0xea, 0xbf, 0xb1, 0xeb, 0x13, 0x3f,
  0xa8, 0xed, 0xdc, 0xbd, 0xd8, 0x73, 0xdd, 0xbf, 0x26, 0xb9, 0x30, 0x3f,
  0x0e, 0x6b, 0x61, 0x40, 0x27, 0xc8, 0x85, 0xbd, 0x38, 0x46, 0xd5, 0x3e,
  0x09, 0xc8, 0x31, 0x3f, 0x9f, 0x6d, 0x7e, 0xbf, 0xf7, 0x85, 0x42, 0xbe,
  0xe3, 0xdf, 0x9e, 0x3f, 0x95, 0x44, 0x1b, 0x3f, 0xdf, 0x17, 0x09, 0xc0,
  0xc0, 0x36, 0xa4, 0x3f, 0x73, 0x98, 0xe3, 0x3f, 0x5b, 0x76, 0x80, 0x3f,
  0x6c, 0x5c, 0x86, 0xbf, 0x08, 0xaa, 0x5d, 0x40, 0x62, 0xb9, 0x2b, 0xbe,
  0x3f, 0xff, 0x4f, 0x3f, 0xb6, 0xe2, 0xc6, 0x3e, 0xe9, 0x23, 0x2c, 0x3e,
  0xea, 0x1f, 0xf8, 0x3e, 0x76, 0x0d, 0x87, 0xbf, 0x73, 0xd6, 0x21, 0x3f,
  0x44, 0xcd, 0xbe, 0xbf, 0x9e, 0x43, 0x24, 0xc0, 0x16, 0x8b, 0xe5, 0xbf,
  0x69, 0x7c, 0xbd, 0x3d, 0x43, 0x13, 0x90, 0x3f, 0x53, 0xe7, 0x9a, 0x3f,
  0x70, 0xff, 0xab, 0xbf, 0x88, 0x55, 0xb6, 0xbf, 0xb0, 0x61, 0x1a, 0xbf,
  0xcc, 0x1f, 0x84, 0x3f, 0x35, 0x20, 0xa4, 0xbf, 0x09, 0xdd, 0x17, 0xc0,
  0x79, 0x0f, 0xb9, 0xbf, 0x87, 0x90, 0xac, 0xbe, 0xf6, 0xd0, 0x59, 0x3f,
  0x5b, 0x72, 0xf8, 0xbf, 0x40, 0x14, 0x89, 0xbf, 0x37, 0x0c, 0xba, 0x3f,
  0x50, 0x06, 0x9a, 0xbf, 0x19, 0x05, 0xc9, 0x3e, 0x56, 0x09, 0x84, 0xbe,
  0xd8, 0x51, 0x4c, 0xbf, 0x83, 0x52, 0xd8, 0x3f, 0x67, 0x9f, 0x09, 0x40,
  0x67, 0x01, 0xbe, 0x3e, 0x36, 0x25, 0x50, 0x3d, 0x95, 0x29, 0xda, 0xbe,
  0x13, 0x83, 0x09, 0x3e, 0xd3, 0x10, 0xae, 0xbf, 0xb1, 0xca, 0x32, 0x40,
  0x77, 0x9e, 0x7d, 0x3f, 0x17, 0xa9, 0x51, 0x3f, 0xb9, 0x1a, 0x24, 0x3f,
  0x0d, 0x38, 0x90, 0x3f, 0x86, 0x0e, 0x44, 0x40, 0x41, 0x2b, 0x8c, 0x3f,
  0xe6, 0x6c, 0x6e, 0x3f, 0xdc, 0x38, 0xfe, 0xbe, 0xba, 0x40, 0x0a, 0x40,
  0xff, 0xa5, 0xa0, 0xbe, 0xa2, 0x6e, 0x63, 0xbf, 0x48, 0x4c, 0x7b, 0xbf,
  0x4e, 0x25, 0x99, 0xbf, 0xf2, 0xfa, 0xd9, 0x3f, 0x35, 0x6e, 0x37, 0xc0,
  0x88, 0x4a, 0xc2, 0xbf, 0x6d, 0xa9, 0x86, 0xbf, 0x19, 0xd6, 0x8e, 0x3e,
  0xd4, 0x18, 0x2b, 0x40, 0xe8, 0x1d, 0x69, 0xbe, 0x3c, 0x8d, 0x4f, 0x3f,
  0x4f, 0x43, 0x9e, 0xbf, 0x74, 0x7b, 0xeb, 0xc0, 0x73, 0xf4, 0x0e, 0xbf,
  0xce, 0x27, 0x63, 0x40, 0x7d, 0x68, 0x13, 0x3f, 0xee, 0xbf, 0x3b, 0xbf,
  0x9c, 0x96, 0x48, 0x3f, 0x72, 0x9c, 0x9e, 0x3e, 0x1c, 0x00, 0x39, 0xbf,
  0xf3, 0x3e, 0xf2, 0xbf, 0x64, 0xc6, 0x63, 0xc0, 0xd1, 0x69, 0x05, 0xc0,
  0x8f, 0xa0, 0xd5, 0xbd, 0x24, 0x9f, 0x30, 0xbd, 0x35, 0x6d, 0x17, 0x3e,
  0xe6, 0x32, 0xb6, 0xbf, 0x9f, 0x8c, 0xf4, 0x3f, 0x1c, 0xe3, 0xb2, 0xbf,
  0x5a, 0x40, 0xa6, 0xbf, 0x92, 0x32, 0xb0, 0x3d, 0x03, 0xf2, 0x44, 0x3f,
  0x51, 0x98, 0xf2, 0x3f, 0xd3, 0x75, 0xf3, 0x3f, 0x51, 0xe4, 0x45, 0xbf,
  0x3d, 0xba, 0x7c, 0x3f, 0xc6, 0xc0, 0x8c, 0x3f, 0x87, 0xb2, 0xcc, 0xbf,
  0x1d, 0x1d, 0x85, 0x3e, 0x0c, 0xc8, 0x9c, 0x3f, 0x7c, 0x70, 0x24, 0xbf,
  0x75, 0x03, 0xfe, 0x3f, 0xd1, 0xe1, 0xc2, 0xbc, 0x67, 0xfe, 0xe8, 0x3f,
  0x33, 0x7c, 0xa1, 0x3f, 0x2d, 0x59, 0x69, 0x3e, 0x1e, 0x0b, 0x00, 0xc0,
  0x8d, 0xaa, 0x90, 0x3e, 0xb2, 0x13, 0xf2, 0xbe, 0xf5, 0xf0, 0x92, 0x3c,
  0xbe, 0x63, 0xd7, 0xbf, 0x4f, 0x62, 0x93, 0x3f, 0x76, 0x4e, 0x78, 0xbe,
  0x22, 0xbe, 0xe5, 0x3f, 0xbc, 0x5b, 0x90, 0x3e, 0x1a, 0x08, 0x31, 0xc0,
  0x35, 0xba, 0xcb, 0xbe, 0x45, 0x1f, 0x32, 0xbf, 0xc4, 0xcd, 0x7c, 0x3f,
  0xa3, 0xf8, 0x02, 0xc0, 0x90, 0x31, 0x07, 0x3e, 0xf7, 0x19, 0xed, 0x3f,
  0x7a, 0x6a, 0xbf, 0x3f, 0x25, 0xc1, 0xac, 0xbf, 0xde, 0x32, 0xff, 0x3d,
  0xc9, 0x88, 0xfd, 0x3e, 0xe5, 0x96, 0xaf, 0x3f, 0xca, 0xc4, 0xde, 0x3f,
  0x3f, 0xbd, 0x33, 0x3f, 0x9d, 0x51, 0x20, 0xbd, 0xed, 0x25, 0x00, 0x40,
  0x2e, 0x7e, 0x55, 0x40, 0xd8, 0x67, 0x98, 0x3f, 0x8a, 0x43, 0x93, 0xbd,
  0x6e, 0x4e, 0x73, 0x3f, 0xf8, 0xfb, 0x20, 0xbc, 0x3d, 0x22, 0x31, 0x3f,
  0xeb, 0x19, 0x9e, 0xbf, 0x60, 0x25, 0x88, 0x3e, 0x66, 0xa8, 0x99, 0x3f,
  0x41, 0x10, 0xf3, 0xbf, 0x5a, 0xae, 0x51, 0xb9, 0x12, 0xc2, 0x05, 0xc0,
  0x73, 0x93, 0x9b, 0xbf, 0x86, 0x9e, 0x00, 0x3f, 0x4f, 0x1a, 0xfd, 0x3f,
  0x6d, 0x4d, 0x61, 0x3f, 0xa8, 0x1b, 0x66, 0x3f, 0x94, 0x41, 0xfd, 0x3e,
  0x69, 0x26, 0x06, 0x40, 0xf9, 0xcd, 0xf2, 0x3f, 0x44, 0x71, 0x44, 0x3d,
  0xde, 0xc2, 0x91, 0xbd, 0x8f, 0x65, 0xe0, 0x3f, 0xfe, 0x76, 0xa3, 0x3f,
  0xbb, 0x4b, 0x00, 0xbf, 0x28, 0x72, 0xe2, 0x3e, 0x04, 0x36, 0xdc, 0x3c,
  0x78, 0x47, 0xca, 0xbf, 0x19, 0xba, 0x18, 0x3e, 0x63, 0xb4, 0x26, 0xbf,
  0xbe, 0xe5, 0xab, 0xbe, 0xe5, 0x39, 0x5a, 0xc0, 0x11, 0x5c, 0xf2, 0x3f,
  0x03, 0x74, 0x15, 0xbf, 0x84, 0xd3, 0x44, 0x3f, 0xa5, 0xbd, 0x16, 0xbf,
  0xef, 0xc2, 0x0a, 0xc0, 0xda, 0xcd, 0x3f, 0xbf, 0x89, 0xb0, 0xd1, 0xbf,
  0xbd, 0xbb, 0x44, 0x3f, 0xbe, 0x6d, 0xaa, 0x3f, 0xaa, 0x23, 0xf9, 0x3f,
  0xd4, 0xa2, 0x0e, 0x3f, 0x36, 0xa2, 0x59, 0x3d, 0xd8, 0xe8, 0x9b, 0x3f,
  0x3d, 0xcb, 0xf0, 0xbf, 0x2d, 0x56, 0x27, 0xc0, 0x79, 0x8a, 0x05, 0xc0,
  0xe9, 0x98, 0xd4, 0x3e, 0x23, 0x1d, 0xd8, 0x3e, 0x03, 0xe5, 0x9d, 0xbf,
  0xf1, 0x9f, 0xb5, 0xbe, 0xd4, 0x27, 0xea, 0xbe, 0xbd, 0x74, 0xbb, 0x3e,
  0x36, 0x5e, 0xcf, 0x3f, 0xc0, 0x78, 0x3d, 0xbe, 0x9d, 0xe3, 0xa6, 0xbf,
  0xcb, 0x21, 0x95, 0x3f, 0x65, 0xe6, 0x9b, 0x3f, 0x58, 0xdc, 0x54, 0xbf,
  0xb9, 0xb2, 0x2b, 0xc0, 0xbd, 0x3c, 0xc7, 0xbd, 0x42, 0xc2, 0xa2, 0xbe,
  0x26, 0x6c, 0x80, 0x3f, 0xe7, 0x01, 0x6e, 0x3e, 0xaf, 0x4c, 0x72, 0x3f,
  0x1f, 0xf7, 0x51, 0x40, 0x51, 0xb6, 0x3b, 0xbe, 0xd2, 0x39, 0xd3, 0x3f,
  0xdf, 0x8f, 0x9e, 0xbf, 0x76, 0x53, 0x92, 0xc0, 0x16, 0x21, 0x63, 0x3f,
  0x80, 0xf4, 0xf8, 0x3f, 0x26, 0x0e, 0xa1, 0xc0, 0x45, 0xa2, 0x86, 0xbf,
  0x17, 0x69, 0x37, 0xc0, 0xe8, 0x2a, 0x3a, 0xbf, 0xc0, 0x24, 0x20, 0x40,
  0x5f, 0x21, 0x10, 0x3e, 0xee, 0x39, 0x1e, 0x40, 0x76, 0xef, 0xa1, 0x3f,
  0xe9, 0x6b, 0x91, 0x3e, 0x69, 0x94, 0xf0, 0x3f, 0x5e, 0x64, 0x86, 0xbf,
  0x99, 0x34, 0x05, 0xbf, 0x6c, 0x57, 0xbd, 0x3f, 0x0d, 0xe9, 0xf9, 0xbe,
  0xe3, 0xc4, 0x38, 0x3f, 0xd4, 0x8a, 0x18, 0x40, 0x23, 0xe8, 0x94, 0x3e,
  0x19, 0xfa, 0x28, 0xc0, 0x8d, 0xe0, 0x84, 0xbe, 0x8f, 0xfe, 0x7e, 0x3f,
  0x7b, 0xb0, 0x5d, 0xc0, 0xd5, 0x8e, 0x9e, 0x3e, 0x29, 0x54, 0x8f, 0xbf,
  0x28, 0x43, 0xc1, 0x3f, 0xa7, 0x44, 0xc6, 0x3e, 0xd9, 0x21, 0x36, 0x3f,
  0xa8, 0xac, 0x82, 0xc0, 0x2e, 0x6b, 0x1f, 0x40, 0x21, 0x24, 0xdf, 0x3f,
  0x9d, 0xfd, 0x38, 0xbf, 0xa6, 0xf1, 0xeb, 0x3e, 0x2e, 0x04, 0xe7, 0x3f,
  0xbb, 0xfa, 0x03, 0xbf, 0x2b, 0x9c, 0xc6, 0xbf, 0x32, 0x50, 0xac, 0x3f,
  0x80, 0x0b, 0x61, 0xbe, 0x84, 0xe7, 0xd4, 0x3f, 0xb6, 0xea, 0xb1, 0x3e,
  0x8e, 0x68, 0x71, 0xc0, 0xd0, 0x95, 0xf1, 0x3f, 0xfe, 0xe5, 0x36, 0x3f,
  0xbd, 0xea, 0xe5, 0x3e, 0x6c, 0xad, 0xba, 0x3f, 0x0f, 0x22, 0x81, 0xc0,
  0x9c, 0x36, 0x0b, 0xbe, 0x41, 0xfe, 0xa9, 0x3e, 0xdb, 0xec, 0xea, 0xbe,
  0xb5, 0x28, 0xba, 0xbf, 0xb0, 0x72, 0x08, 0xc0, 0xc0, 0xba, 0xe3, 0xbe,
  0x54, 0x9b, 0xdb, 0xbf, 0x39, 0x0c, 0x1a, 0xc0, 0xf0, 0x20, 0x3f, 0x3f,
  0x4f, 0x63, 0x9a, 0x3f, 0x63, 0xaf, 0xab, 0x3f, 0xc1, 0x67, 0x3e, 0xbf,
  0x90, 0x75, 0x86, 0xbf, 0x8e, 0xd5, 0xd5, 0xbd, 0xf1, 0xe2, 0x99, 0x3f,
  0xd2, 0x83, 0x22, 0x40, 0x01, 0x08, 0x44, 0xbf, 0x25, 0x21, 0xf6, 0x3e,
  0x2f, 0x2f, 0xd0, 0xbf, 0x32, 0x40, 0xcb, 0x3e, 0x68, 0xd4, 0x4e, 0xbf,
  0xcf, 0xea, 0xed, 0xbd, 0x11, 0x7a, 0x11, 0xc0, 0x52, 0x3b, 0xf3, 0xbc,
  0x02, 0x06, 0xb1, 0x3f, 0xd9, 0x18, 0xc5, 0xbe, 0x51, 0xd9, 0x03, 0xbe,
  0x83, 0xc3, 0x0d, 0xbf, 0x24, 0x0c, 0xa1, 0xbf, 0xc2, 0xfa, 0xc5, 0x3f,
  0x86, 0xb7, 0x9f, 0xbe, 0x69, 0x77, 0x5f, 0x3f, 0x09, 0x56, 0xb2, 0x3f,
  0x61, 0xd0, 0x26, 0x3f, 0x64, 0xd3, 0x2b, 0x40, 0xc9, 0xdd, 0x00, 0x40,
  0x32, 0xe3, 0x41, 0xbf, 0x54, 0x91, 0xa2, 0x3e, 0x0a, 0x67, 0xf5, 0x3f,
  0x6d, 0xf9, 0xeb, 0x3f, 0x7e, 0xcc, 0xff, 0xff, 0x34, 0x00, 0x00, 0x00,
  0x0e, 0x00, 0x00, 0x00, 0x08, 0x00, 0x00, 0x00, 0x3c, 0x00, 0x00, 0x00,
  0x1c, 0x00, 0x00, 0x00, 0x66, 0x75, 0x6e, 0x63, 0x74, 0x69, 0x6f, 0x6e,
  0x61, 0x6c, 0x5f, 0x31, 0x2f, 0x63, 0x6f, 0x6e, 0x76, 0x32, 0x64, 0x5f,
  0x32, 0x2f, 0x43, 0x6f, 0x6e, 0x76, 0x32, 0x44, 0x00, 0x00, 0x00, 0x00,
  0x04, 0x00, 0x00, 0x00, 0x10, 0x00, 0x00, 0x00, 0x01, 0x00, 0x00, 0x00,
  0x05, 0x00, 0x00, 0x00, 0x10, 0x00, 0x00, 0x00, 0x74, 0xcb, 0xff, 0xff,
  0x62, 0xcc, 0xff, 0xff, 0x04, 0x00, 0x00, 0x00, 0x00, 0x28, 0x00, 0x00,
  0x2a, 0xdc, 0x9b, 0x3e, 0x85, 0x8f, 0xa7, 0x3d, 0x73, 0xb6, 0x0f, 0xbf,
  0xff, 0xc4, 0x8f, 0xbf, 0x97, 0x05, 0x5f, 0xc0, 0xce, 0x4f, 0x46, 0x3f,
  0xec, 0xba, 0x24, 0xbf, 0x6e, 0xf5, 0x34, 0x3f, 0xd9, 0xe0, 0xf0, 0xbf,
  0xcc, 0x3a, 0x81, 0xbf, 0x14, 0xb8, 0xa0, 0x3e, 0xbe, 0xea, 0x5d, 0xc0,
  0x07, 0xb2, 0x2b, 0xbf, 0x4f, 0xdf, 0xd9, 0xbe, 0x9d, 0x07, 0x89, 0xc0,
  0xfd, 0x5c, 0x34, 0xc0, 0xe7, 0xbf, 0x42, 0x3f, 0x64, 0xe7, 0x51, 0xc0,
  0xc1, 0x81, 0x41, 0xbf, 0xde, 0xa3, 0x6f, 0xbf, 0x9f, 0xf9, 0x52, 0xc0,
  0xe5, 0x29, 0x1b, 0xbf, 0x2a, 0x3e, 0xbf, 0xbf, 0xf3, 0x9d, 0x18, 0xbf,
  0x04, 0xfe, 0x5e, 0xc0, 0x82, 0x94, 0x93, 0xbf, 0xb6, 0xfb, 0xf6, 0xbe,
  0x65, 0x8e, 0x87, 0x3f, 0x4e, 0x40, 0xad, 0xbf, 0x89, 0xc8, 0xcf, 0x3d,
  0x09, 0x0f, 0xee, 0x3f, 0x77, 0x7e, 0x85, 0xbc, 0xca, 0x5c, 0xe2, 0xbf,
  0x7a, 0x3f, 0xe5, 0x3e, 0x00, 0x22, 0x9d, 0xbe, 0x41, 0xc3, 0xc9, 0x3f,
  0xcf, 0x26, 0x44, 0x3e, 0x64, 0x75, 0xad, 0xbf, 0x90, 0x23, 0x79, 0x3f,
  0x86, 0xa3, 0x9c, 0x3f, 0x8d, 0x43, 0xdf, 0x3e, 0x18, 0xf1, 0x5d, 0xbf,
  0xd1, 0x5c, 0x06, 0xbf, 0x94, 0xf1, 0x6f, 0x3f, 0xf2, 0xd6, 0x6e, 0xbe,
  0xa8, 0xf0, 0xa2, 0x3e, 0x71, 0x48, 0xc2, 0x3f, 0xb6, 0xc3, 0x82, 0xbf,
  0x8f, 0x22, 0xad, 0xbf, 0x0b, 0x51, 0x5f, 0xbe, 0x3a, 0xda, 0x94, 0x3f,
  0x41, 0xf4, 0xa8, 0x3f, 0x21, 0x85, 0x99, 0x3f, 0x11, 0x43, 0x8b, 0x3e,
  0x93, 0x68, 0xca, 0xbe, 0x4b, 0xff, 0x5c, 0x3e, 0xec, 0x6d, 0xa4, 0x3f,
  0xee, 0x8e, 0x64, 0x3f, 0x24, 0x1f, 0x93, 0x3f, 0xb9, 0xc8, 0x9a, 0x3d,
  0xe5, 0x9c, 0x7f, 0x3f, 0xa6, 0x69, 0xdd, 0xbf, 0xb5, 0x86, 0x11, 0xbf,
  0xe4, 0xd0, 0x62, 0xbf, 0x6c, 0x71, 0xe8, 0x3e, 0xac, 0x3e, 0x17, 0x40,
  0xfe, 0x87, 0xad, 0x3f, 0x87, 0xb3, 0x46, 0x3e, 0xed, 0xff, 0x30, 0x3f,
  0x09, 0xeb, 0x08, 0xbd, 0x78, 0xd9, 0x27, 0xbf, 0xfd, 0x5f, 0x86, 0xc0,
  0xdb, 0xc9, 0x29, 0xc0, 0x28, 0xad, 0x39, 0x3f, 0x5b, 0x1a, 0x89, 0xbf,
  0xb4, 0xae, 0x25, 0x3f, 0xf4, 0x2b, 0xb1, 0x3e, 0x46, 0x86, 0x1c, 0xc0,
  0xf8, 0x56, 0xe2, 0xbf, 0xf2, 0x86, 0x20, 0xc0, 0x24, 0x0e, 0xa1, 0xbe,
  0x2e, 0xc6, 0x2d, 0x40, 0xec, 0x2f, 0x91, 0xbf, 0x59, 0xd6, 0x4e, 0xbf,
  0x14, 0xc4, 0x03, 0x40, 0x1d, 0x22, 0xb3, 0x3f, 0x32, 0x16, 0x43, 0xc0,
  0xb5, 0x5d, 0xc4, 0xbe, 0x79, 0xc4, 0x9b, 0xc0, 0x70, 0x1a, 0x74, 0x3f,
  0x2f, 0x1b, 0xe9, 0xbf, 0xb0, 0x68, 0x1d, 0xbf, 0x73, 0xca, 0xb5, 0x3f,
  0xac, 0xe7, 0xdb, 0xbf, 0x4b, 0x0d, 0x56, 0xbf, 0x4f, 0xe2, 0x94, 0xbf,
  0x70, 0x4b, 0xc5, 0xbd, 0x73, 0x17, 0x8c, 0xbf, 0x0d, 0x0e, 0xde, 0xbf,
  0x56, 0x8b, 0x9d, 0xbf, 0x25, 0x0b, 0xc5, 0x3f, 0x0a, 0xcc, 0x49, 0x3e,
  0x05, 0xc2, 0x60, 0xbf, 0xff, 0xe4, 0xc9, 0x3e, 0x15, 0x18, 0xf9, 0x3d,
  0xf8, 0xee, 0x6e, 0x3e, 0xc1, 0xad, 0xab, 0x3f, 0xb3, 0x88, 0xc9, 0x3d,
  0x4d, 0x99, 0xcc, 0xbf, 0xe4, 0x71, 0x1a, 0x3e, 0x9b, 0x90, 0x9a, 0x3f,
  0xa6, 0x98, 0x2b, 0x40, 0x1b, 0xd5, 0x29, 0x3e, 0x83, 0x00, 0xc8, 0x3f,
  0xcd, 0xa0, 0x92, 0x3f, 0x03, 0x7f, 0xd5, 0x3f, 0x2d, 0x61, 0x08, 0x40,
  0x02, 0xb0, 0xbf, 0x3e, 0xac, 0xeb, 0xf0, 0x3d, 0xe6, 0x8f, 0x8f, 0x3f,
  0x41, 0x4d, 0xa2, 0x3f, 0xc1, 0x6a, 0xe4, 0xbf, 0x48, 0xb4, 0xce, 0x3f,
  0xa3, 0x68, 0x7a, 0x3f, 0xc2, 0x13, 0xda, 0xbf, 0x83, 0xf7, 0xc6, 0xc0,
  0xb0, 0x44, 0xd5, 0x3f, 0x09, 0xc4, 0x92, 0x40, 0xec, 0x91, 0x64, 0x3f,
  0x77, 0x1b, 0x3e, 0xbd, 0xc6, 0x0e, 0xa9, 0xbe, 0xee, 0x91, 0xbc, 0xbf,
  0xe3, 0xa8, 0x1b, 0xbe, 0xc2, 0x2c, 0x47, 0xbf, 0x4a, 0xf9, 0x19, 0xbe,
  0x02, 0x50, 0x71, 0x3f, 0x9f, 0xbd, 0xb6, 0x3f, 0x4b, 0x6a, 0x45, 0x3f,
  0xdb, 0x28, 0x13, 0x3e, 0xaf, 0x5c, 0x3e, 0x40, 0x69, 0x39, 0x9f, 0xbf,
  0x2a, 0x2e, 0x86, 0xbf, 0xda, 0x94, 0xbb, 0xbe, 0xd8, 0xca, 0x2b, 0x40,
  0x67, 0xf9, 0xd5, 0xbe, 0x25, 0x58, 0xa4, 0x3f, 0x1a, 0x38, 0x8e, 0xbd,
  0x15, 0xb6, 0xb0, 0xbf, 0xb3, 0x21, 0x1c, 0xc0, 0x44, 0xc8, 0x8f, 0x3f,
  0xb0, 0x67, 0xbc, 0xbe, 0x7c, 0x4c, 0x15, 0xbf, 0x12, 0xf5, 0xe8, 0x3e,
  0x68, 0x41, 0x1b, 0x3e, 0xac, 0xeb, 0xad, 0x3f, 0xbb, 0x80, 0x80, 0xbe,
  0xcd, 0x41, 0x5c, 0x3f, 0xf7, 0x17, 0x60, 0xbe, 0x99, 0x65, 0xbd, 0xbe,
  0x75, 0xc2, 0xae, 0xbe, 0x2a, 0xe2, 0x17, 0x3f, 0xec, 0x2d, 0x0a, 0x3f,
  0x30, 0xbd, 0x9d, 0xbf, 0x3e, 0x22, 0x59, 0x3f, 0x57, 0x71, 0xf6, 0x3d,
  0x18, 0xb9, 0xcd, 0xbf, 0xa2, 0x18, 0x06, 0xc0, 0xef, 0x69, 0x23, 0xbe,
  0x5c, 0x9b, 0x1c, 0xbf, 0x5d, 0xc8, 0x0a, 0xbf, 0xef, 0xd4, 0xdd, 0x3e,
  0xa4, 0x15, 0x89, 0x3f, 0x0a, 0x16, 0x21, 0xc0, 0xe3, 0x10, 0xa0, 0x3e,
  0xdf, 0x17, 0xeb, 0x3f, 0xe4, 0x5c, 0xdd, 0x3f, 0x3d, 0xb0, 0xa6, 0xbe,
  0xc0, 0xb3, 0xdd, 0x3f, 0xbc, 0x60, 0xc0, 0x3f, 0x8f, 0x5c, 0x58, 0x3f,
  0x80, 0x1d, 0x17, 0x40, 0x13, 0x0a, 0x3e, 0x3f, 0x68, 0x41, 0xdb, 0x3e,
  0x20, 0x6c, 0xa3, 0x3f, 0xb0, 0xf5, 0x21, 0x3f, 0xf3, 0x1e, 0x81, 0xbf,
  0x6d, 0x54, 0xff, 0xbe, 0x51, 0x73, 0x7c, 0x3f, 0xb4, 0xc0, 0x5c, 0xbf,
  0xac, 0xad, 0x75, 0xc0, 0x00, 0xdd, 0x84, 0xbf, 0xcc, 0x6f, 0x1e, 0x40,
  0x18, 0x75, 0x48, 0xc0, 0xa6, 0x51, 0x07, 0x40, 0x8e, 0x2d, 0xb6, 0x3f,
  0x87, 0x29, 0xa8, 0x3e, 0xa9, 0x5e, 0x89, 0x3f, 0x5e, 0x1f, 0xde, 0x3e,
  0xe9, 0x75, 0x9b, 0xbe, 0x67, 0xb6, 0x87, 0x3f, 0x6f, 0x28, 0xb9, 0xbe,
  0x30, 0x4d, 0x86, 0xbf, 0x0d, 0xb8, 0x5e, 0x3f, 0x34, 0xa1, 0x34, 0x40,
  0xa9, 0xef, 0x03, 0x40, 0x10, 0x25, 0xec, 0xc0, 0x49, 0xfd, 0x00, 0xc0,
  0x71, 0x86, 0xec, 0x3e, 0xa7, 0x29, 0xd4, 0x3f, 0xb6, 0x58, 0x9c, 0x3f,
  0x1b, 0xbe, 0xdc, 0xbe, 0xa7, 0x38, 0x9c, 0x3f, 0x3a, 0x44, 0x02, 0xc0,
  0x4e, 0x2a, 0x1f, 0x3f, 0x00, 0x4f, 0xbc, 0xbf, 0xae, 0x9e, 0x64, 0xbe,
  0xbd, 0xa4, 0x28, 0x3d, 0x4a, 0x4b, 0x17, 0x3e, 0xc7, 0xf6, 0x04, 0xbf,
  0xf1, 0xec, 0x53, 0xc0, 0x43, 0xbb, 0x23, 0x3f, 0x28, 0x42, 0xd5, 0xbe,
  0xf7, 0xa6, 0x03, 0xc0, 0x98, 0x10, 0x50, 0xbf, 0x44, 0x25, 0x70, 0x3f,
  0x4d, 0x40, 0xa6, 0xbe, 0x7b, 0x31, 0x46, 0x3f, 0xb3, 0x17, 0x0a, 0xc0,
  0xe1, 0x7f, 0x05, 0xbf, 0x99, 0x56, 0x83, 0xbe, 0xa1, 0xa6, 0xe7, 0xbf,
  0xdf, 0x7e, 0x3a, 0xc0, 0x1c, 0x1a, 0x0b, 0xc0, 0x00, 0xe2, 0x4d, 0x40,
  0xee, 0x9b, 0xa4, 0x3f, 0xff, 0xce, 0x5f, 0x3f, 0x6d, 0x5b, 0xd5, 0xbe,
  0x0a, 0xe0, 0xd5, 0x3e, 0x46, 0x63, 0xb8, 0x3d, 0x59, 0x95, 0xdc, 0x3f,
  0x72, 0x3b, 0x56, 0x3f, 0xd1, 0x03, 0x1a, 0xc0, 0xc3, 0x98, 0x0e, 0xc0,
  0x14, 0xea, 0x16, 0x3f, 0x07, 0x5f, 0x15, 0x3f, 0xb8, 0x17, 0x56, 0xbe,
  0x0c, 0xe7, 0xa2, 0xbf, 0x0b, 0x5e, 0x0b, 0x40, 0x36, 0xab, 0x80, 0xbf,
  0x83, 0xe6, 0x11, 0x3f, 0x2b, 0xca, 0x55, 0x3e, 0xd5, 0xdc, 0x1f, 0x40,
  0x6a, 0x63, 0x66, 0xbf, 0x9a, 0x3f, 0x4d, 0xbf, 0xc4, 0x30, 0x6e, 0x3f,
  0xa9, 0xb3, 0x66, 0x3f, 0xcd, 0xef, 0xd5, 0xbe, 0x76, 0x5f, 0x35, 0xbf,
  0x7f, 0x76, 0x10, 0xbf, 0x55, 0x3a, 0x1a, 0x3e, 0xf0, 0x0a, 0xd1, 0xbf,
  0xf9, 0x5f, 0x92, 0xbe, 0x43, 0x88, 0x6c, 0x3f, 0xd8, 0x23, 0x20, 0x3f,
  0xd6, 0x91, 0x30, 0x3e, 0x2d, 0x00, 0xd1, 0x3f, 0x42, 0xdf, 0x82, 0xbf,
  0xf2, 0x06, 0xec, 0x3d, 0xee, 0x10, 0xda, 0xbf, 0xaf, 0xb2, 0x38, 0xbf,
  0x05, 0x7e, 0x8b, 0xbe, 0x45, 0xa1, 0x9c, 0xbf, 0x1e, 0x53, 0x34, 0x3f,
  0x5b, 0x93, 0x84, 0xbf, 0x63, 0x9c, 0xb7, 0x3f, 0x1b, 0x4b, 0xc2, 0x3e,
  0xe6, 0xc3, 0xae, 0xbf, 0x8d, 0xd4, 0xc2, 0x3f, 0xcb, 0x16, 0x59, 0xbf,
  0x6d, 0xa1, 0xf9, 0xbf, 0x33, 0xdd, 0xfa, 0xbe, 0xa7, 0x18, 0x5a, 0x3e,
  0x6a, 0xfd, 0x29, 0x3e, 0x9d, 0x3c, 0x17, 0xc0, 0xeb, 0x56, 0x15, 0x3f,
  0x7c, 0x21, 0x6d, 0xbe, 0x58, 0xb4, 0xfb, 0x3f, 0x55, 0xbd, 0x6f, 0xbe,
  0x57, 0xfa, 0x62, 0x3f, 0x05, 0x39, 0xd8, 0xbf, 0xf2, 0x7a, 0x8d, 0xbf,
  0x26, 0x3b, 0x09, 0x40, 0x6c, 0x01, 0x03, 0xc0, 0xac, 0x97, 0x38, 0xbf,
  0xd4, 0x52, 0x17, 0xbf, 0x9d, 0xab, 0xd6, 0xbf, 0x37, 0x91, 0x34, 0x40,
  0xfb, 0x4c, 0x1a, 0xc0, 0x98, 0xa7, 0x58, 0xbd, 0x7d, 0x9d, 0x21, 0x40,
  0x2a, 0xf8, 0x3f, 0xbf, 0xb5, 0xd6, 0x1a, 0x3e, 0xd6, 0x10, 0xd6, 0x3f,
  0x7c, 0x0f, 0xd2, 0xbf, 0xb3, 0x2a, 0xa7, 0xc0, 0x91, 0xec, 0xe6, 0x3f,
  0xb1, 0x71, 0x11, 0x40, 0xef, 0x39, 0x65, 0xbf, 0x3b, 0xbc, 0xaf, 0x3f,
  0x48, 0x93, 0x6d, 0xbf, 0x8e, 0xdc, 0x80, 0xbf, 0xb0, 0x6a, 0xf8, 0x3f,
  0x5d, 0xdf, 0x73, 0x3f, 0x55, 0x42, 0xe5, 0xbf, 0x10, 0x61, 0x95, 0xc0,
  0x5f, 0xcb, 0x2b, 0xc0, 0x33, 0xf7, 0x16, 0x40, 0xed, 0x65, 0x5c, 0xc0,
  0x3d, 0x4c, 0x91, 0xbf, 0x0c, 0x2e, 0xec, 0xbf, 0xc0, 0xc4, 0x05, 0xbf,
  0x4a, 0xe9, 0x91, 0xbe, 0x9b, 0x63, 0x71, 0x3e, 0xbb, 0x00, 0xec, 0xbf,
  0x55, 0xcb, 0xbf, 0xbf, 0x53, 0x36, 0x41, 0x3e, 0x12, 0x91, 0x5f, 0xbf,
  0xd4, 0xeb, 0xca, 0xbf, 0x18, 0x2d, 0x4f, 0xbf, 0x52, 0xaa, 0x2a, 0x3f,
  0xac, 0x83, 0x0e, 0x3e, 0x63, 0xfc, 0x20, 0xbf, 0xc6, 0x24, 0x10, 0xc0,
  0x8b, 0xa6, 0xbe, 0xbf, 0xcd, 0x6b, 0x29, 0xbf, 0x13, 0xe6, 0x2b, 0xc0,
  0xf0, 0xe0, 0x4a, 0x3f, 0x96, 0xb6, 0x1f, 0x3e, 0xa5, 0x44, 0x92, 0xbf,
  0xe5, 0xfe, 0x1c, 0x40, 0x1a, 0xef, 0xa3, 0x3d, 0x31, 0x02, 0xc7, 0xbf,
  0x38, 0x6b, 0xbb, 0xbf, 0xd2, 0x47, 0x5f, 0x3f, 0x3e, 0xc9, 0xde, 0xbf,
  0x93, 0xcf, 0xa9, 0xbf, 0x90, 0xc9, 0x1e, 0x3e, 0x72, 0x7a, 0xb3, 0xbf,
  0x40, 0xc5, 0xaf, 0xbf, 0x75, 0xf4, 0xf4, 0x3f, 0xdb, 0x78, 0x39, 0xbd,
  0xc9, 0xf5, 0x1a, 0xc0, 0xa4, 0x73, 0x51, 0xc0, 0x7d, 0xc1, 0x51, 0x3f,
  0x31, 0x91, 0x39, 0x40, 0x81, 0xbc, 0x80, 0x3f, 0xd3, 0x08, 0x1c, 0xbf,
  0xcb, 0xc2, 0xaf, 0x3e, 0xf1, 0xc3, 0x48, 0x3f, 0x2a, 0x71, 0x04, 0x40,
  0xa9, 0x28, 0x91, 0xbf, 0xfa, 0x78, 0xd0, 0xbd, 0xe8, 0x24, 0xe4, 0xbf,
  0xbf, 0x3b, 0x19, 0xc0, 0xc4, 0x00, 0x03, 0x40, 0x5c, 0x3a, 0x4b, 0x3f,
  0xed, 0x4f, 0xc1, 0x3f, 0x48, 0x79, 0x13, 0xc0, 0xfb, 0xc0, 0x04, 0x40,
  0xa9, 0xf7, 0x57, 0x40, 0x46, 0x50, 0xf6, 0x3d, 0x49, 0xf8, 0x67, 0xbf,
  0x5a, 0xec, 0x45, 0x40, 0xdd, 0x2f, 0x81, 0x3f, 0x94, 0x18, 0x94, 0x3e,
  0x3f, 0x79, 0x22, 0xbf, 0xae, 0xc4, 0x33, 0xbf, 0xd1, 0xb3, 0x03, 0x3b,
  0xb1, 0xef, 0x3d, 0xc0, 0x01, 0x78, 0x5f, 0x3f, 0x6c, 0x4a, 0x14, 0x40,
  0xe3, 0x95, 0xce, 0x3f, 0xfa, 0x5c, 0x8e, 0xbf, 0xc2, 0xe3, 0x85, 0xbf,
  0x0d, 0x8b, 0x01, 0xc0, 0x04, 0x22, 0x9a, 0xbf, 0x1f, 0x9e, 0xf4, 0xbf,
  0xf7, 0x62, 0x60, 0xc0, 0xb4, 0x27, 0xab, 0xbf, 0xca, 0x8d, 0x5f, 0x3f,
  0x0f, 0x8f, 0xe2, 0xbf, 0x6c, 0x18, 0x0e, 0x40, 0x37, 0x96, 0xef, 0xbe,
  0x2f, 0x99, 0x30, 0xbe, 0xce, 0xaf, 0x5f, 0x3f, 0x45, 0x5a, 0x01, 0xbe,
  0x13, 0x9e, 0xdf, 0xbf, 0xbe, 0x71, 0xa8, 0xc0, 0x4b, 0xea, 0x2e, 0x40,
  0x63, 0x5f, 0x1a, 0x40, 0xd0, 0xdc, 0x58, 0x40, 0xcb, 0xb9, 0x11, 0x3e,
  0x03, 0x95, 0xab, 0xbe, 0xb6, 0xd9, 0xdb, 0xbf, 0x3f, 0x0f, 0x98, 0x3f,
  0x11, 0x65, 0x17, 0xbe, 0x0a, 0x57, 0xf7, 0xbf, 0x2b, 0x2d, 0xa8, 0x3e,
  0x82, 0x58, 0x20, 0x3f, 0x35, 0xfa, 0x3c, 0x40, 0xa4, 0xf7, 0x1a, 0x3e,
  0x9c, 0x1b, 0xbf, 0x3f, 0x20, 0xc1, 0x17, 0xc0, 0x73, 0xc5, 0x05, 0x3e,
  0x7c, 0x09, 0x31, 0xbe, 0xd5, 0xe8, 0xea, 0xbe, 0xbe, 0x7b, 0xf6, 0xbf,
  0xcd, 0x43, 0x1c, 0xbf, 0x84, 0xeb, 0x09, 0xc0, 0xd9, 0x7e, 0xc2, 0xbe,
  0x73, 0xc3, 0x2b, 0xbf, 0x45, 0x0d, 0x7d, 0x3e, 0xee, 0xfa, 0x92, 0xbf,
  0xf5, 0xf6, 0x0f, 0xbe, 0x1f, 0x20, 0x92, 0x3d, 0x2b, 0xfc, 0xe1, 0xbe,
  0xbc, 0x4f, 0x2c, 0x3e, 0x61, 0xac, 0xe8, 0x3f, 0xd1, 0x52, 0x1b, 0xc0,
  0xbd, 0x99, 0x09, 0x3e, 0x62, 0x3c, 0x6e, 0xbf, 0xf7, 0xcc, 0x80, 0x3f,
  0x57, 0x48, 0x57, 0x3e, 0x67, 0x95, 0x5b, 0xc0, 0x97, 0x3c, 0x24, 0xc0,
  0x16, 0x87, 0xe4, 0x3e, 0x60, 0x51, 0xac, 0xbf, 0xae, 0xa7, 0xb5, 0x3f,
  0xd6, 0x8c, 0x39, 0x40, 0xf8, 0x90, 0xa3, 0x3f, 0xa9, 0x62, 0x22, 0x3f,
  0x1e, 0xa7, 0x1a, 0xbf, 0x60, 0x48, 0x39, 0x40, 0xa8, 0x67, 0x23, 0xc0,
  0x97, 0xbd, 0x3d, 0xc0, 0xc4, 0x8a, 0x6a, 0xbe, 0xf5, 0xb0, 0xb3, 0xbf,
  0x21, 0x7c, 0x01, 0xbf, 0x4c, 0x2a, 0x2e, 0x3f, 0x9e, 0x07, 0x87, 0xbf,
  0x3f, 0x25, 0x72, 0x3f, 0x01, 0x30, 0x6e, 0xbf, 0x33, 0xa9, 0x23, 0xc0,
  0xb6, 0x26, 0xb0, 0xbf, 0x49, 0xa1, 0x02, 0x40, 0x8c, 0xe2, 0x59, 0xc0,
  0xdc, 0xc7, 0x5f, 0x3e, 0xee, 0xf4, 0x33, 0x40, 0xad, 0x0a, 0xe8, 0x3f,
  0x29, 0xbc, 0x6f, 0xbd, 0x19, 0x2a, 0xd5, 0x3f, 0x39, 0x32, 0x16, 0x3d,
  0xbc, 0x35, 0x9d, 0xbe, 0x15, 0x2d, 0x85, 0x3f, 0x72, 0x60, 0x1e, 0x3e,
  0xc2, 0x6d, 0xae, 0x3e, 0xc5, 0xd1, 0x8b, 0x3d, 0xc1, 0x1f, 0xab, 0x3f,
  0xc5, 0x2a, 0x37, 0x3f, 0x59, 0x9d, 0xb3, 0xbf, 0x34, 0x97, 0xc9, 0x3f,
  0xd0, 0x2a, 0xf3, 0x3e, 0x6f, 0x9c, 0xb6, 0xbf, 0xf2, 0xa8, 0x53, 0xbe,
  0xcd, 0xc9, 0x1c, 0x3f, 0x9d, 0x55, 0x25, 0xbf, 0x5f, 0x60, 0xc8, 0x3f,
  0x70, 0xe2, 0x33, 0x3d, 0x8a, 0x2e, 0x97, 0x3e, 0x88, 0x58, 0xcd, 0xbe,
  0x48, 0x1e, 0x44, 0x3e, 0x15, 0x72, 0x75, 0x3f, 0x40, 0x35, 0x9e, 0x3e,
  0x96, 0xad, 0x13, 0x40, 0x55, 0x9f, 0x99, 0xbf, 0xb7, 0x49, 0x76, 0xbd,
  0xc7, 0x52, 0xbe, 0xbf, 0x53, 0x04, 0xd5, 0x3f, 0x63, 0xea, 0x0f, 0x40,
  0xbe, 0x65, 0x00, 0x40, 0xb9, 0xb6, 0xcf, 0xbf, 0x3f, 0x3e, 0x67, 0x3f,
  0x1a, 0x16, 0x08, 0xc0, 0x27, 0x76, 0x7c, 0x3f, 0x72, 0xb3, 0x3d, 0x40,
  0x4c, 0x61, 0xbf, 0xbf, 0x2e, 0x49, 0x1a, 0x3f, 0x6e, 0x76, 0xba, 0x3f,
  0xa1, 0xba, 0x19, 0x40, 0x6e, 0x90, 0xe5, 0xbf, 0xdc, 0xf2, 0xab, 0xbf,
  0x0f, 0xe6, 0x1a, 0x40, 0xd2, 0x2e, 0xb6, 0x3f, 0xf9, 0x72, 0x28, 0x3f,
  0x42, 0xe5, 0xdd, 0xbf, 0xdc, 0x9b, 0x52, 0x40, 0xf4, 0x5a, 0xae, 0x3e,
  0xff, 0x49, 0x3c, 0xc0, 0x5c, 0xd2, 0x06, 0x40, 0x52, 0x41, 0x75, 0xbf,
  0x07, 0x37, 0x73, 0xc0, 0x0d, 0x33, 0xcd, 0xbf, 0x0c, 0x25, 0xcd, 0x3f,
  0xe8, 0x7c, 0xcf, 0xbf, 0xdd, 0x7b, 0x88, 0x3f, 0x4c, 0x3d, 0x6a, 0x3f,
  0x04, 0x8d, 0xb0, 0xbf, 0x29, 0xaf, 0x09, 0xbe, 0x05, 0x13, 0x04, 0xc0,
  0xa4, 0xe0, 0x72, 0x3f, 0x44, 0x9e, 0x2c, 0xc1, 0xaa, 0xa2, 0x05, 0xc0,
  0xf1, 0x59, 0x63, 0x3f, 0x4c, 0x00, 0x3d, 0x40, 0x91, 0x41, 0x0c, 0x3e,
  0x91, 0xe4, 0xd9, 0x3f, 0xdd, 0xf6, 0x08, 0xbf, 0x35, 0x74, 0xc3, 0xbe,
  0x59, 0xb8, 0xd2, 0x3e, 0xf4, 0x02, 0x01, 0xc0, 0x40, 0x5b, 0x20, 0xc0,
  0x9e, 0x10, 0x71, 0x40, 0x83, 0x34, 0xb7, 0xbf, 0xd0, 0xe8, 0xb1, 0x3f,
  0xd4, 0x94, 0xae, 0x3f, 0x80, 0x62, 0xdf, 0x3f, 0x2a, 0x3a, 0x5d, 0x3f,
  0xa2, 0xf4, 0x1b, 0xbf, 0x37, 0xbf, 0x39, 0x3e, 0xf6, 0x7f, 0xab, 0x3f,
  0x8e, 0xbe, 0x1a, 0xc0, 0xec, 0xef, 0x2f, 0x3f, 0x6b, 0xff, 0xfe, 0xbd,
  0x4a, 0x6b, 0xdf, 0xbc, 0x22, 0x3e, 0xbd, 0xbf, 0x7a, 0x2a, 0xcd, 0xbd,
  0x8c, 0xb4, 0x99, 0x3f, 0x53, 0x0d, 0xe1, 0x3f, 0xb3, 0x66, 0xfc, 0x3f,
  0xf1, 0x81, 0x22, 0x3e, 0x3c, 0x20, 0xca, 0xbf, 0xe1, 0x6d, 0xb5, 0xbe,
  0x4e, 0x5a, 0x42, 0xc0, 0xec, 0x8f, 0x4e, 0x3f, 0xe9, 0x88, 0x94, 0xbf,
  0xad, 0x24, 0x62, 0xbf, 0x54, 0x77, 0xdc, 0x3f, 0x67, 0x7e, 0x58, 0xc0,
  0x7f, 0x0d, 0x61, 0x3f, 0xb3, 0xeb, 0x89, 0xbe, 0x75, 0x4f, 0x43, 0x3f,
  0x05, 0x16, 0x5c, 0x3f, 0xa8, 0x85, 0x03, 0x3f, 0x00, 0xc6, 0xf2, 0xbf,
  0x40, 0x4f, 0x63, 0xbf, 0xde, 0x32, 0x06, 0xbf, 0xc8, 0xdb, 0x68, 0xbf,
  0xbd, 0x03, 0x48, 0xc0, 0xf9, 0x67, 0x3e, 0xbf, 0xe4, 0x4a, 0xa6, 0xbf,
  0x8e, 0x02, 0x47, 0xc0, 0x30, 0x6b, 0x84, 0x3d, 0x6e, 0x5e, 0x32, 0x3f,
  0x51, 0x41, 0x65, 0xc0, 0xad, 0x6b, 0x85, 0xbf, 0xb4, 0x29, 0x64, 0xbf,
  0x8c, 0xd4, 0xb9, 0x3f, 0x02, 0xdd, 0xbc, 0x3e, 0xe1, 0xb3, 0x9e, 0xbf,
  0xc0, 0x00, 0x71, 0xc0, 0xba, 0x91, 0x2f, 0x3f, 0x4a, 0x6a, 0x6d, 0x3f,
  0x10, 0x77, 0xc0, 0xbf, 0x8c, 0x61, 0x85, 0xbf, 0x46, 0x76, 0x31, 0x3f,
  0xba, 0x14, 0xb3, 0x3f, 0xfc, 0x3b, 0xca, 0x3e, 0x6e, 0x8e, 0x0a, 0x40,
  0x6e, 0x52, 0xd1, 0xbf, 0xe6, 0xb3, 0xed, 0x3e, 0x94, 0xe1, 0x0d, 0xbd,
  0xb5, 0x20, 0xb4, 0x3f, 0x21, 0xe2, 0x3d, 0xbe, 0xfd, 0xfb, 0x64, 0x3f,
  0xe7, 0xa4, 0xcd, 0xbe, 0x50, 0x6e, 0x2b, 0xbe, 0x92, 0xf3, 0xd9, 0xbd,
  0x45, 0xb1, 0x8d, 0xbf, 0x18, 0x6e, 0x9f, 0xbf, 0xeb, 0x23, 0xcb, 0x3f,
  0xdf, 0x2d, 0x1a, 0x3f, 0xfc, 0xda, 0x50, 0x3f, 0x70, 0xd2, 0xd7, 0xbe,
  0xec, 0xcd, 0x21, 0x3f, 0xf1, 0x67, 0xe6, 0xbf, 0x04, 0x45, 0x1b, 0x3f,
  0x63, 0xe7, 0xa1, 0xbf, 0xc2, 0x1d, 0xeb, 0x3e, 0x70, 0xf2, 0x98, 0x3e,
  0xfd, 0x06, 0x5b, 0xbe, 0x0e, 0xbc, 0xaa, 0xbe, 0x01, 0xe9, 0xd1, 0xbe,
  0xf6, 0xb5, 0x8f, 0x3e, 0x5e, 0x77, 0x7c, 0xbf, 0x85, 0x95, 0xf8, 0xbe,
  0x76, 0x09, 0x86, 0xbf, 0x61, 0x32, 0xb7, 0xbd, 0x95, 0x4f, 0xf0, 0xbe,
  0x53, 0xfa, 0xd5, 0x3e, 0xbe, 0x68, 0xb4, 0x3e, 0x0b, 0xdc, 0x8b, 0xbe,
  0x76, 0xcb, 0x6e, 0x3f, 0xbc, 0xe1, 0x0a, 0xc0, 0xee, 0x2a, 0x1f, 0x40,
  0xd5, 0xfc, 0x14, 0x3e, 0x62, 0x7b, 0xc3, 0x3e, 0xe9, 0xe5, 0x22, 0x3f,
  0x8c, 0xa7, 0x4b, 0x3f, 0x39, 0x50, 0xad, 0xbe, 0x18, 0x38, 0x64, 0x3f,
  0x8e, 0xa5, 0x85, 0x3e, 0x61, 0xc3, 0xbc, 0xbf, 0x38, 0x5b, 0xcf, 0xbe,
  0x15, 0x0a, 0x0e, 0x3e, 0xe8, 0x57, 0x33, 0x3f, 0xab, 0x7a, 0xc5, 0xbe,
  0x17, 0xcb, 0xa6, 0x3e, 0xcb, 0xe3, 0x7a, 0x3f, 0x13, 0x91, 0xff, 0x3e,
  0x0f, 0x0e, 0x8d, 0xbc, 0x43, 0xb9, 0xb3, 0x3f, 0x3e, 0x42, 0x93, 0xbd,
  0xc5, 0xa6, 0xe6, 0x3f, 0xd9, 0x8a, 0x4d, 0x3e, 0xdb, 0xb1, 0xf8, 0xbf,
  0x92, 0x8f, 0xe2, 0xbd, 0xf4, 0xb5, 0xc0, 0xbf, 0xb6, 0xdf, 0xac, 0x3f,
  0x48, 0xfa, 0x26, 0x3f, 0xf7, 0x52, 0xd5, 0x3f, 0x04, 0x78, 0x56, 0xbf,
  0x53, 0xff, 0xec, 0x3f, 0xc3, 0xc6, 0xd8, 0x3e, 0x8b, 0xac, 0x9d, 0xbe,
  0x90, 0xa2, 0xb8, 0xbf, 0x39, 0x70, 0x18, 0x3f, 0x5c, 0xd7, 0x16, 0x3f,
  0x04, 0xcd, 0x25, 0x3f, 0x26, 0x31, 0x1c, 0x3b, 0x87, 0x6d, 0xf8, 0xbd,
  0x18, 0xda, 0x59, 0xc0, 0x0b, 0xe3, 0xdb, 0xbe, 0x42, 0x09, 0xc5, 0xbf,
  0x99, 0x0b, 0x8b, 0xbf, 0xfd, 0x39, 0x6e, 0x3f, 0x54, 0x46, 0xd2, 0xbf,
  0xee, 0xc4, 0x8b, 0xbe, 0xbb, 0x94, 0x44, 0x3f, 0xc7, 0x33, 0x5b, 0xbd,
  0xd1, 0x33, 0x12, 0xbf, 0x01, 0x9c, 0xb4, 0x3f, 0xa9, 0xc2, 0xd8, 0xbe,
  0x62, 0x13, 0xf2, 0xbf, 0x98, 0x01, 0x65, 0x3f, 0x87, 0x65, 0x16, 0xc0,
  0xc3, 0x7a, 0x26, 0xbf, 0x6d, 0x1e, 0x9f, 0xbd, 0x8e, 0x35, 0x06, 0x3f,
  0x2f, 0x87, 0x01, 0xbf, 0x2e, 0x83, 0x86, 0x3f, 0xe4, 0x4c, 0x0e, 0xbe,
  0x00, 0xa0, 0x0f, 0xbf, 0x2f, 0xe0, 0xa5, 0xbf, 0xbf, 0x70, 0x97, 0x3e,
  0x9e, 0x1b, 0x76, 0xc0, 0x78, 0xb2, 0x8f, 0xbf, 0x5d, 0x12, 0x60, 0xbf,
  0xf8, 0xad, 0xac, 0xbf, 0x73, 0xb9, 0xb0, 0x3e, 0x62, 0xfc, 0x35, 0x40,
  0x26, 0x05, 0xd6, 0xbd, 0xb1, 0x73, 0xce, 0xbe, 0x0b, 0x35, 0xe2, 0x3f,
  0x1f, 0x19, 0x3f, 0x3f, 0x08, 0x1d, 0x8f, 0x3f, 0x98, 0x0b, 0x31, 0x3f,
  0xc2, 0x4d, 0xdf, 0xbe, 0x82, 0xf4, 0x0f, 0xc0, 0x78, 0x56, 0xda, 0xbf,
  0xb8, 0x46, 0x88, 0x3f, 0x66, 0x2f, 0xec, 0xbe, 0xe4, 0x66, 0xfe, 0x3e,
  0xac, 0xd7, 0x0c, 0xc0, 0x8f, 0xfb, 0x0b, 0xbf, 0xd6, 0xdc, 0xda, 0x3d,
  0x67, 0x8c, 0x35, 0xc0, 0x2f, 0xbb, 0xcf, 0xbe, 0xdb, 0xef, 0xa0, 0x3f,
  0xed, 0x7b, 0xb7, 0xc0, 0x86, 0xe2, 0x02, 0xbd, 0x5c, 0x9d, 0x1a, 0xbf,
  0xfd, 0x48, 0x93, 0xbf, 0x1a, 0xb8, 0x9c, 0x3f, 0x45, 0x16, 0x63, 0xbf,
  0xe6, 0x25, 0x7f, 0x3e, 0xb8, 0x86, 0x3f, 0x3f, 0x8d, 0xb1, 0x01, 0xbf,
  0x1f, 0xb5, 0x51, 0x3f, 0xca, 0xa0, 0xee, 0xbc, 0xc7, 0x5c, 0xea, 0xbf,
  0x58, 0x3a, 0x51, 0x3f, 0xac, 0x4e, 0x17, 0xc0, 0x8b, 0x1f, 0xa6, 0xbe,
  0x93, 0xbc, 0x11, 0xc0, 0x42, 0x66, 0xbe, 0xbf, 0xac, 0x89, 0x25, 0x3f,
  0xa7, 0xf1, 0x80, 0xbf, 0x79, 0x21, 0x23, 0xbe, 0x36, 0xcd, 0xc4, 0xbf,
  0x89, 0xe2, 0xe3, 0x3e, 0x75, 0x5a, 0x47, 0x40, 0xf4, 0xda, 0x91, 0xc0,
  0xf4, 0x10, 0x51, 0xbf, 0xa0, 0x7a, 0x64, 0x3d, 0x91, 0xaf, 0x89, 0xbf,
  0xc4, 0xaf, 0xa5, 0x3f, 0x8c, 0xae, 0xbe, 0x3e, 0x6a, 0x44, 0x78, 0xc0,
  0xd6, 0x9d, 0x26, 0xbe, 0x78, 0x28, 0x25, 0x3f, 0x32, 0xcf, 0xba, 0xbf,
  0x86, 0x9b, 0x22, 0xbf, 0x0f, 0x9d, 0x44, 0xbf, 0x6d, 0x4e, 0x82, 0xbf,
  0x43, 0xe9, 0xb9, 0xc0, 0xbf, 0xee, 0xa3, 0xbf, 0xcf, 0xf9, 0xc4, 0x3f,
  0x51, 0x2d, 0x29, 0xbe, 0x64, 0x95, 0x28, 0xbe, 0xcc, 0xdb, 0x33, 0x3f,
  0x42, 0xc7, 0x09, 0x3d, 0x8a, 0x99, 0x0a, 0xc0, 0x5c, 0xcf, 0xaa, 0xbf,
  0x07, 0xe1, 0x0d, 0x40, 0xc6, 0x57, 0xe5, 0x3e, 0x31, 0x27, 0x94, 0x40,
  0x23, 0x41, 0xb4, 0x3f, 0xe2, 0x2d, 0x64, 0xbf, 0xb1, 0x1d, 0x76, 0x3f,
  0xb2, 0x9c, 0x38, 0x40, 0xc0, 0x5a, 0xca, 0x3e, 0x5c, 0x27, 0x9a, 0x3f,
  0x69, 0x14, 0x92, 0x3c, 0xd6, 0x94, 0x05, 0xbf, 0xf7, 0xa6, 0x86, 0xbf,
  0x93, 0x3f, 0x56, 0x3d, 0xa9, 0x8e, 0x0f, 0x40, 0x1d, 0xc3, 0x0c, 0xbf,
  0x48, 0x55, 0xa9, 0xbe, 0xe7, 0x11, 0x7d, 0x3f, 0xf0, 0xdb, 0x5b, 0xbe,
  0x7e, 0x57, 0xe6, 0x3d, 0x33, 0x1f, 0x18, 0x3f, 0x19, 0x1e, 0xd8, 0xbf,
  0xad, 0x3a, 0xf3, 0x3e, 0xf9, 0x8c, 0xc1, 0xbf, 0x43, 0xa4, 0x59, 0x3f,
  0xb5, 0x99, 0xf4, 0xbe, 0xc9, 0x1e, 0xa2, 0xbf, 0x69, 0x39, 0xa5, 0xbf,
  0xd9, 0xd8, 0x1d, 0x3f, 0xf2, 0x5b, 0xb0, 0xc0, 0x56, 0xa4, 0xc0, 0x3f,
  0x91, 0x53, 0xac, 0x3f, 0x7c, 0x1b, 0x8b, 0xbf, 0xb7, 0x83, 0xc3, 0x3f,
  0x9c, 0xa5, 0x76, 0xbf, 0x40, 0x8b, 0x7b, 0xc0, 0xc4, 0x14, 0xa1, 0x3f,
  0x2e, 0xc9, 0x00, 0x40, 0xa6, 0xb5, 0x8b, 0xbd, 0x7a, 0x1f, 0x69, 0x40,
  0xd6, 0xfd, 0x49, 0x3f, 0xa0, 0xf9, 0xcc, 0x3f, 0xc2, 0xd6, 0x0e, 0x3f,
  0x27, 0x89, 0x0e, 0x40, 0xd8, 0xc2, 0x76, 0x3f, 0x60, 0xe9, 0xbe, 0xbe,
  0xde, 0x69, 0xa6, 0xbf, 0x1c, 0x2f, 0x13, 0xbf, 0x06, 0x02, 0x42, 0xbf,
  0x67, 0x6f, 0x0f, 0x3f, 0xce, 0x79, 0x76, 0x3f, 0x4d, 0x6f, 0x0d, 0x40,
  0xe3, 0xd8, 0x5e, 0x3f, 0xec, 0xa8, 0x19, 0xbf, 0x01, 0xef, 0xc6, 0x3f,
  0x0f, 0xea, 0x3d, 0xbe, 0xff, 0xc9, 0xa9, 0xbf, 0x71, 0xe0, 0x60, 0xbe,
  0x47, 0x02, 0xf0, 0x3f, 0x74, 0x9a, 0xbe, 0x3f, 0x56, 0xab, 0xc5, 0x3f,
  0xaf, 0xd2, 0x68, 0xc0, 0xd2, 0x2b, 0x4a, 0xbe, 0x8d, 0x92, 0x3d, 0x3f,
  0xd8, 0x87, 0xc8, 0xbf, 0x49, 0x56, 0xdd, 0xbd, 0x51, 0x77, 0xe8, 0xbe,
  0x44, 0x8a, 0xa7, 0xbe, 0x45, 0x45, 0xe2, 0xbf, 0xbf, 0xf4, 0xc5, 0x3e,
  0xa7, 0x94, 0xf7, 0x3e, 0x41, 0x99, 0x83, 0xbe, 0x28, 0x92, 0x6a, 0x3f,
  0x11, 0x22, 0xdc, 0x3e, 0xdf, 0x01, 0x40, 0xc0, 0x87, 0xdb, 0xff, 0x3e,
  0xcf, 0x3b, 0xb8, 0x3e, 0xd5, 0x53, 0x84, 0xbf, 0x10, 0x28, 0x16, 0xbf,
  0x04, 0x15, 0x4a, 0xc0, 0xd8, 0xc5, 0xde, 0x3f, 0x89, 0x0d, 0x51, 0x3f,
  0x31, 0xbc, 0x79, 0x3f, 0x73, 0xef, 0x24, 0xc0, 0xa0, 0xc1, 0xb8, 0x3f,
  0x7c, 0xdf, 0x2a, 0xbe, 0xc8, 0xc2, 0x06, 0x3f, 0xd4, 0x2d, 0xd5, 0xbf,
  0xbb, 0x05, 0xe2, 0x3d, 0x7f, 0xba, 0x86, 0x3f, 0x4e, 0x8d, 0x31, 0x3f,
  0xf6, 0xde, 0x85, 0x3d, 0x3e, 0x04, 0x65, 0x3e, 0x68, 0xe9, 0xde, 0x3f,
  0xfd, 0xc0, 0xdf, 0xbf, 0x57, 0x5d, 0xfd, 0x3e, 0x36, 0x53, 0x67, 0xbf,
  0x2e, 0x30, 0x88, 0x3f, 0x5c, 0xd7, 0x46, 0x3e, 0x6d, 0xe2, 0xa6, 0xbf,
  0x83, 0x8c, 0x64, 0xc0, 0x34, 0xaa, 0x99, 0x3f, 0x50, 0xea, 0x4f, 0xc0,
  0x49, 0x20, 0x8e, 0x3f, 0x28, 0x1b, 0x41, 0xc0, 0xea, 0x94, 0x76, 0xbe,
  0xd9, 0x94, 0xa4, 0xbf, 0xf7, 0xd7, 0x76, 0xbf, 0x99, 0x1b, 0xa3, 0x3f,
  0x96, 0x6b, 0x24, 0xbd, 0x8c, 0x43, 0x35, 0xbf, 0x9b, 0xd8, 0x8f, 0xbf,
  0x63, 0x6a, 0x83, 0x3f, 0xa3, 0x62, 0x46, 0xc0, 0x2d, 0x68, 0x37, 0xc0,
  0x07, 0x1c, 0x21, 0xbe, 0x87, 0x34, 0xb2, 0x3f, 0xed, 0x15, 0x58, 0x3f,
  0x01, 0xf9, 0x6c, 0x3f, 0xf7, 0x9a, 0xa4, 0xbe, 0x7d, 0x77, 0x8c, 0xbf,
  0x24, 0xb9, 0x8f, 0xba, 0xb3, 0xdb, 0xdc, 0x3f, 0x0c, 0x6a, 0xe8, 0xbf,
  0xeb, 0x06, 0x05, 0xc0, 0x0f, 0x37, 0xcc, 0x3f, 0xa4, 0x03, 0xcc, 0xbf,
  0x6d, 0x31, 0x67, 0xbf, 0xb4, 0x8d, 0x00, 0xc0, 0x50, 0x1d, 0xe9, 0xbe,
  0xfd, 0x49, 0x25, 0xc0, 0xe0, 0xa7, 0x2c, 0x40, 0xd5, 0x83, 0x39, 0xc0,
  0xdf, 0x32, 0x91, 0xbf, 0x80, 0xc2, 0x20, 0xbd, 0x5a, 0x03, 0x6b, 0x3e,
  0xb9, 0xa0, 0x0a, 0x3f, 0xa5, 0xda, 0xa9, 0xc0, 0x66, 0x33, 0x39, 0xbf,
  0x5b, 0x8c, 0x28, 0x40, 0x58, 0xc9, 0xe9, 0xbf, 0x23, 0x49, 0x2d, 0x3f,
  0x21, 0x80, 0x35, 0x40, 0x86, 0x0a, 0x66, 0x3f, 0xbe, 0x34, 0xf5, 0xbf,
  0xab, 0x1f, 0xc4, 0x3f, 0x4a, 0xd8, 0xd1, 0x3f, 0x86, 0xae, 0x58, 0xbe,
  0xca, 0xed, 0x24, 0xc0, 0x3e, 0xff, 0x13, 0x3f, 0x04, 0x3b, 0x9c, 0x3d,
  0xfa, 0x12, 0x29, 0xbf, 0x22, 0xa3, 0x2e, 0x3f, 0x15, 0x4d, 0x30, 0x3e,
  0x8a, 0xb0, 0xf9, 0x3d, 0xb9, 0x6c, 0x21, 0xc0, 0x70, 0x0e, 0x13, 0x40,
  0x44, 0xc2, 0xf4, 0xbf, 0x3b, 0xed, 0x86, 0xbe, 0x9b, 0x42, 0x7a, 0x3e,
  0x42, 0xe4, 0xab, 0x3f, 0xd4, 0x9a, 0x26, 0xc0, 0x02, 0x79, 0x96, 0x3e,
  0xb4, 0x4f, 0x8b, 0xc0, 0xe2, 0x5e, 0xed, 0xbf, 0x8c, 0x00, 0xac, 0x3f,
  0x6a, 0x66, 0x5a, 0xbf, 0xc3, 0xcd, 0x81, 0xbf, 0x95, 0xbe, 0xd0, 0xbe,
  0xba, 0x23, 0x39, 0x40, 0x45, 0x6e, 0xb1, 0x3e, 0xa4, 0xac, 0x33, 0xbe,
  0x1e, 0x81, 0x74, 0x3e, 0x1c, 0x21, 0x8a, 0x3f, 0xc9, 0x3d, 0x7b, 0xc0,
  0xbb, 0x0d, 0xb8, 0xc0, 0x2d, 0x26, 0xb1, 0xbe, 0x8d, 0xeb, 0x3c, 0x3e,
  0x9e, 0x37, 0x2f, 0xbf, 0xd4, 0x1e, 0x65, 0xbe, 0xc2, 0xb4, 0x63, 0xbf,
  0x98, 0xf7, 0x8b, 0x3e, 0xe2, 0xcf, 0x6a, 0x3f, 0xf1, 0xdb, 0x95, 0xbe,
  0x00, 0x6f, 0x38, 0xc0, 0x48, 0x1d, 0xa8, 0xbf, 0xf1, 0x15, 0x32, 0x3f,
  0x5f, 0x67, 0x64, 0x3f, 0xfe, 0xfa, 0x40, 0xbf, 0x01, 0x06, 0x76, 0x3f,
  0x7b, 0xa7, 0x82, 0xbf, 0x34, 0xd4, 0xa1, 0x3f, 0xc5, 0x49, 0x13, 0xbf,
  0x75, 0x25, 0x01, 0xc0, 0x72, 0xe7, 0x1b, 0xc0, 0x78, 0xf5, 0xa7, 0xbe,
  0xde, 0xb5, 0xbe, 0x3e, 0xb1, 0x61, 0x85, 0x3e, 0xc6, 0x90, 0xbe, 0x3f,
  0x59, 0xf2, 0x83, 0xbf, 0x02, 0xea, 0x9e, 0xbe, 0xd0, 0x14, 0xb1, 0x3f,
  0x08, 0xb5, 0xbd, 0x3e, 0x68, 0x00, 0x72, 0x3e, 0x49, 0xd9, 0x54, 0xbf,
  0x2f, 0xdd, 0x52, 0x3e, 0x3f, 0xdd, 0x38, 0xbf, 0x89, 0x89, 0x1a, 0x3e,
  0x4c, 0xd4, 0x57, 0xbe, 0x72, 0xb8, 0x80, 0x3f, 0xce, 0x09, 0x87, 0xc0,
  0xd3, 0x86, 0xbb, 0xbe, 0xe8, 0x5a, 0xed, 0xbf, 0x40, 0xd0, 0x38, 0xbe,
  0x4f, 0xd6, 0xe3, 0xbf, 0xe5, 0x11, 0xc8, 0x3f, 0x88, 0xfa, 0xa9, 0x3e,
  0xf5, 0x82, 0xeb, 0xbf, 0x9a, 0x26, 0x9d, 0x3f, 0x64, 0xdf, 0x0b, 0xc0,
  0xf6, 0x12, 0xc8, 0xc0, 0xbb, 0x5e, 0x76, 0x3f, 0x1c, 0x3a, 0x4d, 0xbf,
  0xdc, 0x6e, 0xec, 0xbf, 0xaf, 0xce, 0xe3, 0x3f, 0xb0, 0x16, 0x23, 0xc0,
  0x20, 0x92, 0x35, 0xbf, 0x35, 0x46, 0xd8, 0x3f, 0x89, 0x82, 0xdd, 0xbe,
  0x1c, 0xc8, 0x2e, 0xbf, 0x2d, 0x99, 0x39, 0xbf, 0x75, 0xe3, 0xc0, 0xbf,
  0x85, 0x0f, 0xc1, 0xc0, 0xdc, 0x03, 0x40, 0x3e, 0x26, 0x52, 0x39, 0x3f,
  0x43, 0x07, 0x0d, 0xc0, 0x8d, 0x2d, 0xea, 0xbe, 0x2b, 0x2a, 0x81, 0x3f,
  0xa8, 0x59, 0x48, 0x3f, 0xcc, 0x4a, 0xe9, 0xbf, 0x3d, 0x76, 0xb8, 0x3e,
  0x2b, 0x36, 0x8f, 0xbf, 0x04, 0x97, 0x44, 0xbe, 0x8d, 0x2f, 0xc9, 0x3f,
  0x01, 0xd2, 0x48, 0xc0, 0x72, 0x75, 0x60, 0xbf, 0xf2, 0xcc, 0xa2, 0xbe,
  0x16, 0xad, 0x9e, 0xbf, 0x13, 0x05, 0x6a, 0xc0, 0x76, 0x05, 0x2c, 0xc0,
  0xa7, 0x32, 0xd4, 0x3f, 0x26, 0xd7, 0x24, 0xbe, 0xea, 0xec, 0xc9, 0x3e,
  0x2d, 0x78, 0x21, 0x3f, 0x5e, 0x76, 0x3c, 0x3d, 0xe5, 0xe0, 0xbe, 0xbf,
  0xf6, 0xfb, 0x70, 0xbf, 0x94, 0x04, 0x03, 0xbf, 0xc3, 0xaf, 0x05, 0x3f,
  0x02, 0xeb, 0xab, 0x3f, 0xdf, 0x11, 0x28, 0xbe, 0xc5, 0x5e, 0xa6, 0xbe,
  0x3b, 0x74, 0x2d, 0x3f, 0x25, 0x0c, 0x27, 0x3f, 0xd0, 0x98, 0x09, 0xbd,
  0x6b, 0xc6, 0xe5, 0xbf, 0x73, 0xee, 0x99, 0x3f, 0xae, 0x4a, 0x24, 0x3f,
  0x2d, 0x93, 0xc9, 0xbf, 0xca, 0x6e, 0xd3, 0xbd, 0x96, 0x00, 0x3f, 0xbf,
  0xcf, 0x51, 0x92, 0x3f, 0xa1, 0xa4, 0x67, 0xc0, 0x97, 0x48, 0x63, 0x3f,
  0x71, 0xb5, 0x29, 0x40, 0x49, 0xbc, 0xc6, 0x3f, 0x54, 0x46, 0x0b, 0x40,
  0xea, 0x0e, 0xb5, 0xbf, 0xa6, 0xce, 0xe4, 0x3f, 0x9f, 0xb4, 0x64, 0xbf,
  0x0c, 0x42, 0xc3, 0x3f, 0x6e, 0x69, 0xe3, 0xbe, 0xbb, 0xe3, 0xaa, 0xbf,
  0x7e, 0xa0, 0x05, 0x40, 0x9f, 0x1b, 0x52, 0x3f, 0x61, 0x90, 0xd5, 0xc0,
  0x7c, 0x6a, 0x96, 0x3f, 0x36, 0x72, 0xce, 0x3f, 0xa7, 0xdc, 0xcd, 0x3e,
  0xca, 0x5e, 0xbd, 0x3f, 0xe9, 0xf0, 0xbc, 0x3f, 0x57, 0xd7, 0x20, 0x3e,
  0xbd, 0x90, 0x26, 0x3f, 0x88, 0xb8, 0x61, 0x3e, 0x90, 0x56, 0x4e, 0xbe,
  0x62, 0x2b, 0x65, 0x3f, 0xbe, 0x28, 0xe5, 0xbe, 0xa7, 0xc3, 0xee, 0x3f,
  0x77, 0xa8, 0x05, 0x40, 0x83, 0xd6, 0xc0, 0xbf, 0xee, 0x80, 0xa2, 0x3f,
  0x9b, 0x5a, 0x2c, 0xbf, 0x4e, 0x1a, 0x67, 0xbf, 0xc8, 0xef, 0xd1, 0xbf,
  0x34, 0x99, 0x9e, 0x3f, 0x87, 0x6e, 0x31, 0xc0, 0x90, 0x90, 0xd7, 0xbf,
  0x0c, 0x4b, 0x4d, 0x3e, 0x53, 0x39, 0x01, 0x3f, 0xaa, 0xe2, 0x11, 0x40,
  0x5b, 0x68, 0x9a, 0xc0, 0x65, 0x2f, 0x41, 0xc0, 0x21, 0xe7, 0x64, 0xc0,
  0xe6, 0x4b, 0x3f, 0x40, 0x5b, 0x23, 0xa2, 0x3f, 0x84, 0x7f, 0x3f, 0x3f,
  0x40, 0xff, 0x3e, 0xbd, 0x41, 0xbd, 0x08, 0x3f, 0x06, 0x69, 0x99, 0xbf,
  0x2a, 0xa9, 0x96, 0x3f, 0x3a, 0xf3, 0x86, 0xbf, 0x2c, 0xac, 0x7b, 0x3f,
  0x14, 0x71, 0x5d, 0xbe, 0x3e, 0xed, 0xea, 0x3f, 0xae, 0x47, 0x84, 0xbf,
  0x69, 0xe2, 0xc8, 0xbe, 0x9b, 0xae, 0x2f, 0x3d, 0x07, 0x72, 0x8f, 0x3f,
  0x39, 0x66, 0x19, 0x3c, 0xc7, 0x80, 0x16, 0x3f, 0x49, 0x3c, 0x6d, 0xbe,
  0x1c, 0x97, 0x1c, 0x3f, 0xf0, 0x93, 0x9c, 0xbf, 0x77, 0x97, 0x96, 0x3e,
  0x46, 0x53, 0x85, 0x3e, 0xbc, 0x24, 0xf4, 0x3e, 0xa8, 0x72, 0x80, 0xbe,
  0xf2, 0x1d, 0x04, 0xc0, 0xe0, 0x11, 0xc0, 0x3f, 0x00, 0xf0, 0xe8, 0x3f,
  0x59, 0xc0, 0x57, 0xbd, 0xa8, 0x72, 0x01, 0x40, 0xeb, 0x28, 0xc0, 0x3f,
  0x8a, 0x1c, 0x19, 0x3f, 0x83, 0x3f, 0xce, 0x3f, 0xfe, 0x85, 0x05, 0x3f,
  0x21, 0xc8, 0x06, 0x3e, 0xf2, 0xf0, 0x33, 0xc0, 0xaf, 0xe8, 0xa6, 0xbe,
  0x4d, 0xa4, 0x58, 0xc0, 0x38, 0x62, 0x56, 0xbf, 0x2d, 0xcc, 0x15, 0xbf,
  0xd1, 0x54, 0xdd, 0xbf, 0xc1, 0x01, 0x24, 0xbf, 0x8f, 0x5a, 0x20, 0x40,
  0x23, 0x92, 0x53, 0x3f, 0xc5, 0x6c, 0x44, 0xbf, 0x48, 0x32, 0xca, 0xbf,
  0x3b, 0x86, 0x66, 0x3f, 0x1d, 0x3c, 0x22, 0x3e, 0x04, 0xb8, 0x03, 0x40,
  0xd7, 0x96, 0x1c, 0xc0, 0x63, 0xad, 0xa2, 0xbf, 0xe7, 0x5e, 0xaa, 0x3f,
  0x72, 0xaa, 0xa9, 0x3f, 0xdf, 0x83, 0x54, 0xc0, 0x60, 0x0c, 0x91, 0xbe,
  0x59, 0x81, 0x40, 0xc0, 0x64, 0x47, 0x0b, 0xc0, 0xfa, 0xb0, 0xa0, 0x3f,
  0xa1, 0xd4, 0x3d, 0x40, 0xd7, 0xd9, 0x99, 0x3e, 0xf2, 0x30, 0x91, 0xbf,
  0x1f, 0xaa, 0xa6, 0x3f, 0xd2, 0x98, 0xb6, 0x3d, 0x79, 0x64, 0xbd, 0x3f,
  0x0d, 0x33, 0xd7, 0x3e, 0xa7, 0x52, 0xc3, 0xbe, 0xb2, 0xb2, 0x41, 0xc0,
  0xe7, 0x70, 0xc1, 0xbf, 0x7b, 0xe3, 0x61, 0x3f, 0x04, 0x88, 0x29, 0xbf,
  0x0e, 0x52, 0x44, 0xbf, 0x4b, 0x0f, 0x14, 0xc0, 0xe5, 0x4a, 0x79, 0xbf,
  0xeb, 0xdc, 0x56, 0x40, 0xba, 0xb2, 0xbd, 0x3e, 0x47, 0xb1, 0x06, 0xc0,
  0xfa, 0x90, 0xc7, 0x3f, 0x21, 0x3a, 0x60, 0xbf, 0xfe, 0xe1, 0xa0, 0xbd,
  0xd3, 0x71, 0x98, 0x3f, 0x1c, 0x6f, 0x8f, 0xbf, 0x66, 0x34, 0xd8, 0xbf,
  0xb1, 0x74, 0x93, 0xbe, 0x98, 0x43, 0x7b, 0xbf, 0x5f, 0x93, 0x24, 0x3e,
  0x94, 0xdd, 0x0d, 0x3e, 0xee, 0xc1, 0xd3, 0xc0, 0x30, 0x5f, 0xa1, 0xbf,
  0xdd, 0x0b, 0x15, 0x40, 0xfc, 0x21, 0xa3, 0x3e, 0x22, 0xf5, 0x7b, 0xbf,
  0xa3, 0xa6, 0x40, 0x3f, 0xa3, 0xb0, 0x99, 0xbf, 0x5e, 0xe7, 0x30, 0xbe,
  0x2f, 0x97, 0x50, 0xc0, 0x31, 0xbb, 0x1f, 0x3f, 0xf4, 0x1e, 0x40, 0xbe,
  0x39, 0xd1, 0x0c, 0x3f, 0xf4, 0x7a, 0x1a, 0x3f, 0x85, 0x68, 0x87, 0x3e,
  0x07, 0x66, 0x40, 0xbf, 0x0d, 0x24, 0xc7, 0x3f, 0x5c, 0xc3, 0xef, 0xbe,
  0x2e, 0xcb, 0xaf, 0xbf, 0xb7, 0xde, 0x8f, 0xbe, 0x1a, 0x12, 0x1f, 0xc0,
  0x05, 0xc2, 0xc2, 0xba, 0x8d, 0x9c, 0x84, 0x3e, 0x00, 0xda, 0xa3, 0xbe,
  0xf5, 0xcd, 0x7c, 0x3f, 0x3f, 0x87, 0x42, 0xbf, 0x92, 0x60, 0xae, 0xbf,
  0xea, 0x76, 0x22, 0xc0, 0xb4, 0x4d, 0x8d, 0x3f, 0x00, 0x1d, 0xcb, 0x3c,
  0x18, 0xfa, 0xfd, 0xbe, 0x66, 0xf4, 0x8c, 0xbf, 0xa0, 0x58, 0xd6, 0xbe,
  0x07, 0xd4, 0xd2, 0x3e, 0x7f, 0x53, 0x02, 0x3e, 0x99, 0x0e, 0x0e, 0xc0,
  0xa3, 0xac, 0x9a, 0xbf, 0x52, 0x35, 0xea, 0x3e, 0x58, 0xa3, 0xb6, 0xbe,
  0xa8, 0x82, 0x92, 0xbf, 0x24, 0xa4, 0x88, 0xbf, 0x04, 0x77, 0x25, 0x40,
  0x3a, 0x88, 0x4e, 0x3f, 0xed, 0x51, 0x08, 0x3f, 0xf3, 0x95, 0x6f, 0xc0,
  0x77, 0x72, 0xd5, 0x3f, 0x67, 0x50, 0xdf, 0xbc, 0x18, 0xfb, 0x2b, 0xbf,
  0xaa, 0xaa, 0x51, 0xbf, 0x55, 0xe9, 0x37, 0xbf, 0x6b, 0xe1, 0x8d, 0x3e,
  0x21, 0xc1, 0x85, 0xc0, 0xd6, 0xc3, 0xe7, 0x3d, 0x4a, 0x7e, 0x82, 0xbf,
  0x26, 0x44, 0xe1, 0x3e, 0x7e, 0xb8, 0x25, 0xbf, 0x2a, 0x1a, 0x2b, 0xbf,
  0x51, 0xa4, 0xa2, 0x3e, 0x51, 0xf5, 0x6c, 0x3f, 0xe8, 0x37, 0x87, 0x3f,
  0xe4, 0x2f, 0x98, 0xc0, 0xd1, 0x52, 0x80, 0xc0, 0xb2, 0xd4, 0xaf, 0xbe,
  0x8d, 0x1f, 0x27, 0x3e, 0x3b, 0x5d, 0xe6, 0xbf, 0x59, 0x85, 0xa3, 0xbf,
  0xad, 0x47, 0xce, 0xbf, 0xfd, 0xaf, 0xbb, 0xbc, 0xe3, 0x4b, 0xd0, 0x3f,
  0x54, 0x4e, 0xc2, 0x3d, 0xd6, 0x59, 0x5e, 0xbe, 0x96, 0xf8, 0x8c, 0x3f,
  0xc0, 0x44, 0xb0, 0x3f, 0xf1, 0xc4, 0x65, 0xbf, 0x2b, 0x46, 0x94, 0x3c,
  0xa6, 0x84, 0x97, 0x3f, 0xc4, 0x2d, 0xbe, 0xbe, 0xcb, 0x64, 0x4f, 0x3e,
  0x55, 0x89, 0xf3, 0xbf, 0xd8, 0xaa, 0x3c, 0x3f, 0xd5, 0x4f, 0x59, 0xbf,
  0xdb, 0x61, 0xf2, 0xbf, 0x94, 0xf6, 0x3c, 0x3f, 0x7e, 0x1e, 0xe0, 0x3f,
  0xd6, 0x49, 0x31, 0xbf, 0x5b, 0x41, 0x23, 0x3e, 0xa9, 0xfb, 0x2a, 0xc0,
  0x5c, 0xe6, 0xdf, 0xbf, 0x20, 0x3e, 0xcf, 0x3f, 0x8d, 0x1d, 0x32, 0xc0,
  0x62, 0xee, 0x82, 0xc0, 0xff, 0x80, 0xef, 0xbf, 0x9b, 0xfe, 0x15, 0x40,
  0xce, 0x95, 0x41, 0x40, 0xc6, 0x6e, 0x1c, 0xc0, 0x33, 0x71, 0x97, 0x3e,
  0x0b, 0xf0, 0xfa, 0xbc, 0x93, 0x58, 0x81, 0xbf, 0xd0, 0xcb, 0xb1, 0x3f,
  0xb6, 0xe7, 0x6f, 0x3f, 0xba, 0x05, 0xb3, 0xbf, 0x9e, 0x69, 0x68, 0x3e,
  0xdc, 0x8f, 0x2b, 0xc0, 0xd0, 0x10, 0x79, 0x3f, 0x5b, 0x61, 0xac, 0xbf,
  0xde, 0x9d, 0xb8, 0x3c, 0xba, 0xca, 0x79, 0x3f, 0x0e, 0x1a, 0x98, 0xbe,
  0x59, 0xda, 0xc5, 0x3e, 0x65, 0x28, 0x00, 0xbe, 0x94, 0x52, 0x2b, 0x3f,
  0x70, 0x3d, 0x22, 0x3f, 0x8a, 0x0e, 0x90, 0x3f, 0x04, 0x27, 0xc8, 0x3f,
  0x0e, 0x28, 0xbf, 0xba, 0x33, 0xb8, 0xb6, 0xc0, 0x83, 0xc3, 0x6e, 0xbd,
  0xde, 0x86, 0xf1, 0xbf, 0xce, 0xfa, 0xa5, 0x3f, 0x2e, 0x95, 0xc5, 0xbe,
  0x2f, 0xfe, 0x96, 0xbf, 0x95, 0x5c, 0xbc, 0x3f, 0xcb, 0x8b, 0x54, 0x3f,
  0xc6, 0x1c, 0x06, 0xbf, 0x2a, 0xf2, 0x95, 0xbf, 0xef, 0xf2, 0x27, 0xc0,
  0x95, 0x75, 0x8b, 0xbf, 0x29, 0x06, 0xdb, 0xbf, 0x2e, 0x08, 0x6c, 0x3e,
  0x23, 0xc4, 0xde, 0xbf, 0xa5, 0x22, 0xe3, 0x3f, 0xe8, 0x4b, 0x3d, 0xc0,
  0xba, 0x07, 0xa6, 0xbd, 0x78, 0xab, 0x13, 0xbf, 0xe0, 0x67, 0x8c, 0x3f,
  0x62, 0x74, 0xb1, 0x3f, 0x3f, 0xe0, 0xbf, 0xbe, 0x17, 0x1c, 0x8e, 0x3f,
  0x1d, 0x2c, 0xcf, 0x3f, 0x29, 0x10, 0x0c, 0x40, 0x8a, 0x5e, 0x59, 0xc0,
  0x83, 0x49, 0x8c, 0xbf, 0x47, 0xfb, 0x20, 0x3e, 0x16, 0x48, 0x1e, 0xbf,
  0xb3, 0xac, 0xa5, 0xbf, 0x06, 0xa7, 0x93, 0x3f, 0xb0, 0x87, 0x95, 0xbe,
  0x37, 0x75, 0x89, 0x3f, 0x48, 0xb7, 0xd6, 0x3e, 0x3b, 0xc4, 0xa0, 0x3f,
  0xdf, 0x6f, 0x6d, 0x3f, 0x56, 0x99, 0xfd, 0xbf, 0xaa, 0x40, 0xd3, 0x3d,
  0x81, 0xd2, 0x13, 0x3f, 0x84, 0x72, 0x4f, 0xbf, 0x48, 0x87, 0x14, 0x40,
  0xa0, 0xb4, 0xe3, 0x3e, 0xb8, 0x43, 0x08, 0xbf, 0x56, 0x1f, 0xba, 0xbf,
  0x0b, 0x9a, 0xca, 0x3f, 0xab, 0xc2, 0xe9, 0xbe, 0x34, 0x45, 0x80, 0xc0,
  0xd4, 0xc7, 0x34, 0xc0, 0x69, 0x60, 0xa8, 0x3e, 0x95, 0x9a, 0xc7, 0x3c,
  0xcc, 0x93, 0x20, 0x40, 0xe9, 0x71, 0x56, 0xbf, 0xc4, 0x74, 0x0e, 0xc0,
  0x9d, 0xa5, 0x4f, 0x3f, 0xc3, 0x0f, 0x70, 0xbf, 0xf3, 0x12, 0x91, 0xc0,
  0x83, 0x9b, 0x4d, 0xc0, 0xf5, 0xa5, 0xf9, 0x3e, 0x99, 0x2a, 0x3c, 0x40,
  0x22, 0x8b, 0x66, 0xbf, 0xc0, 0x56, 0x24, 0x40, 0x56, 0xfb, 0x31, 0x3e,
  0xaf, 0xdd, 0x07, 0x3f, 0x39, 0x31, 0x1a, 0xbe, 0x10, 0xca, 0xdb, 0xbe,
  0x40, 0xca, 0x85, 0xbf, 0xa9, 0xbd, 0x35, 0xbf, 0x50, 0xa6, 0x51, 0x40,
  0x70, 0x3c, 0x3b, 0x3e, 0x34, 0x61, 0xf2, 0xbe, 0x17, 0xb5, 0x82, 0x40,
  0x2e, 0x9d, 0x0b, 0x3f, 0x4a, 0x1a, 0x10, 0x40, 0x20, 0xd0, 0x20, 0xbf,
  0xe7, 0xfb, 0xe5, 0x3f, 0x02, 0xbf, 0xa9, 0x3f, 0x21, 0xb6, 0xeb, 0xbf,
  0x86, 0x38, 0xfe, 0x3e, 0xbc, 0x3e, 0x50, 0xbf, 0x86, 0xf1, 0x98, 0x3f,
  0xf5, 0xd2, 0xfc, 0xbf, 0x13, 0xf5, 0xad, 0x3e, 0x0a, 0x2f, 0xa0, 0x40,
  0x7f, 0xcb, 0x63, 0x3f, 0x01, 0x17, 0x10, 0x40, 0x1f, 0xc1, 0xa8, 0xbe,
  0x49, 0xa9, 0xeb, 0x3f, 0xb9, 0x39, 0x1f, 0x3f, 0x36, 0x75, 0x36, 0xc1,
  0x14, 0xb9, 0x0f, 0x40, 0xb6, 0x90, 0x2e, 0xc0, 0x6f, 0x28, 0x15, 0xbf,
  0x57, 0xa7, 0x83, 0x40, 0x4a, 0x31, 0xf7, 0xbf, 0x9f, 0x0d, 0x52, 0xbf,
  0x77, 0xa9, 0x65, 0x3f, 0xe5, 0xc2, 0x90, 0xbd, 0x00, 0x4e, 0xf3, 0x3e,
  0xc9, 0xff, 0xd0, 0xbf, 0x80, 0x92, 0xaa, 0xbf, 0xcb, 0x7e, 0xb9, 0x3f,
  0x5f, 0xf5, 0x35, 0xbf, 0x2e, 0xc5, 0xf6, 0xbf, 0xa2, 0x61, 0xfb, 0xbf,
  0xc8, 0x15, 0x94, 0xc0, 0xee, 0x71, 0xc2, 0x3f, 0x88, 0x01, 0x56, 0xc0,
  0xca, 0x34, 0xa4, 0xbf, 0x95, 0xb9, 0x5e, 0x40, 0xcc, 0x0c, 0x8c, 0xc0,
  0x89, 0x50, 0xab, 0xbf, 0x40, 0x55, 0x85, 0xbf, 0x41, 0x38, 0x79, 0x3f,
  0xad, 0x38, 0xa3, 0xbf, 0x4e, 0x72, 0xaa, 0x3f, 0xd4, 0x11, 0x4b, 0x3f,
  0x79, 0xd2, 0x82, 0xbe, 0x24, 0xe3, 0xd7, 0xbe, 0x94, 0x8a, 0xde, 0xbe,
  0x58, 0x34, 0x79, 0xbd, 0x2f, 0xab, 0x5a, 0x3d, 0xcb, 0xa8, 0x67, 0xbf,
  0x93, 0x86, 0x46, 0xbf, 0x82, 0xe3, 0x68, 0xbf, 0x22, 0xba, 0x00, 0xc0,
  0xfe, 0x31, 0x8e, 0x3e, 0xc4, 0x92, 0x69, 0x3f, 0xb8, 0x81, 0x0f, 0xbe,
  0xb5, 0xdf, 0x98, 0x3e, 0x6f, 0xa2, 0x91, 0x3f, 0xd5, 0x22, 0x17, 0x40,
  0x39, 0x52, 0x04, 0xbd, 0xcb, 0x2c, 0x1b, 0x40, 0x15, 0x6f, 0xe0, 0x3e,
  0x69, 0x8f, 0x81, 0xbf, 0xcb, 0x58, 0xaa, 0x3f, 0xf8, 0x16, 0x0c, 0x3e,
  0x0a, 0x12, 0xfb, 0xbe, 0xa2, 0x19, 0x7b, 0x3f, 0x71, 0x88, 0x46, 0x3e,
  0x0b, 0x20, 0xf2, 0xbe, 0x55, 0xdc, 0x59, 0xc0, 0x51, 0xc9, 0xa5, 0xbe,
  0x29, 0x8e, 0x34, 0x40, 0x62, 0x2e, 0xab, 0xbd, 0x84, 0xfc, 0x06, 0x3f,
  0x83, 0xe2, 0x0c, 0x3e, 0x7a, 0x03, 0x05, 0xbf, 0xe4, 0x74, 0x4a, 0x3f,
  0x9d, 0x12, 0x85, 0x3e, 0xe3, 0x50, 0x09, 0xbd, 0x74, 0x5b, 0xea, 0x3e,
  0xbd, 0xb5, 0x34, 0x3e, 0xa2, 0xc3, 0x51, 0x3f, 0xd8, 0x78, 0x8e, 0x3f,
  0x87, 0xd1, 0x43, 0x40, 0x2f, 0x7a, 0x19, 0xbf, 0x20, 0xec, 0x46, 0xbf,
  0x84, 0xd5, 0x36, 0x3e, 0x34, 0x08, 0xb6, 0xbf, 0x8a, 0x74, 0xea, 0x3e,
  0x7f, 0x53, 0xb4, 0xbc, 0xb4, 0x30, 0xbc, 0x3f, 0xa7, 0x16, 0x8b, 0xbf,
  0x42, 0x24, 0x54, 0x3d, 0x64, 0xcd, 0x12, 0x3f, 0x15, 0xa6, 0x25, 0xbf,
  0x57, 0x1f, 0x9a, 0xbf, 0xcf, 0x6c, 0x4c, 0x3f, 0xac, 0xb6, 0x2e, 0x3f,
  0xb7, 0xda, 0xda, 0x3e, 0x2a, 0xad, 0x71, 0xc0, 0x13, 0xee, 0x99, 0x3d,
  0x91, 0x32, 0x51, 0x3f, 0x2f, 0xdd, 0x51, 0x3e, 0x29, 0x23, 0x06, 0x3f,
  0x76, 0xac, 0x04, 0xbf, 0x54, 0x3c, 0x07, 0x3f, 0x1d, 0xb0, 0x75, 0xbe,
  0x10, 0xbf, 0x06, 0xbf, 0xec, 0x36, 0xa4, 0x3f, 0xb2, 0x6b, 0xb6, 0xbc,
  0xbf, 0xfb, 0xa6, 0x3f, 0x37, 0xd0, 0x26, 0xbf, 0x14, 0x9e, 0x36, 0xbe,
  0x5e, 0xc8, 0x4c, 0xbf, 0xd9, 0x94, 0xa3, 0xbf, 0x0b, 0x8e, 0x13, 0x3e,
  0xe1, 0xf8, 0x18, 0x3f, 0xd6, 0xab, 0x04, 0xc0, 0xe8, 0x42, 0xd9, 0xbf,
  0x4d, 0x30, 0x02, 0x3f, 0x7b, 0x87, 0x8a, 0x3d, 0x79, 0x1c, 0x03, 0x3f,
  0x73, 0x90, 0xb9, 0xbf, 0xcc, 0xd7, 0xe5, 0xbf, 0x06, 0x75, 0x57, 0xbf,
  0xed, 0x8e, 0x32, 0x3f, 0x2e, 0xba, 0x91, 0xbf, 0x32, 0x0b, 0x65, 0x3f,
  0x18, 0xf2, 0xfd, 0xbf, 0x81, 0x9f, 0x78, 0x3e, 0xbf, 0x31, 0x2b, 0xbf,
  0x7d, 0x9d, 0xcf, 0x3d, 0x1f, 0xbf, 0x40, 0x3e, 0x67, 0x1a, 0x0f, 0xbe,
  0x3b, 0x92, 0xa4, 0xbe, 0xde, 0xb4, 0xe1, 0xbf, 0x99, 0xd8, 0xb7, 0x3f,
  0xf2, 0x8e, 0xf7, 0xbf, 0xe0, 0xf6, 0x3c, 0x3d, 0x36, 0x02, 0x84, 0x3f,
  0x16, 0xfc, 0xf6, 0xbf, 0xfc, 0x8e, 0xab, 0xbe, 0x0d, 0x4a, 0xd3, 0x3f,
  0xa0, 0x31, 0x42, 0xc0, 0x3c, 0x0f, 0xb7, 0x3f, 0x10, 0x8f, 0xb7, 0x3f,
  0x74, 0xae, 0x02, 0x40, 0x27, 0xb3, 0x15, 0x3e, 0x49, 0x48, 0xab, 0x3f,
  0x54, 0x1a, 0x04, 0x40, 0x7a, 0xee, 0xf1, 0x3d, 0xd7, 0x3b, 0x77, 0xbf,
  0xba, 0x46, 0x11, 0x3f, 0xf7, 0xe6, 0x23, 0xc0, 0xc0, 0xe7, 0xe2, 0x3e,
  0x0b, 0x77, 0xc3, 0x3f, 0x1f, 0x38, 0x54, 0x3f, 0x03, 0x44, 0x32, 0x3f,
  0x4f, 0xd8, 0x06, 0x40, 0xfc, 0x97, 0xc4, 0xbf, 0xf8, 0xe2, 0x9f, 0xbd,
  0x0d, 0xda, 0xf7, 0xbf, 0x12, 0xfb, 0xcf, 0x3f, 0xb4, 0xc2, 0xb1, 0x3e,
  0x24, 0x77, 0xf4, 0x3d, 0x79, 0x8b, 0xd9, 0x3f, 0x84, 0x57, 0x10, 0x3f,
  0x68, 0x0f, 0x0f, 0x3f, 0x7d, 0x7d, 0x05, 0xc1, 0x3b, 0x62, 0x57, 0x3b,
  0xb3, 0xb2, 0x84, 0x3d, 0x27, 0xe3, 0x0f, 0xbf, 0x69, 0x2b, 0xdc, 0x3e,
  0x26, 0xa1, 0x8d, 0x3e, 0x99, 0x9f, 0xbd, 0x3e, 0xde, 0xf7, 0x14, 0x40,
  0xff, 0xeb, 0x90, 0x3f, 0x93, 0x1f, 0x18, 0xc0, 0x9a, 0xb9, 0x89, 0xbf,
  0xa3, 0xcc, 0x0d, 0xbe, 0x31, 0x97, 0x16, 0x40, 0x8e, 0x2a, 0x44, 0xc0,
  0xed, 0xa5, 0x00, 0x3f, 0xe8, 0x3c, 0x44, 0xbf, 0x95, 0xd3, 0xdc, 0x3f,
  0x26, 0xd7, 0x11, 0x3e, 0x7f, 0x00, 0xb3, 0xbe, 0x15, 0x4b, 0x7b, 0xbf,
  0x23, 0x86, 0x0c, 0x40, 0xfd, 0xd4, 0x02, 0xbf, 0xaa, 0xbc, 0x2a, 0xbe,
  0xe6, 0xf1, 0x8f, 0x3f, 0xa3, 0xe6, 0xfc, 0x3d, 0x9c, 0x76, 0x27, 0xbd,
  0x87, 0x2f, 0x13, 0xbf, 0x66, 0x8c, 0x55, 0xc0, 0xac, 0xf2, 0xe5, 0x3e,
  0x11, 0xad, 0x1d, 0xbf, 0x33, 0xc8, 0x45, 0xc0, 0x90, 0xc7, 0xb8, 0xbf,
  0x44, 0x9d, 0xc3, 0x3f, 0xeb, 0xb6, 0xe2, 0x3e, 0x78, 0xbc, 0xd0, 0xbe,
  0xd2, 0x2e, 0x58, 0xc0, 0x3f, 0x45, 0xdb, 0xbf, 0xa1, 0xbb, 0x81, 0xbd,
  0xc6, 0x57, 0x26, 0xc0, 0x1d, 0x11, 0x73, 0xc0, 0x59, 0xba, 0xef, 0xbf,
  0x4f, 0x80, 0xc1, 0x3f, 0x29, 0x27, 0x2d, 0x3e, 0x33, 0x00, 0xa3, 0x3f,
  0x0b, 0x2e, 0x88, 0xbf, 0x1e, 0x26, 0x95, 0x3f, 0x1d, 0xb7, 0xd0, 0xbf,
  0xc3, 0x99, 0x4c, 0x3f, 0x50, 0xcf, 0x61, 0xbf, 0xf5, 0x67, 0x01, 0xbf,
  0xfb, 0x15, 0x10, 0x3e, 0x98, 0x78, 0x46, 0x3f, 0xa7, 0xfc, 0xc2, 0x3d,
  0xce, 0xa9, 0x24, 0xbe, 0x95, 0xe8, 0xc8, 0xbd, 0xce, 0x71, 0x3f, 0xbf,
  0x7f, 0x7c, 0xba, 0x3f, 0x15, 0x83, 0x05, 0x3f, 0x92, 0xc8, 0x4f, 0xbf,
  0x27, 0x60, 0xbd, 0xbe, 0x07, 0x71, 0x82, 0xbf, 0x7e, 0xa8, 0x2f, 0x3f,
  0x5c, 0x3c, 0xd5, 0x3f, 0xa6, 0xe6, 0xa2, 0x3f, 0x6b, 0x73, 0xdf, 0x3e,
  0x6b, 0x17, 0x8b, 0x3f, 0x04, 0xf5, 0xeb, 0xbf, 0x8a, 0x07, 0x8a, 0x3e,
  0xb4, 0xcd, 0xea, 0xbe, 0xf3, 0xd0, 0x97, 0x3e, 0xbc, 0xee, 0x1e, 0xbe,
  0xa4, 0xc5, 0x97, 0xbf, 0x0f, 0x30, 0x46, 0x3f, 0x14, 0x44, 0x1f, 0xc0,
  0x50, 0x0e, 0x85, 0x3f, 0x16, 0xd7, 0x71, 0x3f, 0x44, 0xc5, 0x1c, 0xc0,
  0x2e, 0xd4, 0xea, 0x3f, 0xe3, 0xba, 0x06, 0x3f, 0xfa, 0x55, 0xa8, 0x3f,
  0x32, 0x6f, 0x00, 0xc0, 0xf7, 0x18, 0xcb, 0xbe, 0xc2, 0xa1, 0xec, 0x3e,
  0x8f, 0x35, 0xf6, 0x3e, 0xb2, 0xca, 0x28, 0xbe, 0xed, 0xb5, 0xb1, 0x3e,
  0x74, 0x64, 0x83, 0xbe, 0x39, 0x36, 0x06, 0x40, 0x17, 0xb8, 0x5b, 0x3d,
  0x00, 0x66, 0x2f, 0x3e, 0x97, 0x39, 0xcf, 0xbf, 0xeb, 0x65, 0xc8, 0xbf,
  0x05, 0xc7, 0xad, 0x3f, 0xe3, 0xc9, 0x92, 0xc0, 0x50, 0xc4, 0xad, 0xbe,
  0x4b, 0x0f, 0x79, 0xbf, 0xac, 0x94, 0x9a, 0xbc, 0x46, 0x8d, 0x06, 0xc0,
  0xa5, 0xc3, 0xd9, 0x3e, 0xe9, 0x96, 0x8f, 0x3f, 0xb7, 0x4a, 0xa7, 0x3f,
  0xa6, 0x47, 0x71, 0x3e, 0xf1, 0x12, 0x04, 0x3f, 0x90, 0xad, 0xb9, 0x3f,
  0xd0, 0xbe, 0xc7, 0x3f, 0xe7, 0x00, 0x1b, 0x40, 0x32, 0xc5, 0x58, 0x3f,
  0xd5, 0xbb, 0x75, 0xbf, 0x3d, 0x94, 0xa8, 0x3f, 0xb3, 0x86, 0xe0, 0x3e,
  0x73, 0xf1, 0xbc, 0x3f, 0xe6, 0xff, 0x00, 0x40, 0xe6, 0x11, 0x2b, 0xc0,
  0x0b, 0x8d, 0x4c, 0xbf, 0x67, 0x4c, 0xee, 0x3f, 0x76, 0xef, 0x22, 0x3f,
  0x72, 0x9b, 0x50, 0x3e, 0x0c, 0x29, 0x42, 0xbe, 0xf1, 0x3b, 0x12, 0x40,
  0xaa, 0x08, 0xbf, 0x3d, 0xd2, 0xec, 0x12, 0xc0, 0x00, 0xed, 0x13, 0xbf,
  0xeb, 0xbd, 0x43, 0xc0, 0xc7, 0xd7, 0xdd, 0xbf, 0xec, 0x38, 0x26, 0x40,
  0xcf, 0xa9, 0xac, 0x3e, 0x0c, 0xa6, 0x70, 0xbf, 0xad, 0x9d, 0x8a, 0xbf,
  0xdd, 0xa4, 0x2f, 0xc0, 0x54, 0x94, 0x11, 0x40, 0xe9, 0xe8, 0xd2, 0xbf,
  0xd3, 0x01, 0x54, 0xbf, 0x53, 0x93, 0x0b, 0x40, 0x17, 0x91, 0x01, 0x3f,
  0x68, 0xb2, 0x41, 0xbe, 0x83, 0x04, 0x55, 0x3f, 0x49, 0xca, 0x30, 0xc1,
  0xed, 0xfe, 0xa5, 0x3f, 0x54, 0x00, 0x4c, 0xbf, 0x85, 0x02, 0xcd, 0xbf,
  0x1d, 0x6b, 0x2e, 0x40, 0xdb, 0xf2, 0xed, 0xbf, 0x56, 0x06, 0x93, 0xbf,
  0xb5, 0x3f, 0x90, 0xc0, 0x2d, 0xba, 0x67, 0xbf, 0xd6, 0xde, 0x65, 0xc0,
  0x31, 0x68, 0x33, 0xbf, 0xc1, 0xfa, 0xe4, 0xbf, 0x5f, 0xd7, 0x0e, 0xbf,
  0xfd, 0x87, 0xb1, 0xbf, 0x01, 0xfa, 0x3a, 0x3f, 0x7b, 0x39, 0x93, 0xbf,
  0xc9, 0x12, 0x36, 0xbe, 0x60, 0x8f, 0x47, 0x3f, 0x55, 0x52, 0x02, 0x3f,
  0x25, 0xb4, 0x42, 0x3f, 0x4a, 0xe3, 0x21, 0xbf, 0x65, 0x61, 0x7e, 0x3f,
  0x73, 0x0f, 0xbe, 0x3f, 0x3b, 0x65, 0xa6, 0x3f, 0x63, 0xb3, 0xab, 0x3f,
  0x76, 0x24, 0x51, 0x3f, 0x6c, 0xfd, 0x0c, 0x40, 0xc3, 0xf0, 0x81, 0xbe,
  0x88, 0x58, 0x00, 0x3f, 0x0b, 0xe7, 0x0b, 0xbf, 0xb7, 0xed, 0x39, 0x3e,
  0xaf, 0xeb, 0x6f, 0xbe, 0x91, 0x9e, 0x90, 0x3f, 0xdb, 0x8f, 0x44, 0x40,
  0xad, 0x6a, 0x25, 0xbe, 0x01, 0x03, 0x79, 0x3f, 0x3c, 0xf1, 0x49, 0xc0,
  0x93, 0x40, 0xa2, 0xc0, 0x63, 0x01, 0x9a, 0x3f, 0xea, 0x03, 0xa2, 0x3f,
  0x96, 0xbd, 0x2c, 0xc0, 0x94, 0x04, 0x92, 0x3e, 0x00, 0x26, 0x88, 0x3f,
  0xe1, 0xf8, 0xa2, 0xbf, 0xce, 0x56, 0xde, 0xbe, 0x12, 0x6e, 0xfe, 0x3d,
  0x82, 0xdf, 0xae, 0x3e, 0x4e, 0x6b, 0xdb, 0x3f, 0x96, 0x65, 0x0b, 0x3f,
  0xee, 0x0d, 0x6f, 0x3f, 0x37, 0x07, 0x25, 0x3f, 0x92, 0x4a, 0x3b, 0x3f,
  0xa0, 0x7d, 0x7c, 0x3f, 0x6c, 0x8a, 0x3a, 0xc0, 0xca, 0xb8, 0xfb, 0x3d,
  0x5c, 0xd5, 0x5a, 0x3f, 0xd5, 0x7d, 0xa9, 0xbe, 0x9c, 0xcf, 0x8f, 0x3f,
  0x4e, 0x66, 0xbf, 0xbe, 0x45, 0xd4, 0xd1, 0xbe, 0x4a, 0xfb, 0x99, 0x3f,
  0x5a, 0x2f, 0xb9, 0x3f, 0xa3, 0x57, 0xe2, 0xbf, 0x8f, 0xfa, 0xc4, 0xbe,
  0xb7, 0xb3, 0xe0, 0xbe, 0xdb, 0x5f, 0x9c, 0xbd, 0x68, 0x5e, 0x20, 0x3e,
  0x89, 0x8c, 0x0a, 0xc0, 0xf8, 0x80, 0x73, 0x3f, 0xce, 0xfc, 0x1c, 0xbe,
  0x40, 0xf6, 0xb9, 0xbe, 0x39, 0x22, 0x02, 0xc0, 0x5e, 0x35, 0x5c, 0xbe,
  0x48, 0xc9, 0x9e, 0x3f, 0xb5, 0x80, 0xad, 0xbd, 0x0d, 0x92, 0x55, 0x3f,
  0x02, 0x30, 0x8c, 0xbe, 0x34, 0x6d, 0x4d, 0x3f, 0x0a, 0xad, 0xf9, 0xbf,
  0xce, 0x50, 0x99, 0x3f, 0x81, 0x51, 0x3a, 0xbf, 0x52, 0x7c, 0x7a, 0x3f,
  0x54, 0x8a, 0x58, 0xbd, 0xc4, 0x6b, 0x62, 0x3e, 0x00, 0x76, 0x88, 0xbf,
  0x4b, 0xe9, 0xe0, 0x3f, 0x23, 0x3d, 0xe4, 0xbf, 0x73, 0xcb, 0xab, 0xbf,
  0xd8, 0x76, 0x58, 0xbf, 0xf2, 0x34, 0x0e, 0xbf, 0xe7, 0x05, 0x03, 0xbf,
  0xc3, 0x5c, 0x16, 0x3d, 0x08, 0x76, 0xa4, 0xc0, 0x3d, 0x91, 0xd9, 0x3e,
  0x30, 0x28, 0x66, 0xbf, 0xc9, 0xb2, 0x91, 0x3e, 0x8e, 0x09, 0xcc, 0xbf,
  0x9f, 0xb8, 0x35, 0xc0, 0x14, 0xb8, 0x5b, 0xbe, 0x38, 0xcf, 0x2f, 0xc0,
  0xb1, 0xaf, 0x54, 0xbe, 0xd4, 0x00, 0x44, 0xbe, 0xe8, 0x4b, 0x2c, 0xc0,
  0x37, 0xe1, 0xc1, 0xbe, 0x8e, 0x8f, 0xaf, 0x3f, 0x47, 0x3b, 0x58, 0xc0,
  0xd7, 0x90, 0xf4, 0xbf, 0xd5, 0xc3, 0x12, 0x3e, 0x38, 0x6c, 0x87, 0x3f,
  0x56, 0x3b, 0x53, 0xbf, 0x8f, 0x6a, 0xf5, 0xbe, 0xad, 0x62, 0xc1, 0xbd,
  0xc8, 0xbc, 0x09, 0xc0, 0x97, 0x46, 0x93, 0x3f, 0xe7, 0x8d, 0xd8, 0x3f,
  0x97, 0x85, 0xa1, 0x3f, 0x98, 0x33, 0x2f, 0xc0, 0x5b, 0x7e, 0x08, 0xbf,
  0xbe, 0x0c, 0x83, 0xbf, 0x64, 0x62, 0x21, 0xbf, 0xfe, 0x38, 0x0a, 0x40,
  0x42, 0x4f, 0xb4, 0xbe, 0xd5, 0xbe, 0xcb, 0xbe, 0x9f, 0x25, 0x77, 0x3f,
  0x29, 0x7b, 0x87, 0x3f, 0xad, 0xd3, 0xeb, 0x3e, 0x5b, 0xb4, 0x58, 0xbf,
  0x45, 0xdb, 0x33, 0x3e, 0x40, 0xbc, 0xa0, 0x3e, 0x9b, 0xc6, 0x41, 0xbf,
  0x77, 0x0e, 0x1b, 0x40, 0xda, 0x45, 0x84, 0xbe, 0xe5, 0x79, 0x42, 0xc0,
  0x7f, 0x8e, 0x11, 0x40, 0x70, 0x4b, 0xfc, 0x3f, 0xc2, 0x81, 0x15, 0xbf,
  0x05, 0xc7, 0x88, 0xc0, 0x85, 0x47, 0xad, 0x3f, 0x5b, 0x6f, 0x73, 0x3f,
  0x14, 0x7c, 0xbf, 0x3f, 0xbc, 0x42, 0x47, 0x3f, 0x64, 0x5e, 0x47, 0xbf,
  0x8d, 0xbe, 0x02, 0x40, 0x8a, 0xfc, 0x5f, 0x3f, 0x60, 0xce, 0xa0, 0x3e,
  0x1a, 0xbd, 0x32, 0xc0, 0xfb, 0x9c, 0xcf, 0x3e, 0x0c, 0xa7, 0x0d, 0x40,
  0x6e, 0x22, 0xb0, 0xbe, 0x44, 0x6e, 0x49, 0xbe, 0xe9, 0xc7, 0x54, 0x3f,
  0xc7, 0xd5, 0x75, 0x40, 0x01, 0x85, 0xc7, 0x3e, 0x5a, 0xe8, 0x7b, 0x3e,
  0xdb, 0x79, 0x48, 0x3f, 0xa8, 0x76, 0xd5, 0x3e, 0xef, 0x32, 0x2f, 0x3e,
  0x48, 0x79, 0x19, 0x3d, 0xed, 0xca, 0x9b, 0x3e, 0xfc, 0x33, 0x55, 0x3f,
  0x43, 0xca, 0x50, 0x3f, 0xce, 0xce, 0x94, 0x3f, 0x93, 0x8e, 0xfc, 0x3e,
  0x9c, 0x33, 0xf6, 0xbf, 0xf0, 0x45, 0x95, 0x3f, 0xfd, 0x68, 0xfa, 0xbf,
  0xd6, 0xf0, 0x84, 0xbe, 0x19, 0x34, 0x19, 0xc0, 0x50, 0x34, 0x2e, 0x3f,
  0xb5, 0x74, 0x36, 0x3f, 0xcd, 0xef, 0xdc, 0x3e, 0x5a, 0xc8, 0xd5, 0xbf,
  0x6b, 0x91, 0x02, 0x3f, 0xd2, 0x07, 0xda, 0x3f, 0xe5, 0xa4, 0xed, 0xbf,
  0x12, 0x03, 0xb1, 0xc0, 0xd1, 0x45, 0x3b, 0xc0, 0x1b, 0x0f, 0xf7, 0x3f,
  0xca, 0x82, 0xc2, 0xbe, 0x08, 0xb7, 0x7b, 0xbf, 0x01, 0x93, 0xa2, 0x3f,
  0x34, 0x07, 0xd9, 0x3e, 0x4f, 0x41, 0x59, 0xbf, 0xbd, 0xda, 0x41, 0xc0,
  0x9c, 0x20, 0x4b, 0xbf, 0x22, 0xc0, 0x42, 0xbf, 0x0a, 0xf3, 0x09, 0xc0,
  0x8f, 0x73, 0x41, 0x3e, 0x25, 0x2d, 0x1c, 0xbf, 0x88, 0x17, 0x85, 0xbe,
  0xeb, 0xe8, 0x10, 0x40, 0x34, 0xce, 0x05, 0x40, 0x7b, 0x99, 0xe0, 0x3c,
  0x99, 0xb1, 0xb2, 0xbf, 0x2a, 0x9c, 0x4f, 0x3f, 0x2a, 0xeb, 0xf3, 0x3e,
  0x04, 0x68, 0xe4, 0xbe, 0x8d, 0x80, 0x26, 0x3f, 0x40, 0x89, 0x41, 0x3d,
  0x81, 0x12, 0x1e, 0x3e, 0xe2, 0x0a, 0x6f, 0xc0, 0x02, 0x7f, 0xad, 0xbf,
  0xb1, 0xe1, 0x45, 0xbe, 0x4b, 0x18, 0x44, 0xbd, 0xb6, 0x08, 0xe9, 0xbf,
  0x12, 0xde, 0xb6, 0x3e, 0x00, 0x63, 0xd6, 0x3f, 0xba, 0x7d, 0x41, 0x3f,
  0xe1, 0x12, 0xa9, 0x3f, 0x54, 0x47, 0x2f, 0xc0, 0x97, 0x92, 0x91, 0xc0,
  0x39, 0x1a, 0xd5, 0xbe, 0xe7, 0x3f, 0x6d, 0xbe, 0x30, 0xc9, 0xc0, 0xbf,
  0xb8, 0x51, 0x60, 0x3f, 0x75, 0xff, 0x50, 0x3f, 0x6b, 0xf5, 0x2c, 0xbf,
  0x9a, 0x39, 0xc1, 0x3f, 0xb3, 0x27, 0xcb, 0xbe, 0xf5, 0x76, 0x46, 0xc0,
  0x84, 0xf1, 0xcf, 0xbe, 0x6a, 0x6e, 0xc8, 0x3e, 0xa9, 0x18, 0x1a, 0xc0,
  0x6d, 0xee, 0x52, 0xc0, 0xce, 0x2b, 0x5a, 0x3f, 0x61, 0xf1, 0xa4, 0xbe,
  0x44, 0xf3, 0x28, 0xbc, 0x42, 0x08, 0x4c, 0x3e, 0x9e, 0x01, 0x78, 0xbf,
  0x21, 0x29, 0xf8, 0xbf, 0xc8, 0xff, 0x51, 0xc0, 0x0a, 0xc9, 0x21, 0xbf,
  0x17, 0xf3, 0xc3, 0x3f, 0x5c, 0x5b, 0xbe, 0x3d, 0x8a, 0x9e, 0xb8, 0xbf,
  0x15, 0x8e, 0x36, 0xc0, 0x8e, 0x83, 0x6e, 0xbd, 0x53, 0x1b, 0xac, 0x3f,
  0xda, 0xb0, 0x48, 0xc0, 0xff, 0x0a, 0xfa, 0x3f, 0x4d, 0x59, 0x0b, 0x3f,
  0x42, 0x6e, 0x16, 0x3f, 0xe2, 0x80, 0x25, 0x3f, 0xe0, 0x96, 0x9e, 0xbe,
  0x18, 0x1d, 0x53, 0xc0, 0xf6, 0x36, 0x2c, 0x3f, 0x78, 0x2e, 0x98, 0xbf,
  0xd7, 0xed, 0xf5, 0xbf, 0xd0, 0xf1, 0x92, 0x3e, 0x32, 0xc1, 0xb0, 0xbf,
  0xcc, 0xe6, 0xb3, 0xbe, 0xe3, 0xc2, 0x33, 0xbf, 0x75, 0x96, 0xb9, 0xbf,
  0xd3, 0xec, 0x27, 0x3e, 0x79, 0xe5, 0xdd, 0x3e, 0x4c, 0x9c, 0x3a, 0xbe,
  0x32, 0x80, 0xa7, 0xbc, 0x67, 0x01, 0xa2, 0xbe, 0xac, 0x2e, 0x78, 0xbf,
  0xfb, 0x7e, 0x2a, 0xc0, 0x16, 0x11, 0x6d, 0xbd, 0x66, 0x9a, 0xb4, 0x3f,
  0x87, 0x74, 0xfe, 0xbe, 0xcc, 0x33, 0x8b, 0xc0, 0x8b, 0x61, 0x3a, 0xbf,
  0x9e, 0x5e, 0x2b, 0xbf, 0x5a, 0xd0, 0x91, 0x3e, 0xca, 0x93, 0x1a, 0x3e,
  0xe3, 0xa8, 0x1a, 0xc0, 0x78, 0xf5, 0x8b, 0xbf, 0xd1, 0x62, 0x5e, 0x3f,
  0xfe, 0x64, 0x1f, 0x3d, 0xeb, 0xb7, 0x47, 0xc0, 0x67, 0xd7, 0x48, 0xbf,
  0xc6, 0x10, 0x88, 0xbf, 0xcf, 0xca, 0x3b, 0xc0, 0x35, 0x14, 0xcc, 0xbf,
  0xba, 0xc4, 0x06, 0x3f, 0x1e, 0xed, 0xad, 0xbc, 0xff, 0xb3, 0x32, 0xc0,
  0xcd, 0x63, 0xc4, 0xbd, 0xee, 0x0a, 0xa2, 0xbf, 0x39, 0xcd, 0x39, 0x3e,
