
// This code is generated automatically, manuall changes will be overwritten.

#include "tea_fingerprint_64ch_model.h"
#include "normalization.h"
#include "mbed_toolchain.h"
#include <stdint.h>

namespace tea_fingerprint_64ch_model_namespace {
static unsigned char model_data[] = {
  0x1c, 0x00, 0x00, 0x00, 0x54, 0x46, 0x4c, 0x33, 0x00, 0x00, 0x12, 0x00,
  0x1c, 0x00, 0x04, 0x00, 0x08, 0x00, 0x0c, 0x00, 0x10, 0x00, 0x14, 0x00,
  0x00, 0x00, 0x18, 0x00, 0x12, 0x00, 0x00, 0x00, 0x03, 0x00, 0x00, 0x00,
  0xa0, 0x00, 0x00, 0x00, 0x94, 0x00, 0x00, 0x00, 0x04, 0x01, 0x00, 0x00,
  0x08, 0x00, 0x00, 0x00, 0xac, 0x00, 0x00, 0x00, 0x20, 0x00, 0x00, 0x00,
  0xf0, 0x52, 0x00, 0x00, 0xec, 0x52, 0x00, 0x00, 0xc8, 0x51, 0x00, 0x00,
  0x24, 0x51, 0x00, 0x00, 0x88, 0x50, 0x00, 0x00, 0xec, 0x4f, 0x00, 0x00,
  0x80, 0x4f, 0x00, 0x00, 0x2c, 0x37, 0x00, 0x00, 0x94, 0x36, 0x00, 0x00,
  0xfc, 0x35, 0x00, 0x00, 0x64, 0x35, 0x00, 0x00, 0xc8, 0x34, 0x00, 0x00,
  0x30, 0x34, 0x00, 0x00, 0x94, 0x33, 0x00, 0x00, 0x78, 0x2f, 0x00, 0x00,
  0x98, 0x18, 0x00, 0x00, 0xf8, 0x0c, 0x00, 0x00, 0xac, 0x52, 0x00, 0x00,
  0xa8, 0x52, 0x00, 0x00, 0xa4, 0x52, 0x00, 0x00, 0xa0, 0x52, 0x00, 0x00,
  0x9c, 0x52, 0x00, 0x00, 0x98, 0x52, 0x00, 0x00, 0x94, 0x52, 0x00, 0x00,
  0x90, 0x52, 0x00, 0x00, 0x8c, 0x52, 0x00, 0x00, 0x88, 0x52, 0x00, 0x00,
  0x84, 0x52, 0x00, 0x00, 0x80, 0x52, 0x00, 0x00, 0x7c, 0x52, 0x00, 0x00,
  0x78, 0x52, 0x00, 0x00, 0x5c, 0x00, 0x00, 0x00, 0x01, 0x00, 0x00, 0x00,
  0x94, 0x00, 0x00, 0x00, 0x06, 0x00, 0x00, 0x00, 0xb4, 0x0b, 0x00, 0x00,
  0xc4, 0x0a, 0x00, 0x00, 0xfc, 0x09, 0x00, 0x00, 0x44, 0x09, 0x00, 0x00,
  0x28, 0x02, 0x00, 0x00, 0xa4, 0x01, 0x00, 0x00, 0x01, 0x00, 0x00, 0x00,
  0x0c, 0x00, 0x00, 0x00, 0x08, 0x00, 0x0c, 0x00, 0x04, 0x00, 0x08, 0x00,
  0x08, 0x00, 0x00, 0x00, 0x08, 0x00, 0x00, 0x00, 0x1f, 0x00, 0x00, 0x00,
  0x13, 0x00, 0x00, 0x00, 0x6d, 0x69, 0x6e, 0x5f, 0x72, 0x75, 0x6e, 0x74,
  0x69, 0x6d, 0x65, 0x5f, 0x76, 0x65, 0x72, 0x73, 0x69, 0x6f, 0x6e, 0x00,
  0x0e, 0xaf, 0xff, 0xff, 0x04, 0x00, 0x00, 0x00, 0x10, 0x00, 0x00, 0x00,
  0x31, 0x2e, 0x35, 0x2e, 0x30, 0x00, 0x00, 0x00, 0x00, 0x00, 0x00, 0x00,
  0x00, 0x00, 0x00, 0x00, 0x0f, 0x00, 0x00, 0x00, 0x4d, 0x4c, 0x49, 0x52,
  0x20, 0x43, 0x6f, 0x6e, 0x76, 0x65, 0x72, 0x74, 0x65, 0x64, 0x2e, 0x00,
  0x00, 0x00, 0x0e, 0x00, 0x18, 0x00, 0x04, 0x00, 0x08, 0x00, 0x0c, 0x00,
  0x10, 0x00, 0x14, 0x00, 0x0e, 0x00, 0x00, 0x00, 0x6c, 0x00, 0x00, 0x00,
  0x60, 0x00, 0x00, 0x00, 0x54, 0x00, 0x00, 0x00, 0x14, 0x00, 0x00, 0x00,
  0x04, 0x00, 0x00, 0x00, 0x04, 0x00, 0x00, 0x00, 0x6d, 0x61, 0x69, 0x6e,
  0x00, 0x00, 0x00, 0x00, 0x0e, 0x00, 0x00, 0x00, 0xac, 0x0a, 0x00, 0x00,
  0xe0, 0x09, 0x00, 0x00, 0x0c, 0x09, 0x00, 0x00, 0x44, 0x08, 0x00, 0x00,
  0x00, 0x07, 0x00, 0x00, 0x4c, 0x06, 0x00, 0x00, 0x98, 0x05, 0x00, 0x00,
  0xe8, 0x04, 0x00, 0x00, 0xd4, 0x03, 0x00, 0x00, 0x20, 0x03, 0x00, 0x00,
  0x6c, 0x02, 0x00, 0x00, 0xbc, 0x01, 0x00, 0x00, 0x30, 0x01, 0x00, 0x00,
  0x90, 0x00, 0x00, 0x00, 0x01, 0x00, 0x00, 0x00, 0x1d, 0x00, 0x00, 0x00,
  0x01, 0x00, 0x00, 0x00, 0x00, 0x00, 0x00, 0x00, 0x1e, 0x00, 0x00, 0x00,
  0x10, 0x51, 0x00, 0x00, 0x9c, 0x50, 0x00, 0x00, 0xd8, 0x4f, 0x00, 0x00,
  0x3c, 0x4f, 0x00, 0x00, 0xa0, 0x4e, 0x00, 0x00, 0x1c, 0x4e, 0x00, 0x00,
  0xb0, 0x4d, 0x00, 0x00, 0x48, 0x35, 0x00, 0x00, 0xb0, 0x34, 0x00, 0x00,
  0x18, 0x34, 0x00, 0x00, 0x7c, 0x33, 0x00, 0x00, 0xe4, 0x32, 0x00, 0x00,
  0x48, 0x32, 0x00, 0x00, 0xbc, 0x31, 0x00, 0x00, 0x9c, 0x2d, 0x00, 0x00,
  0xbc, 0x16, 0x00, 0x00, 0x80, 0x0a, 0x00, 0x00, 0x90, 0x09, 0x00, 0x00,
  0xc4, 0x08, 0x00, 0x00, 0x10, 0x08, 0x00, 0x00, 0xb0, 0x06, 0x00, 0x00,
  0xf0, 0x05, 0x00, 0x00, 0x3c, 0x05, 0x00, 0x00, 0x98, 0x04, 0x00, 0x00,
  0x84, 0x03, 0x00, 0x00, 0xc4, 0x02, 0x00, 0x00, 0x10, 0x02, 0x00, 0x00,
  0x6c, 0x01, 0x00, 0x00, 0xd4, 0x00, 0x00, 0x00, 0x50, 0x00, 0x00, 0x00,
  0x82, 0xf8, 0xff, 0xff, 0x00, 0x00, 0x00, 0x08, 0x05, 0x00, 0x00, 0x00,
  0x24, 0x00, 0x00, 0x00, 0x18, 0x00, 0x00, 0x00, 0x0c, 0x00, 0x00, 0x00,
  0x00, 0x00, 0x06, 0x00, 0x08, 0x00, 0x07, 0x00, 0x06, 0x00, 0x00, 0x00,
  0x00, 0x00, 0x00, 0x01, 0x01, 0x00, 0x00, 0x00, 0x1d, 0x00, 0x00, 0x00,
  0x03, 0x00, 0x00, 0x00, 0x1c, 0x00, 0x00, 0x00, 0x06, 0x00, 0x00, 0x00,
  0x01, 0x00, 0x00, 0x00, 0x0e, 0xf6, 0xff, 0xff, 0x00, 0x00, 0x00, 0x09,
  0x01, 0x00, 0x00, 0x00, 0xc8, 0xaf, 0xff, 0xff, 0x30, 0x00, 0x00, 0x00,
  0x1e, 0x00, 0x00, 0x00, 0x18, 0x00, 0x00, 0x00, 0x30, 0x00, 0x00, 0x00,
  0x04, 0x00, 0x00, 0x00, 0x02, 0x00, 0x00, 0x00, 0xff, 0xff, 0xff, 0xff,
  0x10, 0x00, 0x00, 0x00, 0x08, 0x00, 0x00, 0x00, 0x49, 0x64, 0x65, 0x6e,
  0x74, 0x69, 0x74, 0x79, 0x00, 0x00, 0x00, 0x00, 0x02, 0x00, 0x00, 0x00,
  0x01, 0x00, 0x00, 0x00, 0x10, 0x00, 0x00, 0x00, 0xd0, 0xb0, 0xff, 0xff,
  0x00, 0x00, 0x0a, 0x00, 0x10, 0x00, 0x04, 0x00, 0x08, 0x00, 0x0c, 0x00,
  0x0a, 0x00, 0x00, 0x00, 0x04, 0x00, 0x00, 0x00, 0x10, 0x00, 0x00, 0x00,
  0x04, 0x00, 0x00, 0x00, 0x01, 0x00, 0x00, 0x00, 0x1c, 0x00, 0x00, 0x00,
  0x02, 0x00, 0x00, 0x00, 0x1b, 0x00, 0x00, 0x00, 0x05, 0x00, 0x00, 0x00,
  0x8e, 0xf6, 0xff, 0xff, 0x00, 0x00, 0x00, 0x16, 0x01, 0x00, 0x00, 0x00,
  0x48, 0xb0, 0xff, 0xff, 0x44, 0x00, 0x00, 0x00, 0x1d, 0x00, 0x00, 0x00,
  0x18, 0x00, 0x00, 0x00, 0x44, 0x00, 0x00, 0x00, 0x04, 0x00, 0x00, 0x00,
  0x02, 0x00, 0x00, 0x00, 0xff, 0xff, 0xff, 0xff, 0x60, 0x00, 0x00, 0x00,
  0x1c, 0x00, 0x00, 0x00, 0x66, 0x75, 0x6e, 0x63, 0x74, 0x69, 0x6f, 0x6e,
  0x61, 0x6c, 0x5f, 0x31, 0x2f, 0x66, 0x6c, 0x61, 0x74, 0x74, 0x65, 0x6e,
  0x2f, 0x52, 0x65, 0x73, 0x68, 0x61, 0x70, 0x65, 0x00, 0x00, 0x00, 0x00,
  0x02, 0x00, 0x00, 0x00, 0x01, 0x00, 0x00, 0x00, 0x60, 0x00, 0x00, 0x00,
  0x38, 0xb0, 0xff, 0xff, 0x12, 0xf8, 0xff, 0xff, 0x00, 0x00, 0x00, 0x05,
  0x03, 0x00, 0x00, 0x00, 0x28, 0x00, 0x00, 0x00, 0x1c, 0x00, 0x00, 0x00,
  0x04, 0x00, 0x00, 0x00, 0x96, 0xf9, 0xff, 0xff, 0x02, 0x00, 0x00, 0x00,
  0x02, 0x00, 0x00, 0x00, 0x01, 0x00, 0x00, 0x00, 0x01, 0x00, 0x00, 0x00,
  0x01, 0x00, 0x00, 0x00, 0x1b, 0x00, 0x00, 0x00, 0x01, 0x00, 0x00, 0x00,
  0x1a, 0x00, 0x00, 0x00, 0xdc, 0xb0, 0xff, 0xff, 0x54, 0x00, 0x00, 0x00,
  0x1c, 0x00, 0x00, 0x00, 0x20, 0x00, 0x00, 0x00, 0x5c, 0x00, 0x00, 0x00,
  0x04, 0x00, 0x00, 0x00, 0x04, 0x00, 0x00, 0x00, 0xff, 0xff, 0xff, 0xff,
  0x01, 0x00, 0x00, 0x00, 0x08, 0x00, 0x00, 0x00, 0x0c, 0x00, 0x00, 0x00,
  0x24, 0x00, 0x00, 0x00, 0x66, 0x75, 0x6e, 0x63, 0x74, 0x69, 0x6f, 0x6e,
  0x61, 0x6c, 0x5f, 0x31, 0x2f, 0x6d, 0x61, 0x78, 0x5f, 0x70, 0x6f, 0x6f,
  0x6c, 0x69, 0x6e, 0x67, 0x32, 0x64, 0x5f, 0x32, 0x2f, 0x4d, 0x61, 0x78,
  0x50, 0x6f, 0x6f, 0x6c, 0x00, 0x00, 0x00, 0x00, 0x04, 0x00, 0x00, 0x00,
  0x01, 0x00, 0x00, 0x00, 0x01, 0x00, 0x00, 0x00, 0x08, 0x00, 0x00, 0x00,
  0x0c, 0x00, 0x00, 0x00, 0xe4, 0xb0, 0xff, 0xff, 0xbe, 0xf8, 0xff, 0xff,
  0x00, 0x00, 0x00, 0x0b, 0x02, 0x00, 0x00, 0x00, 0x18, 0x00, 0x00, 0x00,
  0x0c, 0x00, 0x00, 0x00, 0x04, 0x00, 0x00, 0x00, 0x00, 0xb1, 0xff, 0xff,
  0x01, 0x00, 0x00, 0x00, 0x1a, 0x00, 0x00, 0x00, 0x02, 0x00, 0x00, 0x00,
  0x19, 0x00, 0x00, 0x00, 0x0b, 0x00, 0x00, 0x00, 0x7c, 0xb1, 0xff, 0xff,
  0x64, 0x00, 0x00, 0x00, 0x1b, 0x00, 0x00, 0x00, 0x20, 0x00, 0x00, 0x00,
  0x6c, 0x00, 0x00, 0x00, 0x04, 0x00, 0x00, 0x00, 0x04, 0x00, 0x00, 0x00,
  0xff, 0xff, 0xff, 0xff, 0x01, 0x00, 0x00, 0x00, 0x08, 0x00, 0x00, 0x00,
  0x0c, 0x00, 0x00, 0x00, 0x34, 0x00, 0x00, 0x00, 0x66, 0x75, 0x6e, 0x63,
  0x74, 0x69, 0x6f, 0x6e, 0x61, 0x6c, 0x5f, 0x31, 0x2f, 0x62, 0x61, 0x74,
  0x63, 0x68, 0x5f, 0x6e, 0x6f, 0x72, 0x6d, 0x61, 0x6c, 0x69, 0x7a, 0x61,
  0x74, 0x69, 0x6f, 0x6e, 0x5f, 0x32, 0x2f, 0x46, 0x75, 0x73, 0x65, 0x64,
  0x42, 0x61, 0x74, 0x63, 0x68, 0x4e, 0x6f, 0x72, 0x6d, 0x56, 0x33, 0x33,
  0x00, 0x00, 0x00, 0x00, 0x04, 0x00, 0x00, 0x00, 0x01, 0x00, 0x00, 0x00,
  0x01, 0x00, 0x00, 0x00, 0x08, 0x00, 0x00, 0x00, 0x0c, 0x00, 0x00, 0x00,
  0x94, 0xb1, 0xff, 0xff, 0x6e, 0xf9, 0xff, 0xff, 0x00, 0x00, 0x00, 0x15,
  0x01, 0x00, 0x00, 0x00, 0x18, 0x00, 0x00, 0x00, 0x0c, 0x00, 0x00, 0x00,
  0x04, 0x00, 0x00, 0x00, 0xb0, 0xb1, 0xff, 0xff, 0x01, 0x00, 0x00, 0x00,
  0x19, 0x00, 0x00, 0x00, 0x02, 0x00, 0x00, 0x00, 0x18, 0x00, 0x00, 0x00,
  0x0c, 0x00, 0x00, 0x00, 0x2c, 0xb2, 0xff, 0xff, 0x64, 0x00, 0x00, 0x00,
  0x1a, 0x00, 0x00, 0x00, 0x20, 0x00, 0x00, 0x00, 0x6c, 0x00, 0x00, 0x00,
  0x04, 0x00, 0x00, 0x00, 0x04, 0x00, 0x00, 0x00, 0xff, 0xff, 0xff, 0xff,
  0x01, 0x00, 0x00, 0x00, 0x08, 0x00, 0x00, 0x00, 0x0c, 0x00, 0x00, 0x00,
  0x34, 0x00, 0x00, 0x00, 0x66, 0x75, 0x6e, 0x63, 0x74, 0x69, 0x6f, 0x6e,
  0x61, 0x6c, 0x5f, 0x31, 0x2f, 0x62, 0x61, 0x74, 0x63, 0x68, 0x5f, 0x6e,
  0x6f, 0x72, 0x6d, 0x61, 0x6c, 0x69, 0x7a, 0x61, 0x74, 0x69, 0x6f, 0x6e,
  0x5f, 0x32, 0x2f, 0x46, 0x75, 0x73, 0x65, 0x64, 0x42, 0x61, 0x74, 0x63,
  0x68, 0x4e, 0x6f, 0x72, 0x6d, 0x56, 0x33, 0x32, 0x00, 0x00, 0x00, 0x00,
  0x04, 0x00, 0x00, 0x00, 0x01, 0x00, 0x00, 0x00, 0x01, 0x00, 0x00, 0x00,
  0x08, 0x00, 0x00, 0x00, 0x0c, 0x00, 0x00, 0x00, 0x44, 0xb2, 0xff, 0xff,
  0x56, 0xf9, 0xff, 0xff, 0x00, 0x00, 0x00, 0x01, 0x24, 0x00, 0x00, 0x00,
  0x18, 0x00, 0x00, 0x00, 0x04, 0x00, 0x00, 0x00, 0x48, 0xf9, 0xff, 0xff,
  0x02, 0x00, 0x00, 0x00, 0x02, 0x00, 0x00, 0x00, 0x00, 0x00, 0x00, 0x01,
  0x01, 0x00, 0x00, 0x00, 0x18, 0x00, 0x00, 0x00, 0x03, 0x00, 0x00, 0x00,
  0x17, 0x00, 0x00, 0x00, 0x0f, 0x00, 0x00, 0x00, 0x04, 0x00, 0x00, 0x00,
  0xe8, 0xb2, 0xff, 0xff, 0xb8, 0x00, 0x00, 0x00, 0x19, 0x00, 0x00, 0x00,
  0x20, 0x00, 0x00, 0x00, 0xc0, 0x00, 0x00, 0x00, 0x04, 0x00, 0x00, 0x00,
  0x04, 0x00, 0x00, 0x00, 0xff, 0xff, 0xff, 0xff, 0x01, 0x00, 0x00, 0x00,
  0x08, 0x00, 0x00, 0x00, 0x0c, 0x00, 0x00, 0x00, 0x8b, 0x00, 0x00, 0x00,
  0x66, 0x75, 0x6e, 0x63, 0x74, 0x69, 0x6f, 0x6e, 0x61, 0x6c, 0x5f, 0x31,
  0x2f, 0x63, 0x6f, 0x6e, 0x76, 0x32, 0x64, 0x5f, 0x32, 0x2f, 0x52, 0x65,
  0x6c, 0x75, 0x3b, 0x66, 0x75, 0x6e, 0x63, 0x74, 0x69, 0x6f, 0x6e, 0x61,
  0x6c, 0x5f, 0x31, 0x2f, 0x63, 0x6f, 0x6e, 0x76, 0x32, 0x64, 0x5f, 0x32,
  0x2f, 0x42, 0x69, 0x61, 0x73, 0x41, 0x64, 0x64, 0x3b, 0x66, 0x75, 0x6e,
  0x63, 0x74, 0x69, 0x6f, 0x6e, 0x61, 0x6c, 0x5f, 0x31, 0x2f, 0x63, 0x6f,
  0x6e, 0x76, 0x32, 0x64, 0x5f, 0x32, 0x2f, 0x43, 0x6f, 0x6e, 0x76, 0x32,
  0x44, 0x3b, 0x66, 0x75, 0x6e, 0x63, 0x74, 0x69, 0x6f, 0x6e, 0x61, 0x6c,
  0x5f, 0x31, 0x2f, 0x63, 0x6f, 0x6e, 0x76, 0x32, 0x64, 0x5f, 0x32, 0x2f,
  0x42, 0x69, 0x61, 0x73, 0x41, 0x64, 0x64, 0x2f, 0x52, 0x65, 0x61, 0x64,
  0x56, 0x61, 0x72, 0x69, 0x61, 0x62, 0x6c, 0x65, 0x4f, 0x70, 0x2f, 0x72,
  0x65, 0x73, 0x6f, 0x75, 0x72, 0x63, 0x65, 0x00, 0x04, 0x00, 0x00, 0x00,
  0x01, 0x00, 0x00, 0x00, 0x01, 0x00, 0x00, 0x00, 0x08, 0x00, 0x00, 0x00,
  0x0c, 0x00, 0x00, 0x00, 0x54, 0xb3, 0xff, 0xff, 0x2e, 0xfb, 0xff, 0xff,
  0x00, 0x00, 0x00, 0x05, 0x03, 0x00, 0x00, 0x00, 0x28, 0x00, 0x00, 0x00,
  0x1c, 0x00, 0x00, 0x00, 0x04, 0x00, 0x00, 0x00, 0xb2, 0xfc, 0xff, 0xff,
  0x02, 0x00, 0x00, 0x00, 0x02, 0x00, 0x00, 0x00, 0x01, 0x00, 0x00, 0x00,
  0x01, 0x00, 0x00, 0x00, 0x01, 0x00, 0x00, 0x00, 0x17, 0x00, 0x00, 0x00,
  0x01, 0x00, 0x00, 0x00, 0x16, 0x00, 0x00, 0x00, 0xf8, 0xb3, 0xff, 0xff,
  0x54, 0x00, 0x00, 0x00, 0x18, 0x00, 0x00, 0x00, 0x20, 0x00, 0x00, 0x00,
  0x5c, 0x00, 0x00, 0x00, 0x04, 0x00, 0x00, 0x00, 0x04, 0x00, 0x00, 0x00,
  0xff, 0xff, 0xff, 0xff, 0x01, 0x00, 0x00, 0x00, 0x10, 0x00, 0x00, 0x00,
  0x0c, 0x00, 0x00, 0x00, 0x24, 0x00, 0x00, 0x00, 0x66, 0x75, 0x6e, 0x63,
  0x74, 0x69, 0x6f, 0x6e, 0x61, 0x6c, 0x5f, 0x31, 0x2f, 0x6d, 0x61, 0x78,
  0x5f, 0x70, 0x6f, 0x6f, 0x6c, 0x69, 0x6e, 0x67, 0x32, 0x64, 0x5f, 0x31,
  0x2f, 0x4d, 0x61, 0x78, 0x50, 0x6f, 0x6f, 0x6c, 0x00, 0x00, 0x00, 0x00,
  0x04, 0x00, 0x00, 0x00, 0x01, 0x00, 0x00, 0x00, 0x01, 0x00, 0x00, 0x00,
  0x10, 0x00, 0x00, 0x00, 0x0c, 0x00, 0x00, 0x00, 0x00, 0xb4, 0xff, 0xff,
  0xda, 0xfb, 0xff, 0xff, 0x00, 0x00, 0x00, 0x0b, 0x02, 0x00, 0x00, 0x00,
  0x18, 0x00, 0x00, 0x00, 0x0c, 0x00, 0x00, 0x00, 0x04, 0x00, 0x00, 0x00,
  0x1c, 0xb4, 0xff, 0xff, 0x01, 0x00, 0x00, 0x00, 0x16, 0x00, 0x00, 0x00,
  0x02, 0x00, 0x00, 0x00, 0x15, 0x00, 0x00, 0x00, 0x09, 0x00, 0x00, 0x00,
  0x98, 0xb4, 0xff, 0xff, 0x64, 0x00, 0x00, 0x00, 0x17, 0x00, 0x00, 0x00,
  0x20, 0x00, 0x00, 0x00, 0x6c, 0x00, 0x00, 0x00, 0x04, 0x00, 0x00, 0x00,
  0x04, 0x00, 0x00, 0x00, 0xff, 0xff, 0xff, 0xff, 0x01, 0x00, 0x00, 0x00,
  0x10, 0x00, 0x00, 0x00, 0x0c, 0x00, 0x00, 0x00, 0x34, 0x00, 0x00, 0x00,
  0x66, 0x75, 0x6e, 0x63, 0x74, 0x69, 0x6f, 0x6e, 0x61, 0x6c, 0x5f, 0x31,
  0x2f, 0x62, 0x61, 0x74, 0x63, 0x68, 0x5f, 0x6e, 0x6f, 0x72, 0x6d, 0x61,
  0x6c, 0x69, 0x7a, 0x61, 0x74, 0x69, 0x6f, 0x6e, 0x5f, 0x31, 0x2f, 0x46,
  0x75, 0x73, 0x65, 0x64, 0x42, 0x61, 0x74, 0x63, 0x68, 0x4e, 0x6f, 0x72,
  0x6d, 0x56, 0x33, 0x33, 0x00, 0x00, 0x00, 0x00, 0x04, 0x00, 0x00, 0x00,
  0x01, 0x00, 0x00, 0x00, 0x01, 0x00, 0x00, 0x00, 0x10, 0x00, 0x00, 0x00,
  0x0c, 0x00, 0x00, 0x00, 0xb0, 0xb4, 0xff, 0xff, 0x8a, 0xfc, 0xff, 0xff,
  0x00, 0x00, 0x00, 0x15, 0x01, 0x00, 0x00, 0x00, 0x18, 0x00, 0x00, 0x00,
  0x0c, 0x00, 0x00, 0x00, 0x04, 0x00, 0x00, 0x00, 0xcc, 0xb4, 0xff, 0xff,
  0x01, 0x00, 0x00, 0x00, 0x15, 0x00, 0x00, 0x00, 0x02, 0x00, 0x00, 0x00,
  0x14, 0x00, 0x00, 0x00, 0x0a, 0x00, 0x00, 0x00, 0x48, 0xb5, 0xff, 0xff,
  0x64, 0x00, 0x00, 0x00, 0x16, 0x00, 0x00, 0x00, 0x20, 0x00, 0x00, 0x00,
  0x6c, 0x00, 0x00, 0x00, 0x04, 0x00, 0x00, 0x00, 0x04, 0x00, 0x00, 0x00,
  0xff, 0xff, 0xff, 0xff, 0x01, 0x00, 0x00, 0x00, 0x10, 0x00, 0x00, 0x00,
  0x0c, 0x00, 0x00, 0x00, 0x34, 0x00, 0x00, 0x00, 0x66, 0x75, 0x6e, 0x63,
  0x74, 0x69, 0x6f, 0x6e, 0x61, 0x6c, 0x5f, 0x31, 0x2f, 0x62, 0x61, 0x74,
  0x63, 0x68, 0x5f, 0x6e, 0x6f, 0x72, 0x6d, 0x61, 0x6c, 0x69, 0x7a, 0x61,
  0x74, 0x69, 0x6f, 0x6e, 0x5f, 0x31, 0x2f, 0x46, 0x75, 0x73, 0x65, 0x64,
  0x42, 0x61, 0x74, 0x63, 0x68, 0x4e, 0x6f, 0x72, 0x6d, 0x56, 0x33, 0x32,
  0x00, 0x00, 0x00, 0x00, 0x04, 0x00, 0x00, 0x00, 0x01, 0x00, 0x00, 0x00,
  0x01, 0x00, 0x00, 0x00, 0x10, 0x00, 0x00, 0x00, 0x0c, 0x00, 0x00, 0x00,
  0x60, 0xb5, 0xff, 0xff, 0x72, 0xfc, 0xff, 0xff, 0x00, 0x00, 0x00, 0x01,
  0x24, 0x00, 0x00, 0x00, 0x18, 0x00, 0x00, 0x00, 0x04, 0x00, 0x00, 0x00,
  0x64, 0xfc, 0xff, 0xff, 0x02, 0x00, 0x00, 0x00, 0x02, 0x00, 0x00, 0x00,
  0x00, 0x00, 0x00, 0x01, 0x01, 0x00, 0x00, 0x00, 0x14, 0x00, 0x00, 0x00,
  0x03, 0x00, 0x00, 0x00, 0x13, 0x00, 0x00, 0x00, 0x0e, 0x00, 0x00, 0x00,
  0x03, 0x00, 0x00, 0x00, 0x04, 0xb6, 0xff, 0xff, 0xd8, 0x00, 0x00, 0x00,
  0x15, 0x00, 0x00, 0x00, 0x20, 0x00, 0x00, 0x00, 0xe0, 0x00, 0x00, 0x00,
  0x04, 0x00, 0x00, 0x00, 0x04, 0x00, 0x00, 0x00, 0xff, 0xff, 0xff, 0xff,
  0x01, 0x00, 0x00, 0x00, 0x10, 0x00, 0x00, 0x00, 0x0c, 0x00, 0x00, 0x00,
  0xa8, 0x00, 0x00, 0x00, 0x66, 0x75, 0x6e, 0x63, 0x74, 0x69, 0x6f, 0x6e,
  0x61, 0x6c, 0x5f, 0x31, 0x2f, 0x63, 0x6f, 0x6e, 0x76, 0x32, 0x64, 0x5f,
  0x31, 0x2f, 0x52, 0x65, 0x6c, 0x75, 0x3b, 0x66, 0x75, 0x6e, 0x63, 0x74,
  0x69, 0x6f, 0x6e, 0x61, 0x6c, 0x5f, 0x31, 0x2f, 0x63, 0x6f, 0x6e, 0x76,
  0x32, 0x64, 0x5f, 0x31, 0x2f, 0x42, 0x69, 0x61, 0x73, 0x41, 0x64, 0x64,
  0x3b, 0x66, 0x75, 0x6e, 0x63, 0x74, 0x69, 0x6f, 0x6e, 0x61, 0x6c, 0x5f,
  0x31, 0x2f, 0x63, 0x6f, 0x6e, 0x76, 0x32, 0x64, 0x5f, 0x32, 0x2f, 0x43,
  0x6f, 0x6e, 0x76, 0x32, 0x44, 0x3b, 0x66, 0x75, 0x6e, 0x63, 0x74, 0x69,
  0x6f, 0x6e, 0x61, 0x6c, 0x5f, 0x31, 0x2f, 0x63, 0x6f, 0x6e, 0x76, 0x32,
  0x64, 0x5f, 0x31, 0x2f, 0x43, 0x6f, 0x6e, 0x76, 0x32, 0x44, 0x3b, 0x66,
  0x75, 0x6e, 0x63, 0x74, 0x69, 0x6f, 0x6e, 0x61, 0x6c, 0x5f, 0x31, 0x2f,
  0x63, 0x6f, 0x6e, 0x76, 0x32, 0x64, 0x5f, 0x31, 0x2f, 0x42, 0x69, 0x61,
  0x73, 0x41, 0x64, 0x64, 0x2f, 0x52, 0x65, 0x61, 0x64, 0x56, 0x61, 0x72,
  0x69, 0x61, 0x62, 0x6c, 0x65, 0x4f, 0x70, 0x2f, 0x72, 0x65, 0x73, 0x6f,
  0x75, 0x72, 0x63, 0x65, 0x00, 0x00, 0x00, 0x00, 0x04, 0x00, 0x00, 0x00,
  0x01, 0x00, 0x00, 0x00, 0x01, 0x00, 0x00, 0x00, 0x10, 0x00, 0x00, 0x00,
  0x0c, 0x00, 0x00, 0x00, 0xbc, 0xb7, 0xff, 0xff, 0x00, 0x00, 0x0e, 0x00,
  0x1a, 0x00, 0x08, 0x00, 0x0c, 0x00, 0x10, 0x00, 0x07, 0x00, 0x14, 0x00,
  0x0e, 0x00, 0x00, 0x00, 0x00, 0x00, 0x00, 0x05, 0x03, 0x00, 0x00, 0x00,
  0x38, 0x00, 0x00, 0x00, 0x2c, 0x00, 0x00, 0x00, 0x14, 0x00, 0x00, 0x00,
  0x00, 0x00, 0x0e, 0x00, 0x14, 0x00, 0x00, 0x00, 0x10, 0x00, 0x0c, 0x00,
  0x08, 0x00, 0x04, 0x00, 0x0e, 0x00, 0x00, 0x00, 0x02, 0x00, 0x00, 0x00,
  0x02, 0x00, 0x00, 0x00, 0x01, 0x00, 0x00, 0x00, 0x01, 0x00, 0x00, 0x00,
  0x01, 0x00, 0x00, 0x00, 0x13, 0x00, 0x00, 0x00, 0x01, 0x00, 0x00, 0x00,
  0x12, 0x00, 0x00, 0x00, 0xa6, 0xfd, 0xff, 0xff, 0x00, 0x00, 0x00, 0x11,
  0x01, 0x00, 0x00, 0x00, 0x60, 0xb7, 0xff, 0xff, 0x50, 0x00, 0x00, 0x00,
  0x14, 0x00, 0x00, 0x00, 0x20, 0x00, 0x00, 0x00, 0x58, 0x00, 0x00, 0x00,
  0x04, 0x00, 0x00, 0x00, 0x04, 0x00, 0x00, 0x00, 0xff, 0xff, 0xff, 0xff,
  0x01, 0x00, 0x00, 0x00, 0x20, 0x00, 0x00, 0x00, 0x0c, 0x00, 0x00, 0x00,
  0x22, 0x00, 0x00, 0x00, 0x66, 0x75, 0x6e, 0x63, 0x74, 0x69, 0x6f, 0x6e,
  0x61, 0x6c, 0x5f, 0x31, 0x2f, 0x6d, 0x61, 0x78, 0x5f, 0x70, 0x6f, 0x6f,
  0x6c, 0x69, 0x6e, 0x67, 0x32, 0x64, 0x2f, 0x4d, 0x61, 0x78, 0x50, 0x6f,
  0x6f, 0x6c, 0x00, 0x00, 0x04, 0x00, 0x00, 0x00, 0x01, 0x00, 0x00, 0x00,
  0x01, 0x00, 0x00, 0x00, 0x20, 0x00, 0x00, 0x00, 0x0c, 0x00, 0x00, 0x00,
  0x64, 0xb7, 0xff, 0xff, 0x3e, 0xff, 0xff, 0xff, 0x00, 0x00, 0x00, 0x0b,
  0x02, 0x00, 0x00, 0x00, 0x18, 0x00, 0x00, 0x00, 0x0c, 0x00, 0x00, 0x00,
  0x04, 0x00, 0x00, 0x00, 0x80, 0xb7, 0xff, 0xff, 0x01, 0x00, 0x00, 0x00,
  0x12, 0x00, 0x00, 0x00, 0x02, 0x00, 0x00, 0x00, 0x11, 0x00, 0x00, 0x00,
  0x07, 0x00, 0x00, 0x00, 0x00, 0x00, 0x0a, 0x00, 0x08, 0x00, 0x00, 0x00,
  0x00, 0x00, 0x04, 0x00, 0x0a, 0x00, 0x00, 0x00, 0x01, 0x00, 0x00, 0x00,
  0x10, 0xb8, 0xff, 0xff, 0x60, 0x00, 0x00, 0x00, 0x13, 0x00, 0x00, 0x00,
  0x20, 0x00, 0x00, 0x00, 0x68, 0x00, 0x00, 0x00, 0x04, 0x00, 0x00, 0x00,
  0x04, 0x00, 0x00, 0x00, 0xff, 0xff, 0xff, 0xff, 0x01, 0x00, 0x00, 0x00,
  0x20, 0x00, 0x00, 0x00, 0x0c, 0x00, 0x00, 0x00, 0x32, 0x00, 0x00, 0x00,
  0x66, 0x75, 0x6e, 0x63, 0x74, 0x69, 0x6f, 0x6e, 0x61, 0x6c, 0x5f, 0x31,
  0x2f, 0x62, 0x61, 0x74, 0x63, 0x68, 0x5f, 0x6e, 0x6f, 0x72, 0x6d, 0x61,
  0x6c, 0x69, 0x7a, 0x61, 0x74, 0x69, 0x6f, 0x6e, 0x2f, 0x46, 0x75, 0x73,
  0x65, 0x64, 0x42, 0x61, 0x74, 0x63, 0x68, 0x4e, 0x6f, 0x72, 0x6d, 0x56,
  0x33, 0x33, 0x00, 0x00, 0x04, 0x00, 0x00, 0x00, 0x01, 0x00, 0x00, 0x00,
  0x01, 0x00, 0x00, 0x00, 0x20, 0x00, 0x00, 0x00, 0x0c, 0x00, 0x00, 0x00,
  0x50, 0xb9, 0xff, 0xff, 0x00, 0x00, 0x0e, 0x00, 0x18, 0x00, 0x08, 0x00,
  0x0c, 0x00, 0x10, 0x00, 0x07, 0x00, 0x14, 0x00, 0x0e, 0x00, 0x00, 0x00,
  0x00, 0x00, 0x00, 0x15, 0x01, 0x00, 0x00, 0x00, 0x18, 0x00, 0x00, 0x00,
  0x0c, 0x00, 0x00, 0x00, 0x04, 0x00, 0x00, 0x00, 0x50, 0xb8, 0xff, 0xff,
  0x01, 0x00, 0x00, 0x00, 0x11, 0x00, 0x00, 0x00, 0x02, 0x00, 0x00, 0x00,
  0x10, 0x00, 0x00, 0x00, 0x08, 0x00, 0x00, 0x00, 0x1e, 0xff, 0xff, 0xff,
  0x00, 0x00, 0x00, 0x12, 0x01, 0x00, 0x00, 0x00, 0xd8, 0xb8, 0xff, 0xff,
  0x60, 0x00, 0x00, 0x00, 0x12, 0x00, 0x00, 0x00, 0x20, 0x00, 0x00, 0x00,
  0x68, 0x00, 0x00, 0x00, 0x04, 0x00, 0x00, 0x00, 0x04, 0x00, 0x00, 0x00,
  0xff, 0xff, 0xff, 0xff, 0x01, 0x00, 0x00, 0x00, 0x20, 0x00, 0x00, 0x00,
  0x0c, 0x00, 0x00, 0x00, 0x32, 0x00, 0x00, 0x00, 0x66, 0x75, 0x6e, 0x63,
  0x74, 0x69, 0x6f, 0x6e, 0x61, 0x6c, 0x5f, 0x31, 0x2f, 0x62, 0x61, 0x74,
  0x63, 0x68, 0x5f, 0x6e, 0x6f, 0x72, 0x6d, 0x61, 0x6c, 0x69, 0x7a, 0x61,
  0x74, 0x69, 0x6f, 0x6e, 0x2f, 0x46, 0x75, 0x73, 0x65, 0x64, 0x42, 0x61,
  0x74, 0x63, 0x68, 0x4e, 0x6f, 0x72, 0x6d, 0x56, 0x33, 0x32, 0x00, 0x00,
  0x04, 0x00, 0x00, 0x00, 0x01, 0x00, 0x00, 0x00, 0x01, 0x00, 0x00, 0x00,
  0x20, 0x00, 0x00, 0x00, 0x0c, 0x00, 0x00, 0x00, 0x18, 0xba, 0xff, 0xff,
  0x00, 0x00, 0x0e, 0x00, 0x14, 0x00, 0x00, 0x00, 0x08, 0x00, 0x0c, 0x00,
  0x07, 0x00, 0x10, 0x00, 0x0e, 0x00, 0x00, 0x00, 0x00, 0x00, 0x00, 0x01,
  0x30, 0x00, 0x00, 0x00, 0x24, 0x00, 0x00, 0x00, 0x10, 0x00, 0x00, 0x00,
  0x0c, 0x00, 0x10, 0x00, 0x00, 0x00, 0x04, 0x00, 0x08, 0x00, 0x0f, 0x00,
  0x0c, 0x00, 0x00, 0x00, 0x02, 0x00, 0x00, 0x00, 0x02, 0x00, 0x00, 0x00,
  0x00, 0x00, 0x00, 0x01, 0x01, 0x00, 0x00, 0x00, 0x10, 0x00, 0x00, 0x00,
  0x03, 0x00, 0x00, 0x00, 0x00, 0x00, 0x00, 0x00, 0x0d, 0x00, 0x00, 0x00,
  0x02, 0x00, 0x00, 0x00, 0x00, 0x00, 0x0a, 0x00, 0x0c, 0x00, 0x07, 0x00,
  0x00, 0x00, 0x08, 0x00, 0x0a, 0x00, 0x00, 0x00, 0x00, 0x00, 0x00, 0x03,
  0x01, 0x00, 0x00, 0x00, 0xc4, 0xb9, 0xff, 0xff, 0xd0, 0x00, 0x00, 0x00,
  0x11, 0x00, 0x00, 0x00, 0x20, 0x00, 0x00, 0x00, 0xd8, 0x00, 0x00, 0x00,
  0x04, 0x00, 0x00, 0x00, 0x04, 0x00, 0x00, 0x00, 0xff, 0xff, 0xff, 0xff,
  0x01, 0x00, 0x00, 0x00, 0x20, 0x00, 0x00, 0x00, 0x0c, 0x00, 0x00, 0x00,
  0xa0, 0x00, 0x00, 0x00, 0x66, 0x75, 0x6e, 0x63, 0x74, 0x69, 0x6f, 0x6e,
  0x61, 0x6c, 0x5f, 0x31, 0x2f, 0x63, 0x6f, 0x6e, 0x76, 0x32, 0x64, 0x2f,
  0x52, 0x65, 0x6c, 0x75, 0x3b, 0x66, 0x75, 0x6e, 0x63, 0x74, 0x69, 0x6f,
  0x6e, 0x61, 0x6c, 0x5f, 0x31, 0x2f, 0x63, 0x6f, 0x6e, 0x76, 0x32, 0x64,
  0x2f, 0x42, 0x69, 0x61, 0x73, 0x41, 0x64, 0x64, 0x3b, 0x66, 0x75, 0x6e,
  0x63, 0x74, 0x69, 0x6f, 0x6e, 0x61, 0x6c, 0x5f, 0x31, 0x2f, 0x63, 0x6f,
  0x6e, 0x76, 0x32, 0x64, 0x5f, 0x32, 0x2f, 0x43, 0x6f, 0x6e, 0x76, 0x32,
  0x44, 0x3b, 0x66, 0x75, 0x6e, 0x63, 0x74, 0x69, 0x6f, 0x6e, 0x61, 0x6c,
  0x5f, 0x31, 0x2f, 0x63, 0x6f, 0x6e, 0x76, 0x32, 0x64, 0x2f, 0x43, 0x6f,
  0x6e, 0x76, 0x32, 0x44, 0x3b, 0x66, 0x75, 0x6e, 0x63, 0x74, 0x69, 0x6f,
  0x6e, 0x61, 0x6c, 0x5f, 0x31, 0x2f, 0x63, 0x6f, 0x6e, 0x76, 0x32, 0x64,
  0x2f, 0x42, 0x69, 0x61, 0x73, 0x41, 0x64, 0x64, 0x2f, 0x52, 0x65, 0x61,
  0x64, 0x56, 0x61, 0x72, 0x69, 0x61, 0x62, 0x6c, 0x65, 0x4f, 0x70, 0x2f,
  0x72, 0x65, 0x73, 0x6f, 0x75, 0x72, 0x63, 0x65, 0x00, 0x00, 0x00, 0x00,
  0x04, 0x00, 0x00, 0x00, 0x01, 0x00, 0x00, 0x00, 0x01, 0x00, 0x00, 0x00,
  0x20, 0x00, 0x00, 0x00, 0x0c, 0x00, 0x00, 0x00, 0x48, 0xba, 0xff, 0xff,
  0x6e, 0xbb, 0xff, 0xff, 0x04, 0x00, 0x00, 0x00, 0x40, 0x0b, 0x00, 0x00,
  0x7a, 0x25, 0x0a, 0x3f, 0xb2, 0x1d, 0x0f, 0xbf, 0xda, 0x75, 0x89, 0x3f,
  0xb4, 0xa7, 0x0b, 0xbe, 0xed, 0xf9, 0x9e, 0x3f, 0x5b, 0x82, 0xd1, 0xbf,
  0xad, 0xf1, 0xc5, 0xbe, 0x19, 0xe8, 0xa3, 0xbd, 0xc4, 0xa9, 0x84, 0x3e,
  0x2d, 0x79, 0xfc, 0x3e, 0x4a, 0x67, 0x92, 0x3e, 0xa3, 0x27, 0xf0, 0x3e,
  0xdd, 0x33, 0x81, 0x3e, 0xf0, 0x24, 0x8b, 0xc0, 0x26, 0x90, 0x55, 0xbf,
  0xff, 0xb3, 0x4d, 0xc0, 0x7f, 0x09, 0xfb, 0x3f, 0xe3, 0x44, 0xe7, 0xbe,
  0xe0, 0xc4, 0x16, 0xc0, 0xc9, 0x72, 0x09, 0xc0, 0xf4, 0xd9, 0x8b, 0x3f,
  0xe9, 0x15, 0x69, 0xbf, 0xaa, 0x92, 0xf9, 0xbf, 0x30, 0x9a, 0x12, 0x3f,
  0x2b, 0x11, 0xb2, 0x3f, 0x59, 0x9d, 0xcd, 0xbd, 0xb2, 0x15, 0x62, 0xbf,
  0x34, 0x0e, 0x34, 0xc0, 0xdb, 0x6b, 0xf2, 0x3e, 0x76, 0x3f, 0x7c, 0x3f,
  0x4b, 0x5a, 0x16, 0xbf, 0xf5, 0x37, 0x00, 0xc0, 0x06, 0xf7, 0x9a, 0x3f,
  0x6e, 0xdb, 0xb6, 0x3d, 0x7a, 0xb9, 0x2c, 0xbf, 0xff, 0x3d, 0xfe, 0xbf,
  0x1f, 0xaa, 0x96, 0x3f, 0x2a, 0xd1, 0xef, 0xbd, 0x15, 0xc8, 0x14, 0xbe,
  0xbe, 0xfb, 0xda, 0x3e, 0x76, 0x7d, 0xb7, 0x3f, 0x16, 0xeb, 0xbb, 0x3f,
  0x2f, 0xc4, 0x2a, 0x3f, 0x37, 0x6b, 0x16, 0x3e, 0x70, 0x3a, 0x2f, 0x3e,
  0xff, 0x9f, 0x8f, 0x3f, 0x65, 0x87, 0xa4, 0xbe, 0x2b, 0xd3, 0xa4, 0xc0,
  0x59, 0x90, 0xef, 0x3e, 0x91, 0x01, 0x3c, 0xbe, 0x42, 0x92, 0x1b, 0xbe,
  0xab, 0x2d, 0x8c, 0xbd, 0xd1, 0x0c, 0x4f, 0x3f, 0xdf, 0x9d, 0x30, 0xbf,
  0x1b, 0x81, 0x1c, 0xbe, 0x9f, 0x91, 0x63, 0xbe, 0x0f, 0x37, 0x14, 0x3f,
  0x12, 0xb0, 0xc9, 0x3f, 0x58, 0xce, 0x8c, 0xbf, 0x5c, 0x81, 0xab, 0xbf,
  0x90, 0x72, 0xcb, 0x3e, 0xec, 0x41, 0x22, 0xc0, 0x54, 0xe0, 0x33, 0x3f,
  0x7e, 0xfd, 0xe1, 0x3e, 0x9d, 0x71, 0xe0, 0x3e, 0xda, 0xe0, 0x93, 0xbf,
  0x43, 0xf4, 0x36, 0x3f, 0x96, 0x1d, 0x50, 0x3e, 0x0f, 0x39, 0x45, 0x3e,
  0x53, 0x8c, 0xc1, 0x3f, 0x5d, 0x94, 0x08, 0xbd, 0x31, 0x7d, 0x67, 0x3f,
  0xa4, 0x75, 0x81, 0xbe, 0x13, 0x90, 0x3b, 0xbf, 0x22, 0x95, 0xf3, 0xbd,
  0x80, 0x1f, 0x9d, 0xc0, 0x02, 0x03, 0x26, 0xbf, 0xe8, 0x3a, 0x46, 0xbf,
  0x55, 0xad, 0xc1, 0xc0, 0xf5, 0xf3, 0xc6, 0xc0, 0x6d, 0x1b, 0x51, 0xbe,
  0x51, 0x25, 0x37, 0x3f, 0x38, 0x50, 0xb9, 0xbf, 0xee, 0x72, 0xaf, 0x3f,
  0x13, 0xdf, 0xf3, 0xbe, 0x89, 0xda, 0xb9, 0x3d, 0xfe, 0x52, 0xa7, 0xbe,
  0x4a, 0x26, 0xf1, 0xbe, 0x13, 0xcb, 0x20, 0xbf, 0xe5, 0x2f, 0x2f, 0xbf,
  0x2b, 0x2b, 0x2f, 0xbf, 0x4d, 0xe2, 0x44, 0xbe, 0xe4, 0xd6, 0x14, 0xc0,
  0x29, 0x31, 0x90, 0xbf, 0xe7, 0xf2, 0xdf, 0xbf, 0x52, 0x47, 0xbc, 0xbf,
  0x4e, 0x1e, 0x4d, 0xbe, 0x8a, 0xc0, 0xa4, 0x3d, 0xf0, 0xe9, 0xfb, 0xbe,
  0xc6, 0x95, 0x6e, 0x3e, 0xd7, 0x9b, 0x96, 0xbf, 0x89, 0x68, 0xc7, 0x3e,
  0x6a, 0x58, 0x95, 0x3e, 0x51, 0xc3, 0xa5, 0x3e, 0x5a, 0xbc, 0x43, 0xbf,
  0x83, 0x3e, 0xde, 0xbe, 0xdb, 0xb3, 0x16, 0x3f, 0x09, 0x91, 0x8e, 0xbe,
  0x3d, 0xed, 0xbe, 0x3d, 0x89, 0x22, 0xc7, 0x3e, 0x37, 0x61, 0xb6, 0x3f,
  0x13, 0x6c, 0x43, 0x3d, 0x19, 0x25, 0x4e, 0x3f, 0x80, 0xd5, 0xf6, 0x3e,
  0x14, 0x4d, 0x8b, 0xbd, 0x71, 0x52, 0xf7, 0x3d, 0xa3, 0x5c, 0xe5, 0x3d,
  0x2a, 0xf6, 0x06, 0x3d, 0x94, 0x71, 0x4b, 0xbe, 0xa9, 0x1f, 0x44, 0x3f,
  0x8b, 0x7e, 0x94, 0x3f, 0xde, 0xcb, 0x4c, 0x3e, 0x63, 0xe5, 0x69, 0xbf,
  0xeb, 0xa0, 0x5e, 0x3e, 0xc9, 0xa4, 0x35, 0xbf, 0x2a, 0xbd, 0xa0, 0x3f,
  0xf5, 0x9d, 0x29, 0x3e, 0x51, 0xa3, 0xa9, 0x3e, 0xa7, 0xda, 0xac, 0x3e,
  0x95, 0xfe, 0x1f, 0x3f, 0x08, 0xad, 0xe6, 0x3e, 0xdc, 0x86, 0x33, 0x3f,
  0xd8, 0xbc, 0x34, 0xbf, 0x1e, 0x4c, 0x5f, 0xbe, 0x70, 0x2e, 0xc7, 0x3f,
  0x75, 0x6d, 0x1d, 0x3c, 0xc8, 0x0c, 0x30, 0xbf, 0x78, 0xf6, 0x2e, 0x3e,
  0x38, 0xce, 0x04, 0xbd, 0x28, 0xaa, 0x5c, 0xbd, 0xfc, 0xa8, 0xdf, 0xbf,
  0x9c, 0xd4, 0x48, 0xbf, 0xd2, 0x7e, 0x21, 0x3f, 0x76, 0x80, 0xbe, 0x3e,
  0x65, 0x2b, 0x4e, 0xc0, 0x6b, 0xa1, 0x0d, 0xc0, 0x84, 0xa6, 0x1c, 0x40,
  0x36, 0x32, 0x95, 0xbe, 0xba, 0x8b, 0xe0, 0x3e, 0x4f, 0x56, 0xd5, 0xbf,
  0x7c, 0x8e, 0x33, 0xbe, 0xb0, 0x76, 0x2f, 0xbf, 0x97, 0x5f, 0x00, 0xc0,
  0xf2, 0xba, 0x2c, 0xc0, 0x8a, 0xc9, 0x99, 0x3e, 0x6f, 0x4f, 0xbb, 0x3e,
  0x07, 0xf6, 0x08, 0xc0, 0xed, 0x42, 0x5f, 0xc0, 0xb8, 0xaa, 0x7d, 0x3f,
  0xc9, 0xce, 0x1b, 0xc0, 0x97, 0xe8, 0x69, 0xbb, 0x69, 0x53, 0xd8, 0xbf,
  0x38, 0x2b, 0x38, 0xc0, 0x4e, 0x3d, 0x33, 0xc0, 0xdf, 0xc7, 0x8a, 0xbf,
  0x73, 0x4c, 0xf6, 0xbf, 0x98, 0x18, 0x13, 0x40, 0x61, 0xf3, 0xd6, 0x3d,
  0xf7, 0x3c, 0xb7, 0x3e, 0x94, 0xa1, 0xe1, 0xbe, 0x00, 0x5f, 0xe5, 0x3c,
  0x88, 0x1c, 0xf3, 0xbf, 0x13, 0x13, 0xd5, 0x3d, 0x70, 0x51, 0xf1, 0xbf,
  0x07, 0x52, 0xf0, 0xbf, 0x6b, 0x8e, 0xdb, 0x3e, 0xcb, 0x9f, 0x68, 0x3f,
  0x34, 0x0f, 0x9d, 0xbf, 0x1e, 0x86, 0xf9, 0x3f, 0x98, 0xcf, 0xf0, 0x3e,
  0x5d, 0x58, 0x65, 0x3f, 0x01, 0xdc, 0xea, 0xbf, 0x0d, 0x8f, 0xd5, 0x3d,
  0x79, 0x01, 0xb6, 0xbe, 0x54, 0x97, 0x72, 0x3e, 0xab, 0x6b, 0x5d, 0x3f,
  0xdd, 0x29, 0x93, 0x3e, 0x69, 0x17, 0x92, 0x3e, 0xc4, 0xb0, 0x33, 0x3e,
  0x50, 0x2b, 0x00, 0x40, 0x8a, 0x7b, 0x83, 0xbf, 0x1a, 0xe1, 0xca, 0x3e,
  0x01, 0x5b, 0xe1, 0x3f, 0xf4, 0x24, 0x8b, 0xbd, 0x43, 0xaa, 0x50, 0xbf,
  0x9c, 0x11, 0xb7, 0xc0, 0x57, 0x74, 0xfd, 0x3e, 0x1c, 0x53, 0x89, 0xbc,
  0x83, 0x2c, 0x79, 0xc0, 0x23, 0x8d, 0x92, 0xc0, 0x6a, 0x0b, 0x8c, 0x3f,
  0xb8, 0x06, 0x1d, 0x40, 0xd1, 0xbf, 0x0b, 0xc0, 0xac, 0x98, 0x92, 0x3e,
  0x3a, 0x9a, 0xee, 0xbe, 0xd5, 0x1f, 0xcc, 0x3e, 0xcd, 0xfb, 0xdd, 0x3e,
  0xfb, 0x8a, 0xb5, 0xbd, 0x9e, 0x65, 0xe2, 0x3e, 0x60, 0x9a, 0xec, 0xbe,
  0x4b, 0xb3, 0x80, 0x3e, 0xe4, 0x76, 0x23, 0xbe, 0x68, 0x9a, 0xab, 0xbf,
  0x4d, 0x37, 0x9d, 0xbe, 0xa1, 0xd9, 0xe4, 0xbf, 0xfe, 0xd1, 0x29, 0xc0,
  0x9a, 0x99, 0xc7, 0xbf, 0x41, 0x6f, 0x90, 0xbe, 0x19, 0x02, 0xce, 0xbd,
  0x3e, 0x67, 0xbe, 0x3e, 0x04, 0x75, 0x0e, 0xc0, 0x73, 0x59, 0x2e, 0x3f,
  0xa4, 0x46, 0x9d, 0x3e, 0x14, 0x2e, 0x85, 0x3e, 0xf2, 0x37, 0xd5, 0x3d,
  0xce, 0xe9, 0x89, 0xbf, 0xf6, 0x5f, 0xc1, 0x3f, 0xfb, 0xf8, 0xa7, 0xbf,
  0xfb, 0xd7, 0x39, 0xbf, 0x39, 0x23, 0x82, 0xbc, 0xe2, 0x38, 0x89, 0x3f,
  0x86, 0xcb, 0x67, 0xbe, 0x98, 0x12, 0xd6, 0xbe, 0x70, 0xb9, 0x94, 0x3f,
  0x22, 0x5b, 0x3d, 0x3d, 0x45, 0x20, 0x9c, 0xbd, 0xfb, 0x3e, 0xc0, 0xbd,
  0x79, 0xd5, 0x90, 0xbf, 0xf9, 0xe1, 0x1a, 0xbe, 0x75, 0xa4, 0xe0, 0x3e,
  0x34, 0xdf, 0x0a, 0x3d, 0xb8, 0xe4, 0xd3, 0xbd, 0x1e, 0x9d, 0x9a, 0x3e,
  0xcc, 0xcd, 0x19, 0x3e, 0xaf, 0xe1, 0xaa, 0x3f, 0x3e, 0x56, 0x1f, 0x3e,
  0x23, 0x48, 0x1e, 0x3e, 0x65, 0x61, 0xae, 0x3d, 0x57, 0x0c, 0x93, 0x3e,
  0xed, 0x77, 0x27, 0x3d, 0x9c, 0xac, 0x93, 0x3f, 0x25, 0x95, 0x3d, 0x3f,
  0xf0, 0x29, 0x25, 0x3f, 0x88, 0x1b, 0xcf, 0xbf, 0xb5, 0xa3, 0x0c, 0xbf,
  0xcb, 0xcf, 0x1f, 0xbd, 0x77, 0x27, 0x3f, 0x3f, 0x12, 0x50, 0xd1, 0xbe,
  0xed, 0x93, 0x14, 0x3e, 0x1e, 0xb3, 0x50, 0x3e, 0x5e, 0x0a, 0x02, 0x3f,
  0xcc, 0x2f, 0x06, 0x40, 0x23, 0x25, 0x75, 0xbf, 0x91, 0xe1, 0x37, 0x3c,
  0x78, 0x9b, 0x82, 0x3f, 0x14, 0x85, 0xa5, 0x3e, 0x49, 0x15, 0x19, 0xbf,
  0x2d, 0x17, 0xb2, 0xc0, 0x1c, 0xc5, 0x98, 0xbe, 0x37, 0xf0, 0x47, 0xbf,
  0x44, 0xba, 0x94, 0xc0, 0x4b, 0x29, 0x80, 0xc0, 0x47, 0xf4, 0x43, 0x3f,
  0xb2, 0x24, 0x12, 0x40, 0x12, 0xae, 0xbd, 0xbf, 0x45, 0x27, 0x0b, 0x3e,
  0x24, 0x49, 0xb9, 0xbe, 0x3a, 0x2f, 0x15, 0x3e, 0xfa, 0x75, 0x81, 0xbf,
  0x37, 0x8f, 0x8d, 0xbd, 0xc1, 0x9d, 0xa8, 0xbe, 0x1e, 0x31, 0xb9, 0x3c,
  0x35, 0x2d, 0xd4, 0xbe, 0xd1, 0xba, 0x84, 0xbd, 0x80, 0xee, 0xb5, 0xbf,
  0x7b, 0x07, 0x08, 0xbf, 0x41, 0xf2, 0xc7, 0xbf, 0xfe, 0x92, 0x31, 0xc0,
  0x82, 0xab, 0xb1, 0xbf, 0xb9, 0x60, 0x4c, 0xbe, 0xa5, 0x05, 0xd9, 0x3e,
  0x97, 0xe7, 0x59, 0x3d, 0x69, 0x98, 0x58, 0xbf, 0x07, 0x70, 0x70, 0x3e,
  0xfa, 0x35, 0x84, 0x3d, 0x73, 0xb6, 0x2c, 0x3e, 0xd8, 0xcd, 0x3b, 0xbf,
  0xd4, 0xd3, 0x60, 0xbf, 0xd2, 0x3d, 0x16, 0x3f, 0x14, 0x17, 0xa2, 0xbc,
  0x4b, 0xb5, 0x09, 0xbf, 0x85, 0x3c, 0x92, 0xbc, 0xc1, 0x39, 0x44, 0x3e,
  0x24, 0x4d, 0x46, 0x3e, 0xe5, 0xaa, 0xe4, 0x3e, 0x7d, 0xae, 0xf5, 0x3e,
  0x89, 0x8f, 0x80, 0x3e, 0x6f, 0x66, 0x76, 0x3e, 0x48, 0x82, 0xbc, 0xbc,
  0x12, 0xbb, 0x0e, 0xbf, 0xc0, 0x1b, 0x7e, 0x3f, 0x75, 0xc0, 0x0d, 0x3d,
  0x88, 0xc3, 0x28, 0x3f, 0x7b, 0x10, 0x16, 0xc1, 0x6b, 0xc7, 0x59, 0x3f,
  0xfc, 0x31, 0xc4, 0xbf, 0x08, 0x61, 0x8d, 0xbe, 0x47, 0x0e, 0xed, 0xbd,
  0x32, 0xd6, 0xf8, 0xbe, 0x37, 0x56, 0xac, 0xbf, 0xa0, 0xae, 0x92, 0xbe,
  0x3f, 0x96, 0x38, 0x3f, 0x0b, 0x1a, 0x24, 0xc0, 0xc2, 0x09, 0x00, 0x3f,
  0x4d, 0x5f, 0x54, 0x3f, 0x2b, 0x35, 0x1a, 0xbe, 0x23, 0x6f, 0x59, 0xbe,
  0x73, 0x6d, 0xae, 0xc0, 0x90, 0xb9, 0xa8, 0xbf, 0x11, 0xdd, 0x34, 0xbf,
  0xc0, 0x91, 0xaa, 0xc0, 0x58, 0x3a, 0x74, 0xc0, 0xa3, 0x49, 0xfb, 0xbe,
  0xda, 0x24, 0x80, 0x3f, 0x24, 0xf7, 0x40, 0xbe, 0x78, 0xed, 0xf9, 0x3e,
  0x67, 0x8e, 0x83, 0xbf, 0xd2, 0x86, 0x92, 0x3e, 0x04, 0x0e, 0x1a, 0xbf,
  0x96, 0x6d, 0x16, 0x3e, 0x82, 0x92, 0x7a, 0x3d, 0x5a, 0x71, 0x5d, 0xbd,
  0x5e, 0x57, 0x40, 0x3e, 0xa7, 0x8d, 0xb7, 0x3e, 0x1f, 0x63, 0x1e, 0xc0,
  0x07, 0x9b, 0x9a, 0xbf, 0xab, 0xd5, 0x03, 0xc0, 0xd3, 0x88, 0x35, 0xc0,
  0xa9, 0xe6, 0x1f, 0xbf, 0xb6, 0xf8, 0xb6, 0x3d, 0xa0, 0xe1, 0x05, 0x3f,
  0xd1, 0x3d, 0x1b, 0x3e, 0x6b, 0x27, 0x71, 0x3e, 0x49, 0x6d, 0x49, 0x3e,
  0xe6, 0x6c, 0xb9, 0x3d, 0xfe, 0xda, 0x14, 0x3c, 0x26, 0x7a, 0xc7, 0xbe,
  0xec, 0x08, 0x39, 0xbf, 0x50, 0xdb, 0x76, 0x3f, 0xc7, 0xe1, 0xdd, 0xbd,
  0x54, 0x3d, 0x19, 0x3e, 0x74, 0xfe, 0x75, 0xbe, 0x91, 0x4e, 0x63, 0xbd,
  0xf7, 0xde, 0x04, 0xbf, 0x53, 0xd2, 0x67, 0xbf, 0xfc, 0xc7, 0x51, 0x3e,
  0xb5, 0x66, 0xd7, 0xbd, 0x33, 0xe3, 0x6a, 0xbf, 0x29, 0xb7, 0xe0, 0xbe,
  0xb6, 0xf9, 0xc9, 0x3e, 0x7a, 0x11, 0x4f, 0xbe, 0xfd, 0x10, 0xbc, 0x3e,
  0x97, 0x22, 0x3f, 0xbe, 0x2c, 0xef, 0xa0, 0xbf, 0x8b, 0x70, 0xc1, 0x3e,
  0xaa, 0xb9, 0x0a, 0xbf, 0x39, 0x50, 0xc5, 0xbf, 0x33, 0x45, 0x08, 0x3f,
  0xe0, 0xe6, 0xe0, 0x3e, 0xea, 0xa5, 0xa7, 0xbf, 0x43, 0x90, 0x2e, 0xc0,
  0xe9, 0x9d, 0x30, 0xbf, 0x47, 0x80, 0x69, 0x3f, 0xb1, 0x26, 0xb0, 0xbe,
  0x7d, 0x04, 0xa9, 0xbf, 0xc8, 0x06, 0xce, 0xbf, 0x4c, 0x7f, 0x66, 0x3f,
  0x58, 0x07, 0xdb, 0xbf, 0x18, 0x3b, 0x85, 0xbf, 0xae, 0x39, 0x67, 0xbe,
  0xc0, 0xbe, 0x98, 0xbf, 0x3b, 0x72, 0x23, 0xc0, 0xa2, 0x81, 0x8e, 0xc0,
  0xcc, 0xf8, 0xb2, 0xbe, 0x40, 0x20, 0x1c, 0x3f, 0xdb, 0xd2, 0x0e, 0xbe,
  0x5b, 0xc0, 0x17, 0xbf, 0x03, 0x2c, 0x09, 0x3e, 0x1c, 0x11, 0xce, 0x3c,
  0x60, 0xc7, 0xbf, 0xbf, 0xed, 0x9b, 0x69, 0xbf, 0xd4, 0x35, 0x30, 0xc0,
  0xb1, 0x0a, 0xe7, 0xbf, 0x0b, 0x37, 0x07, 0xbf, 0xe8, 0xa3, 0x06, 0xc0,
  0x14, 0x25, 0x41, 0xbf, 0x2d, 0x31, 0x38, 0xbf, 0xc4, 0x45, 0x44, 0xbf,
  0x23, 0x12, 0x46, 0xbf, 0x43, 0x3c, 0x1e, 0x3f, 0xed, 0x3e, 0x7c, 0xbf,
  0x28, 0xe7, 0x61, 0x3e, 0xbb, 0x73, 0x13, 0xbe, 0xeb, 0xc4, 0x86, 0xbe,
  0x85, 0x71, 0x04, 0x3d, 0x32, 0x31, 0xc5, 0x3e, 0xf5, 0xe7, 0x39, 0xbf,
  0xc8, 0xe0, 0x3c, 0xbf, 0x97, 0xda, 0x00, 0xbf, 0xf1, 0x74, 0xdb, 0xbf,
  0x1a, 0x92, 0x52, 0xc0, 0x69, 0x7d, 0x89, 0xbe, 0x6a, 0xa6, 0x32, 0x3f,
  0x0e, 0x76, 0x5a, 0xbe, 0x92, 0x88, 0xa5, 0xbf, 0xd5, 0x93, 0x37, 0xbf,
  0xf6, 0xd3, 0x07, 0x3d, 0xc3, 0xcf, 0xa7, 0xbe, 0x49, 0x5b, 0xee, 0xbf,
  0x94, 0xea, 0x8a, 0xbf, 0xb9, 0x4a, 0x0d, 0x3e, 0x67, 0x4c, 0xb7, 0x3f,
  0xdd, 0xcf, 0x4b, 0xc0, 0x91, 0x59, 0x52, 0xbe, 0x54, 0x67, 0x42, 0x40,
  0x87, 0xa2, 0x88, 0x3d, 0x70, 0x18, 0xea, 0x3e, 0xb7, 0x25, 0xef, 0xbe,
  0x73, 0xc8, 0x2d, 0x3e, 0xce, 0x5e, 0x35, 0x3e, 0xd3, 0xf9, 0x70, 0xbf,
  0x87, 0xa9, 0x2b, 0xc0, 0xf1, 0xe7, 0x18, 0x3f, 0xc3, 0xe0, 0x69, 0x3f,
  0x31, 0x67, 0x45, 0xbf, 0xff, 0x74, 0x52, 0xbf, 0x0e, 0xa9, 0x43, 0x40,
  0xdc, 0x64, 0xd2, 0xbe, 0x98, 0xff, 0x38, 0x3f, 0x15, 0xc5, 0x08, 0xc0,
  0x01, 0x8a, 0x75, 0xbe, 0xb4, 0x27, 0x77, 0xbd, 0xd4, 0xf7, 0xcf, 0xbd,
  0x9c, 0xd0, 0x67, 0xbf, 0x61, 0xe8, 0x1e, 0xbf, 0x95, 0xd9, 0x9c, 0x3d,
  0xde, 0x01, 0xeb, 0x3e, 0xb0, 0xa7, 0x2a, 0xbe, 0x1e, 0xfd, 0x8f, 0xbe,
  0xed, 0x27, 0x28, 0x3e, 0x95, 0xed, 0xfb, 0x3e, 0x19, 0x63, 0xa6, 0x3e,
  0x67, 0xe5, 0x3b, 0xbe, 0xb9, 0xcb, 0xff, 0x3e, 0xc4, 0x24, 0xf4, 0xbd,
  0x77, 0x14, 0x52, 0x3e, 0xd0, 0xc9, 0xb8, 0xbf, 0xb5, 0xb1, 0xc5, 0xbd,
  0xc8, 0xc1, 0x8f, 0x3d, 0xb6, 0x06, 0xb0, 0x3e, 0xdb, 0xb7, 0x51, 0xbf,
  0x09, 0x43, 0xb8, 0x3e, 0xa1, 0x9e, 0x09, 0xbf, 0x47, 0xc9, 0x53, 0x3e,
  0x75, 0xa5, 0x21, 0xbe, 0x20, 0x65, 0x8f, 0x3e, 0xc7, 0xea, 0xa6, 0xbe,
  0x31, 0x2c, 0xca, 0x3e, 0x3f, 0x70, 0x2c, 0xbf, 0xdb, 0x81, 0x2d, 0xbe,
  0x53, 0x63, 0xbc, 0x3f, 0xd5, 0x12, 0x73, 0x3f, 0x98, 0xff, 0x7a, 0xc0,
  0x5f, 0xe8, 0xb4, 0x3e, 0x6f, 0xf8, 0xeb, 0xbf, 0xa6, 0x78, 0x41, 0x40,
  0x68, 0x07, 0x35, 0x3f, 0x9b, 0xfd, 0x9e, 0x3f, 0xcf, 0x34, 0x84, 0x3f,
  0x14, 0xc3, 0x98, 0x3d, 0x17, 0x23, 0x60, 0xbc, 0xdc, 0x89, 0x8c, 0xc0,
  0x81, 0x8e, 0x45, 0xbc, 0x5e, 0x07, 0xe4, 0x3f, 0x40, 0x16, 0x96, 0x3f,
  0xb8, 0xdb, 0xf9, 0x3e, 0x7c, 0x1a, 0x14, 0x3f, 0x43, 0x51, 0x58, 0x40,
  0xfe, 0xc1, 0x14, 0x3f, 0xe1, 0x60, 0x78, 0x3f, 0x7c, 0xc9, 0x28, 0x40,
  0x08, 0x1e, 0xb3, 0xbf, 0x63, 0xa1, 0x8f, 0x3f, 0xc0, 0xa0, 0x1b, 0x3f,
  0xa2, 0xbc, 0xe7, 0xbe, 0xdd, 0xa3, 0x73, 0x3f, 0xf3, 0x81, 0x1b, 0x3f,
  0xd4, 0x39, 0xba, 0x3d, 0x1e, 0x0a, 0x24, 0x40, 0xf4, 0x7a, 0xf3, 0xbf,
  0x99, 0x6a, 0xbc, 0x3e, 0xaa, 0x67, 0xf7, 0x3e, 0xf6, 0xf7, 0xab, 0x3f,
  0x77, 0x21, 0xd1, 0x3f, 0x7e, 0xeb, 0x0c, 0xbf, 0x25, 0x6d, 0x5f, 0x3f,
  0xd5, 0x1f, 0x6c, 0x3e, 0xd4, 0xa5, 0xaf, 0xbe, 0x92, 0x24, 0x3e, 0x3f,
  0xfc, 0xd9, 0x34, 0x3f, 0x8a, 0x1b, 0xaf, 0xbe, 0x2d, 0x86, 0xfc, 0x3e,
  0xd6, 0xbc, 0xb5, 0x3e, 0x73, 0xbe, 0x99, 0x3e, 0xf9, 0x76, 0xb6, 0x3e,
  0x75, 0x02, 0x67, 0x3f, 0xa8, 0x01, 0x2a, 0xbf, 0x80, 0x32, 0xeb, 0x3e,
  0xdc, 0x82, 0x17, 0x3f, 0x32, 0x7d, 0x98, 0x3e, 0x1d, 0xa7, 0xdd, 0xbe,
  0xf9, 0x9a, 0xbc, 0xbd, 0x84, 0x0b, 0xe0, 0xbf, 0x8e, 0x47, 0xeb, 0x3e,
  0x97, 0x6f, 0x05, 0xbf, 0xbd, 0x90, 0x79, 0x3d, 0xe7, 0x34, 0x72, 0x3f,
  0x75, 0x29, 0x91, 0xbe, 0x13, 0xe1, 0x27, 0x3f, 0x28, 0xab, 0xbf, 0x3e,
  0xb7, 0xdb, 0xc0, 0xbf, 0xc5, 0xe0, 0xe2, 0x3e, 0x47, 0xdb, 0x12, 0x3f,
  0xa0, 0xd5, 0x33, 0xbe, 0x5c, 0xef, 0x30, 0x3f, 0x4a, 0x38, 0x98, 0xbe,
  0x3c, 0xef, 0xe1, 0x3b, 0x71, 0x51, 0xd2, 0xbc, 0xc0, 0x3a, 0x37, 0x3f,
  0x01, 0x10, 0xb7, 0xbf, 0x60, 0xb6, 0x24, 0x3f, 0xad, 0x99, 0x38, 0x3e,
  0x9d, 0xb4, 0x2f, 0x3f, 0x53, 0xfa, 0x85, 0xbe, 0x28, 0x3e, 0x19, 0x3f,
  0xfd, 0x73, 0xb6, 0x3e, 0xbe, 0x41, 0x4b, 0x40, 0x84, 0xd7, 0x5f, 0x3e,
  0xbd, 0xe0, 0x0d, 0x3f, 0xdd, 0xab, 0x26, 0x3f, 0x62, 0xaa, 0x91, 0x3f,
  0x20, 0x2b, 0x9c, 0x3f, 0x44, 0x79, 0xe2, 0x3f, 0x43, 0x88, 0xcb, 0x3e,
  0x15, 0xab, 0x94, 0x3e, 0xd4, 0x64, 0x4d, 0xc0, 0xe1, 0xc0, 0x5c, 0x3f,
  0x79, 0x44, 0x92, 0xbf, 0x8c, 0xf3, 0x33, 0x40, 0x70, 0x47, 0x84, 0xbe,
  0x1f, 0x4f, 0x89, 0xbf, 0xd6, 0x28, 0xe8, 0xbf, 0xfd, 0xb6, 0x8a, 0x3f,
  0xbe, 0xcd, 0xda, 0x3e, 0x74, 0xd6, 0x22, 0xc0, 0x50, 0x04, 0x8f, 0x3f,
  0x87, 0x79, 0x3d, 0x3f, 0x6b, 0x24, 0x38, 0x3d, 0x90, 0x3c, 0x7d, 0xbf,
  0xb7, 0x1f, 0xac, 0xbf, 0xc2, 0x17, 0x2d, 0xbf, 0x5f, 0x64, 0xe8, 0xbe,
  0xd0, 0x36, 0x86, 0xbf, 0x62, 0x55, 0x03, 0xbf, 0x02, 0x66, 0xb7, 0xbe,
  0x89, 0xc7, 0x5f, 0x3f, 0x4a, 0x72, 0x2a, 0xbf, 0xff, 0x88, 0xd3, 0xbf,
  0x8c, 0x22, 0x60, 0xbf, 0x92, 0x25, 0xa0, 0x3e, 0x5d, 0x87, 0xed, 0x3d,
  0x53, 0x0d, 0x2f, 0x3d, 0xe6, 0x97, 0x55, 0xbe, 0xdc, 0xdf, 0xcb, 0x3f,
  0xb1, 0x63, 0xc5, 0x3e, 0x1f, 0x89, 0x0e, 0x3e, 0x38, 0xaf, 0xc4, 0xbf,
  0x94, 0xaf, 0x89, 0xbf, 0xde, 0x92, 0x1c, 0x3f, 0x71, 0x38, 0x3d, 0xc0,
  0x31, 0xc9, 0x99, 0xbe, 0xe3, 0x3d, 0x58, 0xc0, 0xfa, 0x30, 0x97, 0xbd,
  0x01, 0x74, 0x78, 0xc0, 0x38, 0xc8, 0xd5, 0x3e, 0xce, 0x62, 0xca, 0xbe,
  0x97, 0xab, 0x25, 0xc0, 0x92, 0xb8, 0x4a, 0xc0, 0x9b, 0xf0, 0x25, 0xbf,
  0xec, 0xd5, 0x18, 0xbe, 0xcd, 0x11, 0xc6, 0xbf, 0x29, 0x21, 0xa7, 0x3d,
  0x69, 0xc1, 0x71, 0xbd, 0x77, 0x5a, 0x1c, 0xc0, 0xa3, 0x77, 0x47, 0x3e,
  0x9d, 0xeb, 0x60, 0xc0, 0x17, 0xad, 0xb0, 0xbf, 0x6f, 0x38, 0x85, 0x3e,
  0x92, 0x3b, 0xba, 0xbf, 0x45, 0xce, 0xf7, 0xbf, 0x22, 0x6d, 0x90, 0x3e,
  0x20, 0x21, 0x71, 0xbe, 0x92, 0xba, 0x67, 0x3d, 0xa9, 0xff, 0x02, 0xbf,
  0x9a, 0x1e, 0xaf, 0x3e, 0x4e, 0xee, 0xd1, 0xbf, 0x9a, 0x1b, 0xf3, 0xbd,
  0x57, 0xd6, 0x01, 0xc0, 0x16, 0x9f, 0x0e, 0xbf, 0x89, 0x42, 0xd3, 0x3e,
  0x01, 0xd9, 0x7a, 0x3e, 0x60, 0xfa, 0xb2, 0xbf, 0xb7, 0x98, 0x99, 0xbd,
  0xdd, 0x21, 0x9c, 0xbe, 0x8d, 0x24, 0x7e, 0xbe, 0xcb, 0xcd, 0x50, 0xbf,
  0xd2, 0x86, 0xd8, 0x3e, 0xe0, 0x38, 0xb1, 0xbf, 0xf4, 0xe8, 0xe6, 0x3e,
  0x11, 0x5e, 0x81, 0xbf, 0x14, 0xfe, 0x61, 0x3e, 0xbe, 0x34, 0xac, 0x3e,
  0x9b, 0xcd, 0x99, 0x3e, 0xfc, 0x18, 0xa0, 0xbf, 0x28, 0x24, 0xf9, 0x3e,
  0x26, 0xd1, 0xd2, 0x3e, 0x31, 0xe4, 0x6f, 0x3f, 0xf3, 0xe5, 0x86, 0xbf,
  0xb5, 0x26, 0x03, 0xbd, 0xe9, 0x44, 0xd0, 0xbc, 0x6a, 0x24, 0x68, 0x3e,
  0xc8, 0xcb, 0x3d, 0xbf, 0xdf, 0xe0, 0x2b, 0x3f, 0x52, 0xc2, 0xb4, 0xbf,
  0x97, 0xaf, 0x82, 0xbf, 0x04, 0xf2, 0x21, 0xbf, 0xb1, 0xa0, 0x87, 0x3e,
  0x92, 0x5a, 0xa8, 0x3d, 0xff, 0x94, 0x94, 0x3e, 0xff, 0xa2, 0x00, 0xbf,
  0xd5, 0x21, 0x31, 0xc0, 0xcb, 0xe8, 0x75, 0x3b, 0x4a, 0x20, 0xfe, 0x3f,
  0x0a, 0x3d, 0xab, 0x3e, 0xe6, 0x56, 0x62, 0x3f, 0xc8, 0x63, 0x60, 0x3f,
  0x13, 0xe9, 0xc2, 0x3e, 0x13, 0x4a, 0x15, 0x3e, 0x70, 0xe1, 0xe2, 0xbe,
  0x42, 0x18, 0xc7, 0xbf, 0x30, 0xd5, 0x80, 0x3f, 0xe2, 0x1d, 0x97, 0x3f,
  0x22, 0x87, 0x34, 0xbf, 0x71, 0x7b, 0x18, 0xc0, 0x2b, 0x2e, 0x11, 0x40,
  0x2c, 0x0c, 0x7b, 0xbe, 0xe3, 0x39, 0x5e, 0x3f, 0xf1, 0x48, 0xc4, 0xc0,
  0xaa, 0x16, 0xf6, 0xbe, 0xc4, 0x19, 0x11, 0xbf, 0xc8, 0x5a, 0x58, 0x3d,
  0x31, 0x16, 0x32, 0x3e, 0x8a, 0x14, 0x2c, 0xbe, 0x3f, 0xfa, 0xe9, 0x3e,
  0xb6, 0x2b, 0xa9, 0xbe, 0xd3, 0x9f, 0x05, 0xc0, 0x5a, 0x05, 0x1a, 0x3f,
  0x2f, 0x9d, 0x92, 0xc0, 0x45, 0x3e, 0x36, 0x3f, 0x14, 0xcc, 0xc0, 0xbd,
  0xe1, 0x7a, 0x85, 0xc0, 0xc9, 0xa0, 0x66, 0xc0, 0x6f, 0xf7, 0x4a, 0x3c,
  0x89, 0xde, 0x12, 0xbd, 0x59, 0x03, 0xba, 0xbf, 0xba, 0x8a, 0x49, 0x3f,
  0xb8, 0x40, 0x6a, 0x3f, 0x08, 0xd8, 0xd1, 0xbe, 0xd6, 0x69, 0x88, 0xbe,
  0xdb, 0x45, 0x60, 0xbf, 0x95, 0x95, 0xb3, 0xbf, 0x17, 0x5d, 0xbd, 0xbb,
  0xdd, 0x03, 0x55, 0xbf, 0xe1, 0x2a, 0x9f, 0xbe, 0xf2, 0x5f, 0x20, 0x3f,
  0xae, 0x4e, 0xf8, 0xbe, 0x9f, 0x34, 0x71, 0xbe, 0x91, 0x83, 0x9a, 0xbd,
  0x3c, 0xb2, 0xba, 0x3f, 0xde, 0x32, 0x26, 0xbf, 0xf8, 0xc1, 0x1d, 0x3f,
  0xd6, 0x58, 0xc9, 0xbd, 0xbc, 0x01, 0x99, 0x3f, 0x6d, 0xf0, 0x01, 0xbf,
  0x88, 0xd2, 0x7a, 0x3d, 0x0d, 0x01, 0xa1, 0x3d, 0x75, 0xb2, 0xc5, 0x3e,
  0x77, 0xfe, 0x13, 0x3f, 0x9d, 0xcf, 0x24, 0x3e, 0xab, 0xa2, 0x9f, 0xbf,
  0x66, 0xc6, 0xff, 0xff, 0x34, 0x00, 0x00, 0x00, 0x10, 0x00, 0x00, 0x00,
  0x08, 0x00, 0x00, 0x00, 0x3c, 0x00, 0x00, 0x00, 0x1c, 0x00, 0x00, 0x00,
  0x66, 0x75, 0x6e, 0x63, 0x74, 0x69, 0x6f, 0x6e, 0x61, 0x6c, 0x5f, 0x31,
  0x2f, 0x63, 0x6f, 0x6e, 0x76, 0x32, 0x64, 0x5f, 0x32, 0x2f, 0x43, 0x6f,
  0x6e, 0x76, 0x32, 0x44, 0x00, 0x00, 0x00, 0x00, 0x04, 0x00, 0x00, 0x00,
  0x0c, 0x00, 0x00, 0x00, 0x01, 0x00, 0x00, 0x00, 0x05, 0x00, 0x00, 0x00,
  0x0c, 0x00, 0x00, 0x00, 0xe4, 0xc5, 0xff, 0xff, 0x0a, 0xc7, 0xff, 0xff,
  0x04, 0x00, 0x00, 0x00, 0x80, 0x16, 0x00, 0x00, 0x16, 0x67, 0x8f, 0xbf,
  0x60, 0xd9, 0x72, 0x3f, 0x94, 0xcc, 0x04, 0x3f, 0x38, 0xb7, 0x8e, 0x3f,
  0x1f, 0x06, 0x0c, 0xbc, 0x0c, 0x24, 0xf1, 0xbf, 0x5c, 0x63, 0x4e, 0xbe,
  0x79, 0x50, 0x84, 0x3f, 0x28, 0x73, 0x29, 0xbe, 0x48, 0x1b, 0xd7, 0x3f,
  0x07, 0xee, 0x5c, 0x3e, 0x02, 0x83, 0x30, 0xbf, 0x18, 0xd8, 0x0c, 0xc0,
  0x6f, 0x6d, 0x5e, 0xbe, 0xa3, 0x23, 0x65, 0x3f, 0x5e, 0xda, 0x1e, 0x3f,
  0xfb, 0x1f, 0x8e, 0xbf, 0x4d, 0x07, 0x56, 0xc0, 0xa8, 0x50, 0x59, 0xc0,
  0xc4, 0x81, 0x0b, 0xbe, 0xad, 0x8d, 0x6a, 0x3f, 0x65, 0xce, 0xc3, 0x3f,
  0x0c, 0x94, 0x1f, 0xc0, 0x2b, 0x45, 0x9d, 0x3f, 0xa4, 0x91, 0xf9, 0x3f,
  0x56, 0x16, 0x7e, 0xbf, 0x2b, 0x00, 0xc3, 0x3f, 0xbf, 0xcc, 0x27, 0x3f,
  0x5f, 0xfd, 0xdc, 0x3e, 0xc0, 0x1e, 0xbe, 0xc0, 0x87, 0xcb, 0x77, 0xc0,
  0x1a, 0xfc, 0x05, 0x3f, 0x89, 0xdb, 0xf9, 0x3f, 0xf6, 0x1f, 0x5b, 0xc0,
  0xb0, 0x42, 0x62, 0xbf, 0x5d, 0xc8, 0x84, 0x3f, 0x98, 0x4e, 0xfc, 0x3e,
  0x21, 0x4f, 0x05, 0xbf, 0xa7, 0xe4, 0x9b, 0x3f, 0x42, 0x6d, 0x1e, 0x3e,
  0x17, 0xf3, 0x06, 0x3f, 0x1c, 0x3a, 0x8b, 0xc0, 0x4a, 0x11, 0x2c, 0xc0,
  0xa2, 0xda, 0x1c, 0x3f, 0xc1, 0x42, 0x8b, 0x3f, 0x2a, 0xb0, 0xd4, 0xbe,
  0x9f, 0x5a, 0x13, 0xc0, 0x4c, 0x38, 0x84, 0xbf, 0x26, 0x13, 0x38, 0xbe,
  0x47, 0x66, 0xa5, 0x3f, 0xe2, 0x8b, 0xcb, 0x3f, 0x42, 0xa8, 0x50, 0xbe,
  0xae, 0x5c, 0xc1, 0x3d, 0x05, 0x2a, 0x3a, 0xbf, 0xdc, 0x43, 0x34, 0xc1,
  0xa1, 0xc2, 0x00, 0xbf, 0xba, 0xe2, 0x07, 0x40, 0x77, 0x90, 0xce, 0x3f,
  0xf8, 0xc6, 0xcc, 0xbf, 0x09, 0xe7, 0xb0, 0xc0, 0xc7, 0x9a, 0x23, 0xbf,
  0xa8, 0x94, 0xa1, 0xbd, 0xff, 0x13, 0x1b, 0x40, 0x8c, 0x2b, 0x63, 0x3f,
  0xc8, 0xb4, 0xf4, 0x3d, 0xb3, 0x91, 0x34, 0x3f, 0x4c, 0xee, 0x1a, 0xc1,
  0x32, 0x4d, 0xca, 0xbf, 0xd6, 0x7d, 0x1b, 0x40, 0x61, 0x5a, 0x13, 0x3f,
  0x45, 0x98, 0x74, 0xbf, 0xf0, 0x2c, 0xaa, 0xc0, 0x8f, 0xf4, 0xc0, 0xbc,
  0xa3, 0xb0, 0x31, 0xbf, 0x20, 0xd5, 0x80, 0x3f, 0x93, 0x39, 0x81, 0x3f,
  0xa5, 0xb6, 0x62, 0xbe, 0x81, 0xde, 0x69, 0x3f, 0xad, 0x74, 0xaf, 0xbf,
  0x91, 0x66, 0xdc, 0xbe, 0xa4, 0xb7, 0x2a, 0x3f, 0x96, 0x51, 0xa4, 0x3f,
  0x43, 0x8a, 0xaf, 0xbe, 0xac, 0x32, 0xb0, 0xbf, 0xbb, 0x98, 0x8b, 0xbe,
  0x90, 0x46, 0xd4, 0x3f, 0x1e, 0xd7, 0x2e, 0x3e, 0xad, 0xbd, 0xa9, 0xbe,
  0xc7, 0x52, 0xca, 0xbe, 0x72, 0x69, 0xdb, 0xbe, 0x9c, 0x0a, 0x4c, 0x3f,
  0x4d, 0xbc, 0x0c, 0x3f, 0x11, 0x7e, 0x86, 0xbe, 0x84, 0x3e, 0x00, 0xbf,
  0x02, 0x5c, 0x6b, 0xbe, 0x40, 0x23, 0xb5, 0xbe, 0x9a, 0x90, 0x49, 0xbe,
  0xa4, 0x28, 0x08, 0x40, 0x2f, 0xb0, 0x8e, 0xbf, 0x07, 0x4b, 0x03, 0x3f,
  0x38, 0x7b, 0xe1, 0x3d, 0xb9, 0x0d, 0x7c, 0x3e, 0x1a, 0x36, 0x5b, 0x3f,
  0x79, 0x3c, 0xa8, 0x3f, 0x26, 0x22, 0x95, 0xbf, 0x16, 0x06, 0x59, 0xbf,
  0x83, 0x9d, 0xd3, 0x3e, 0x7d, 0x6e, 0x9d, 0xbf, 0xa9, 0x2b, 0xc0, 0x3c,
  0x06, 0xce, 0xb7, 0xbe, 0xdb, 0x62, 0xb4, 0xbe, 0xe1, 0xa3, 0x16, 0x3f,
  0x13, 0xbf, 0xc9, 0x3f, 0x6d, 0xeb, 0xcb, 0xbd, 0x64, 0xf9, 0x2c, 0x3e,
  0x0a, 0x1e, 0x3a, 0xbe, 0x57, 0x9c, 0x17, 0xbf, 0xf9, 0xde, 0x3a, 0x3d,
  0xd8, 0xd5, 0x93, 0xbe, 0x02, 0xf7, 0x1d, 0xbf, 0xde, 0xc1, 0xdb, 0xbd,
  0x27, 0x57, 0x4b, 0xbf, 0x46, 0x5a, 0xfa, 0xbe, 0x99, 0x03, 0xe7, 0x3e,
  0x9e, 0x94, 0x49, 0x3f, 0xa7, 0x8d, 0x60, 0x3f, 0x6d, 0x75, 0xe2, 0x3e,
  0xcd, 0xcb, 0xa6, 0x3e, 0x0b, 0x0d, 0x25, 0xbf, 0xe4, 0x06, 0xb6, 0xbf,
  0xd7, 0xa5, 0xe6, 0x3e, 0xb3, 0x1f, 0xca, 0x3f, 0x0f, 0x2b, 0x8a, 0x40,
  0x12, 0xf4, 0x87, 0xbf, 0xb5, 0xae, 0x94, 0x3f, 0x78, 0x34, 0xe6, 0x3f,
  0x50, 0xd2, 0x24, 0x40, 0xba, 0x40, 0x2a, 0x40, 0x86, 0x85, 0x7b, 0x3e,
  0x43, 0x1f, 0xa3, 0x3e, 0x79, 0xe6, 0xa1, 0x3f, 0xbf, 0x95, 0xa3, 0x3e,
  0xc3, 0x04, 0xa1, 0x3b, 0x21, 0xb4, 0x87, 0xc0, 0xa4, 0xfc, 0xe9, 0x3f,
  0x2b, 0x95, 0xd4, 0xbf, 0x38, 0xa0, 0x99, 0x3f, 0x02, 0x4f, 0x9c, 0x3e,
  0x6a, 0x85, 0xba, 0xbe, 0x9b, 0xf3, 0x1b, 0x40, 0xe1, 0xd7, 0x07, 0x3e,
  0xa6, 0xd4, 0x06, 0xbf, 0x03, 0xb6, 0x80, 0x3f, 0x80, 0xc0, 0xd5, 0x3e,
  0x53, 0xb4, 0x47, 0xbf, 0x3b, 0x98, 0xf2, 0xbe, 0xa1, 0x76, 0x68, 0x3e,
  0x64, 0xbf, 0xab, 0xbf, 0xb1, 0x37, 0xb9, 0xbe, 0xdb, 0x72, 0x07, 0x40,
  0xef, 0x0e, 0x00, 0xc0, 0x14, 0x5f, 0x10, 0x40, 0xd4, 0xa5, 0x94, 0x3f,
  0x07, 0x15, 0x91, 0x3f, 0x2e, 0x4b, 0xc7, 0xbe, 0xe2, 0xba, 0x8e, 0x3d,
  0xeb, 0x30, 0x08, 0x40, 0x93, 0xd7, 0xda, 0x3e, 0x8c, 0x5e, 0x01, 0xbf,
  0xf0, 0xed, 0x3b, 0x3e, 0x6c, 0x22, 0xbf, 0xbf, 0x24, 0x9b, 0x56, 0x3f,
  0xc5, 0xcf, 0x64, 0xbf, 0x77, 0xca, 0x86, 0x3f, 0x6e, 0x3f, 0xca, 0x3f,
  0x61, 0x33, 0x73, 0x40, 0x22, 0x4d, 0xa1, 0xbf, 0xe4, 0x68, 0x25, 0x3b,
  0x44, 0x33, 0xb2, 0x40, 0x6d, 0x0d, 0xcd, 0x3d, 0x3a, 0x20, 0xbc, 0x3f,
  0x6d, 0xb1, 0x7b, 0xbf, 0x58, 0xc5, 0x84, 0xbf, 0x42, 0xaf, 0xd2, 0x3f,
  0x31, 0xbf, 0xd1, 0x3d, 0xb7, 0x13, 0x66, 0x3f, 0x53, 0x21, 0x64, 0xbf,
  0xa7, 0x4e, 0xc5, 0x3f, 0x1d, 0x01, 0x1a, 0xbf, 0x7b, 0x7d, 0x5e, 0x40,
  0x44, 0x90, 0x75, 0xbc, 0xbb, 0xee, 0xd2, 0x3e, 0xad, 0x76, 0x1e, 0x3f,
  0x13, 0x36, 0x90, 0xbf, 0x95, 0xf9, 0x8e, 0xbe, 0x02, 0x1f, 0x04, 0xbf,
  0x7c, 0x6a, 0x89, 0xbf, 0x96, 0x56, 0x44, 0xbf, 0x82, 0x81, 0x80, 0xbf,
  0x85, 0x81, 0x3a, 0xbf, 0x84, 0xc1, 0x0a, 0xbe, 0x6e, 0x4e, 0xb0, 0x3f,
  0x4f, 0xd6, 0x45, 0xbe, 0xdf, 0x9f, 0xa5, 0x3f, 0xb8, 0xc3, 0xa8, 0xbe,
  0xb5, 0xdd, 0xc8, 0xbe, 0x15, 0xca, 0x73, 0x3e, 0x72, 0xc5, 0x31, 0xc0,
  0xa9, 0xff, 0x17, 0xbf, 0x37, 0x2b, 0xc0, 0xc0, 0xc3, 0x7a, 0x9a, 0xbf,
  0x15, 0x43, 0xef, 0xbe, 0x96, 0x99, 0x87, 0x3e, 0x48, 0xbd, 0x0a, 0xbe,
  0x75, 0x27, 0x15, 0x3f, 0xba, 0xb7, 0xf2, 0x3f, 0x3b, 0xf0, 0x12, 0x3f,
  0xf6, 0x08, 0xb4, 0xbf, 0xb2, 0x4d, 0xc5, 0x3e, 0x2b, 0xa5, 0xa0, 0xc0,
  0x18, 0xe8, 0x73, 0x3f, 0x49, 0x82, 0x46, 0xc0, 0x0c, 0x83, 0x2d, 0xbf,
  0x09, 0x76, 0x68, 0xbf, 0xc8, 0x7a, 0xb3, 0x3d, 0x49, 0xab, 0x65, 0x3e,
  0xcf, 0x60, 0x01, 0x3f, 0x6f, 0xe6, 0xad, 0x3d, 0xa7, 0x1e, 0x62, 0x3f,
  0xeb, 0x47, 0x01, 0xc0, 0x8a, 0x56, 0x8c, 0x3e, 0xbb, 0xc2, 0x23, 0xc0,
  0x0f, 0x53, 0x26, 0x3f, 0x15, 0xf0, 0x7f, 0xbf, 0x4a, 0xac, 0x45, 0xc0,
  0xe3, 0xef, 0x30, 0xc0, 0xd2, 0xe6, 0xee, 0xbd, 0x70, 0x84, 0x2e, 0x3f,
  0x2b, 0x3f, 0x71, 0xc0, 0xf3, 0x86, 0xe9, 0x3e, 0x0b, 0x75, 0x0d, 0xbe,
  0x91, 0xb8, 0xfc, 0xbe, 0x7e, 0xf5, 0x54, 0xbd, 0xc4, 0x35, 0x39, 0xbf,
  0x4b, 0xe1, 0xfd, 0xbe, 0x33, 0x4b, 0x60, 0xbf, 0x8f, 0x59, 0x9e, 0x3e,
  0x3e, 0xdd, 0xd0, 0x3e, 0xf6, 0xc5, 0xea, 0xbe, 0x65, 0x7d, 0x97, 0x3f,
  0xaa, 0xfd, 0x19, 0x3e, 0xbe, 0xc2, 0x20, 0xc0, 0x81, 0x52, 0x80, 0xbf,
  0xd7, 0xa2, 0x84, 0xbf, 0xb2, 0xf1, 0x44, 0x3f, 0x85, 0x2f, 0x45, 0xc0,
  0x02, 0x12, 0x84, 0xbf, 0x9c, 0x02, 0x34, 0xc0, 0x43, 0x9e, 0x88, 0xbd,
  0xdb, 0xea, 0x4d, 0x3e, 0x66, 0x58, 0x04, 0x3f, 0xa4, 0x71, 0x85, 0x3e,
  0xb7, 0x47, 0xff, 0xbd, 0x2e, 0x07, 0x66, 0xbe, 0x03, 0xb2, 0x0d, 0xc0,
  0xbb, 0x61, 0xfa, 0xbe, 0xbd, 0x1a, 0x63, 0x3f, 0x64, 0x36, 0xc4, 0xbf,
  0x4f, 0x2c, 0xa0, 0xbf, 0x32, 0x09, 0x46, 0xbf, 0xf2, 0x31, 0xf0, 0xbc,
  0xc9, 0x1a, 0xaf, 0xbe, 0xcc, 0xb6, 0x81, 0x3f, 0xcc, 0x31, 0x1a, 0x3e,
  0xdd, 0x12, 0xff, 0xbe, 0x74, 0xd5, 0xa5, 0x3d, 0xdb, 0x6e, 0x30, 0xc0,
  0x47, 0x21, 0x8b, 0x3e, 0xeb, 0xb5, 0xa0, 0xbf, 0x88, 0x50, 0x03, 0xbf,
  0x7e, 0xea, 0xb8, 0x3e, 0x64, 0x5b, 0xb9, 0xbf, 0xde, 0xd4, 0x74, 0xbd,
  0x78, 0xb6, 0xe9, 0xbf, 0x75, 0x05, 0xc6, 0xbf, 0x2d, 0x38, 0xd4, 0x3e,
  0xd9, 0xed, 0x99, 0xbf, 0xb1, 0x29, 0xa2, 0x3e, 0x23, 0x36, 0x8d, 0xbf,
  0x88, 0x6b, 0x17, 0xbd, 0x1e, 0xd1, 0x40, 0xc0, 0xe6, 0x7e, 0xd9, 0x3e,
  0x6d, 0xeb, 0x48, 0x3f, 0x7e, 0xad, 0xed, 0xbe, 0x1a, 0xd7, 0x8f, 0x3e,
  0x73, 0x3f, 0x13, 0xc0, 0x0f, 0xfa, 0x45, 0xc0, 0xd8, 0x1f, 0x03, 0xbe,
  0xfc, 0x6b, 0x33, 0xc0, 0xc9, 0x63, 0x81, 0x3e, 0xee, 0x5a, 0x98, 0xbf,
  0xfd, 0x5a, 0x82, 0xbf, 0xc2, 0xc1, 0x4e, 0xc0, 0x79, 0xdf, 0x78, 0x3d,
  0x78, 0x2c, 0x5c, 0x3e, 0x45, 0x75, 0xc7, 0xbe, 0x08, 0x62, 0xa3, 0xbe,
  0xe6, 0xfb, 0x8f, 0xbf, 0x57, 0x9d, 0x44, 0xc0, 0xd3, 0xe3, 0x3b, 0xbe,
  0x52, 0x3a, 0xb9, 0xbf, 0xe1, 0x62, 0x12, 0x3e, 0x83, 0x11, 0x4d, 0x3e,
  0x1d, 0xc1, 0x0a, 0xbf, 0xed, 0x73, 0xb4, 0xbe, 0x51, 0xc6, 0x6c, 0xc0,
  0x91, 0xc3, 0xa9, 0xbe, 0xff, 0x4f, 0x0a, 0xc0, 0x1b, 0xa7, 0x1f, 0x3f,
  0x02, 0x72, 0xb2, 0xbc, 0x1a, 0xa6, 0x1e, 0xbe, 0xf0, 0x72, 0x93, 0xbf,
  0x44, 0x26, 0x45, 0x3f, 0xf0, 0x92, 0xfc, 0x3e, 0xa1, 0xa9, 0x1b, 0x3f,
  0xac, 0xd6, 0x93, 0xbc, 0x48, 0x83, 0x0b, 0x3f, 0xf3, 0xc8, 0xe6, 0xc0,
  0xfc, 0x7f, 0xa8, 0xbe, 0x33, 0x9d, 0x81, 0xc0, 0x94, 0xdf, 0xcd, 0x3b,
  0x3e, 0x20, 0x7a, 0xbf, 0x32, 0x75, 0x78, 0x3f, 0x8b, 0x65, 0xea, 0xbe,
  0x0b, 0x89, 0x03, 0xbe, 0x7e, 0xda, 0xfe, 0xbe, 0xb6, 0x76, 0x89, 0x3f,
  0xb9, 0x0a, 0x54, 0x3c, 0x4f, 0x5e, 0x71, 0x3f, 0x44, 0xbb, 0x9c, 0xc0,
  0x1d, 0xa9, 0x5c, 0x3f, 0x9e, 0xa7, 0xbf, 0xbf, 0x67, 0x2f, 0xa3, 0x3e,
  0x0f, 0x85, 0x97, 0xbf, 0xe6, 0x6d, 0x42, 0x3f, 0x7f, 0x32, 0x04, 0xbf,
  0x4f, 0x46, 0x96, 0x3e, 0x2c, 0x3b, 0x47, 0xbf, 0x31, 0xe6, 0xbd, 0x3f,
  0xcd, 0x86, 0x18, 0x3e, 0x0b, 0x0d, 0x3d, 0x3f, 0x88, 0xc2, 0xb5, 0xbf,
  0xae, 0xdf, 0xb2, 0x3e, 0xfd, 0x8d, 0x2a, 0xbe, 0x58, 0xc5, 0x26, 0xbe,
  0xd7, 0x95, 0x16, 0xbf, 0xe7, 0xce, 0xf8, 0x3e, 0x81, 0x00, 0x30, 0x3e,
  0x21, 0xff, 0x13, 0x3f, 0x71, 0x1a, 0x8d, 0xbe, 0xaa, 0x4c, 0x59, 0x40,
  0xd4, 0x68, 0x3f, 0xc0, 0xae, 0x09, 0xda, 0x3e, 0x22, 0xde, 0xa8, 0x3e,
  0x9e, 0x7a, 0x4e, 0x3f, 0xac, 0x6e, 0xa2, 0x3e, 0xde, 0x6d, 0xae, 0xbd,
  0x61, 0x67, 0xe2, 0xbe, 0x46, 0x28, 0x99, 0x3e, 0xd6, 0xf1, 0xcd, 0xbf,
  0x4d, 0x2c, 0xd3, 0xbe, 0xc5, 0x1a, 0x63, 0xc0, 0xba, 0x54, 0x0d, 0xbf,
  0x1b, 0x2f, 0x98, 0xbf, 0xdf, 0xc6, 0x72, 0xbf, 0xc7, 0x50, 0xe5, 0x3e,
  0x47, 0x8e, 0xf7, 0xbe, 0x9a, 0x37, 0x99, 0x3d, 0xcd, 0x9c, 0xcc, 0xbe,
  0x0f, 0x58, 0xd8, 0x3e, 0xd3, 0x5c, 0x60, 0xbf, 0x05, 0xe7, 0x1b, 0xbf,
  0x85, 0xb1, 0xd2, 0x3e, 0x15, 0x9f, 0x90, 0xc0, 0xad, 0xeb, 0xee, 0x3e,
  0xe1, 0x7f, 0x88, 0xbc, 0x88, 0xde, 0x0e, 0xbf, 0xd4, 0x4b, 0xd8, 0x3e,
  0x13, 0x4b, 0x3a, 0xbf, 0x57, 0x5c, 0xcf, 0x3e, 0xbe, 0x5e, 0x37, 0x3e,
  0xd2, 0x19, 0x75, 0x40, 0x4f, 0xce, 0x42, 0xbf, 0x3c, 0xb3, 0x09, 0x3f,
  0x9a, 0xe6, 0xad, 0x40, 0xec, 0x8c, 0x2a, 0xbf, 0x5d, 0x78, 0x72, 0xbe,
  0xcb, 0x47, 0x80, 0xbf, 0x8c, 0xc6, 0xa4, 0x3e, 0xeb, 0x36, 0x58, 0xbe,
  0x84, 0x7d, 0xd7, 0xbf, 0x2b, 0x91, 0x32, 0xbe, 0x57, 0x2f, 0x63, 0x3f,
  0x33, 0xd7, 0x2f, 0x40, 0x4d, 0x47, 0x19, 0x3e, 0xe1, 0x6b, 0x5a, 0x40,
  0x28, 0xa9, 0xa0, 0x3f, 0x33, 0xb0, 0x06, 0x3e, 0xa3, 0x7c, 0xb4, 0xbf,
  0x90, 0x09, 0xf1, 0xbc, 0x86, 0xe0, 0x04, 0xbf, 0xad, 0xf7, 0xa7, 0x3f,
  0x40, 0x60, 0xee, 0xbf, 0x36, 0x64, 0x09, 0x3f, 0x2a, 0xa8, 0x13, 0x3f,
  0x2c, 0xec, 0x38, 0x3f, 0x72, 0x7c, 0x45, 0xbd, 0x53, 0x7f, 0x93, 0x40,
  0xd4, 0xb3, 0xd5, 0x3e, 0x98, 0xca, 0x31, 0x3f, 0x94, 0xa7, 0x34, 0xbd,
  0x1f, 0xf9, 0xc2, 0x3e, 0xc5, 0xfd, 0x71, 0xbe, 0x57, 0x88, 0x22, 0xc0,
  0xc1, 0xea, 0x69, 0x3c, 0xa2, 0xe6, 0x93, 0xc0, 0x84, 0x62, 0x61, 0xbf,
  0xb5, 0x60, 0x66, 0xbd, 0x53, 0xf7, 0xae, 0xbe, 0x60, 0x4d, 0x85, 0x3f,
  0xe3, 0x3c, 0x04, 0xbf, 0xa2, 0xa2, 0x05, 0x40, 0xe1, 0xf9, 0x82, 0x3f,
  0xcd, 0x8f, 0x00, 0x3e, 0xd1, 0x75, 0x00, 0xbe, 0x1c, 0x14, 0xff, 0xbf,
  0xbe, 0x28, 0xfc, 0x3c, 0x72, 0x62, 0x6a, 0xc0, 0x75, 0x5e, 0x23, 0xbd,
  0xf0, 0xa9, 0x46, 0x3f, 0x86, 0xd6, 0x99, 0xbe, 0x37, 0x19, 0xa9, 0xbe,
  0x43, 0xea, 0x33, 0x3d, 0x0e, 0x96, 0x6e, 0x3f, 0x8e, 0x0e, 0x27, 0x3f,
  0x22, 0x05, 0x69, 0xbd, 0xb9, 0x61, 0x67, 0x3d, 0x49, 0x3f, 0x84, 0xc0,
  0x94, 0x35, 0xcd, 0x3f, 0xf5, 0xab, 0xa0, 0xc0, 0xbf, 0x91, 0x88, 0xbf,
  0x51, 0xeb, 0x0a, 0x3e, 0x0e, 0x7a, 0x0c, 0xbf, 0x85, 0x9e, 0xc0, 0xbe,
  0x62, 0xf6, 0x95, 0xbf, 0x1f, 0x01, 0xcf, 0xbe, 0xb8, 0x6e, 0x85, 0x3f,
  0x77, 0x9f, 0xdf, 0xbe, 0x58, 0xc3, 0x5e, 0xbf, 0x06, 0x62, 0x55, 0xc0,
  0x5d, 0xa2, 0x94, 0x3e, 0x1b, 0xda, 0x03, 0xc0, 0x9d, 0x75, 0xe4, 0xbf,
  0xef, 0x5e, 0x06, 0x40, 0xd7, 0x33, 0x82, 0xbf, 0xe4, 0x1b, 0xa5, 0xbf,
  0xdb, 0x47, 0x15, 0xc0, 0x32, 0x18, 0x20, 0xbf, 0x0c, 0x7d, 0x0e, 0x3e,
  0x5c, 0xe1, 0xd0, 0xbe, 0x00, 0x43, 0xf5, 0xbd, 0x88, 0xa4, 0x90, 0xc0,
  0x12, 0x67, 0x8b, 0xbf, 0x4b, 0x54, 0x1b, 0xc0, 0x38, 0x94, 0xc7, 0xbf,
  0x85, 0xdd, 0xfc, 0xbd, 0x6d, 0xbc, 0x5a, 0xbe, 0xea, 0x35, 0xec, 0xbe,
  0xf9, 0x12, 0x5a, 0xc0, 0xee, 0x31, 0x2f, 0xbf, 0x67, 0x4e, 0xb5, 0xbf,
  0x16, 0x46, 0xf5, 0xbf, 0x09, 0x0b, 0x66, 0xbf, 0xe7, 0x9b, 0x11, 0xc0,
  0x18, 0xe2, 0x94, 0xc0, 0x0e, 0xbb, 0xc5, 0xbf, 0xc9, 0x39, 0x24, 0x3c,
  0xa0, 0x9d, 0x1d, 0x3f, 0x93, 0x4d, 0x6e, 0xbf, 0x4a, 0x1d, 0x04, 0xbe,
  0x71, 0xb5, 0xcc, 0xbe, 0x25, 0x2e, 0xb8, 0xbf, 0xbd, 0xbf, 0x43, 0xc0,
  0x8f, 0xf5, 0x0b, 0x3d, 0x50, 0x28, 0xe9, 0xbd, 0x54, 0x83, 0xa9, 0xc0,
  0xaf, 0xa0, 0xe0, 0xc0, 0xaa, 0xa8, 0x02, 0xc1, 0xf3, 0x8a, 0x29, 0x3f,
  0xf4, 0xd5, 0x4e, 0x3f, 0x97, 0x9d, 0x30, 0xbc, 0x70, 0x85, 0xbd, 0xbe,
  0x40, 0x19, 0x62, 0x3f, 0xe0, 0xe5, 0x5c, 0xbf, 0x7f, 0x4a, 0xd0, 0xbf,
  0xae, 0x67, 0x8d, 0x3e, 0x3d, 0xc2, 0x67, 0xbf, 0x48, 0x80, 0x02, 0xc0,
  0xc1, 0x0c, 0xcf, 0xbf, 0x01, 0x54, 0x04, 0xc0, 0x82, 0xd6, 0x12, 0x3f,
  0x47, 0xbe, 0x03, 0x3f, 0xf6, 0x6d, 0x45, 0xbf, 0x6e, 0xfe, 0x6e, 0x3e,
  0xe1, 0xa7, 0xf2, 0xbd, 0x2c, 0x0e, 0xdc, 0x3e, 0x85, 0x34, 0x58, 0xbf,
  0x19, 0x5c, 0xe3, 0x3f, 0xd3, 0xff, 0x91, 0xbf, 0xaf, 0x78, 0x3a, 0xbe,
  0x31, 0x69, 0x6c, 0x3e, 0x0b, 0xe1, 0x80, 0x3f, 0xef, 0xb9, 0x25, 0xc1,
  0x81, 0x68, 0x1c, 0xc0, 0x5e, 0x5b, 0xa5, 0xbf, 0xfb, 0x2c, 0x21, 0x40,
  0xee, 0xfb, 0xce, 0xbf, 0x25, 0xd0, 0x07, 0x3e, 0x66, 0x6c, 0x03, 0x3f,
  0x2e, 0xab, 0xb7, 0x3e, 0xd7, 0x88, 0x2e, 0x3f, 0x73, 0x9d, 0xe4, 0x3e,
  0xeb, 0xd6, 0x7f, 0x3f, 0xc0, 0xac, 0xfc, 0x3e, 0x07, 0xe3, 0x5d, 0xc0,
  0x1b, 0x60, 0x1e, 0x3f, 0x3a, 0x47, 0x30, 0x3f, 0x8a, 0xa4, 0x2a, 0xbf,
  0x9e, 0x9f, 0x44, 0x40, 0x99, 0x15, 0xb9, 0x3f, 0xa8, 0x43, 0x18, 0x3f,
  0x35, 0xe9, 0x69, 0x3f, 0x73, 0xec, 0xc4, 0x3f, 0x7d, 0x5f, 0xcf, 0xbc,
  0x46, 0x76, 0xe6, 0xbd, 0x85, 0xc2, 0x9c, 0xbe, 0x79, 0xdc, 0x87, 0xbe,
  0x82, 0x91, 0xd2, 0xba, 0x8f, 0xd7, 0xee, 0x3f, 0x68, 0xbe, 0x79, 0xc0,
  0x33, 0x61, 0x8d, 0x3f, 0xc4, 0xcb, 0x88, 0x3f, 0x63, 0xc1, 0xa0, 0x3c,
  0xce, 0x21, 0xab, 0x3f, 0xef, 0x4a, 0xe6, 0xbc, 0x7b, 0x6e, 0x25, 0xbf,
  0xbf, 0x9c, 0x5c, 0x3d, 0x6a, 0x20, 0xa3, 0xbf, 0x6e, 0x0b, 0x0a, 0x3f,
  0xc5, 0x0b, 0xa7, 0x3f, 0x21, 0xc3, 0x87, 0x3e, 0x35, 0x15, 0x2e, 0x3f,
  0x18, 0xd2, 0xb1, 0x3f, 0x4a, 0x6e, 0x1d, 0xc0, 0x53, 0xf3, 0x8a, 0x3e,
  0xcc, 0x30, 0x14, 0x40, 0x56, 0x09, 0x65, 0x3f, 0xfd, 0x85, 0x01, 0xbf,
  0x62, 0x7a, 0x98, 0x3e, 0x06, 0x91, 0xa7, 0xbf, 0x11, 0x49, 0xd7, 0x3c,
  0xe5, 0x29, 0x9a, 0x3f, 0x37, 0x31, 0x62, 0x3f, 0x0d, 0xbb, 0x68, 0x3f,
  0x9d, 0x2f, 0x29, 0x3e, 0x7b, 0xef, 0xd4, 0xbf, 0xe9, 0x52, 0x50, 0x3e,
  0xba, 0x48, 0xa1, 0xbd, 0x6e, 0x17, 0xe9, 0x3f, 0x3c, 0x59, 0x50, 0x3e,
  0xac, 0xc8, 0x8d, 0x3e, 0x62, 0xa6, 0xea, 0x3e, 0x4f, 0xda, 0x8f, 0xbf,
  0x6c, 0x72, 0x02, 0xbf, 0xeb, 0xff, 0xf6, 0x3f, 0xe9, 0x18, 0x8f, 0x3f,
  0xad, 0x9d, 0xf5, 0xbe, 0x8d, 0x42, 0x14, 0x3f, 0xd9, 0xe3, 0xb4, 0x3e,
  0xa1, 0x6d, 0x58, 0x3f, 0xae, 0x46, 0xbc, 0x3f, 0x6b, 0x7c, 0x12, 0xbe,
  0x95, 0x02, 0xdc, 0x3e, 0xcd, 0x23, 0x84, 0x3e, 0x1c, 0x62, 0x44, 0xbe,
  0xae, 0x9c, 0x01, 0x40, 0x1e, 0x83, 0x92, 0x3f, 0x8d, 0xdb, 0xba, 0x3e,
  0x88, 0xe6, 0x31, 0x3f, 0xb3, 0x05, 0x37, 0x3f, 0x3e, 0x78, 0xa7, 0x3d,
  0x1c, 0xf3, 0x29, 0x3f, 0xce, 0x87, 0xb3, 0x3f, 0x60, 0x19, 0x6c, 0x3f,
  0x93, 0x77, 0xad, 0x3f, 0xfd, 0xfd, 0xf7, 0x3e, 0x09, 0x16, 0x97, 0xbe,
  0x1e, 0xa4, 0xaf, 0xbf, 0x8a, 0x67, 0xba, 0x3f, 0x60, 0x77, 0x16, 0xc0,
  0x64, 0xe9, 0x0d, 0xbe, 0x55, 0x91, 0xf5, 0x3f, 0x56, 0xd0, 0x70, 0x3f,
  0xac, 0x1e, 0x85, 0x3d, 0x16, 0x1b, 0x83, 0x3f, 0xef, 0xdf, 0xb2, 0x3f,
  0x2a, 0x47, 0xee, 0x3f, 0x37, 0xc2, 0x84, 0x3f, 0x00, 0x30, 0x1d, 0x3e,
  0x7b, 0x8d, 0x80, 0x3f, 0xef, 0x53, 0x84, 0x3f, 0xf4, 0x0d, 0x12, 0xc0,
  0x5e, 0x5b, 0xa6, 0x3e, 0x10, 0x20, 0x65, 0x3f, 0x2e, 0x95, 0xde, 0x3f,
  0x19, 0x37, 0x4d, 0x3d, 0x7e, 0x04, 0xbb, 0x3f, 0x66, 0x6e, 0x60, 0x3f,
  0xd3, 0xb2, 0x8b, 0x3f, 0xc3, 0xf3, 0x8f, 0x3f, 0x26, 0x4b, 0xb5, 0x3e,
  0x5f, 0xdb, 0xaf, 0x3f, 0x28, 0x11, 0x99, 0x3f, 0x62, 0x25, 0x76, 0x3e,
  0xb9, 0x10, 0x9b, 0xbe, 0xad, 0xfb, 0xc4, 0x3f, 0x0b, 0x6a, 0x6c, 0xbc,
  0x81, 0xf8, 0xcf, 0x3e, 0xf0, 0xb4, 0x01, 0x3e, 0xa7, 0x00, 0xfc, 0x3e,
  0x4c, 0x41, 0x51, 0xc0, 0x36, 0x1d, 0x6c, 0xbe, 0x07, 0x8b, 0x14, 0xbe,
  0xe5, 0x00, 0x02, 0x3f, 0xd7, 0xc3, 0x42, 0x3e, 0x78, 0x1f, 0x01, 0x40,
  0xb4, 0x7b, 0x4a, 0xbe, 0x90, 0xc6, 0xa7, 0x3e, 0x91, 0x20, 0x82, 0xc0,
  0x75, 0x25, 0xfc, 0xbc, 0xde, 0x7c, 0xa1, 0x3f, 0xa0, 0x7c, 0x5b, 0xbf,
  0xe0, 0xa6, 0xa0, 0xc0, 0x1d, 0x1a, 0x04, 0xc0, 0xf2, 0xa8, 0x40, 0x3f,
  0xac, 0x5c, 0x17, 0x40, 0x47, 0x44, 0xa5, 0x3f, 0x84, 0x2a, 0x11, 0x3e,
  0xa3, 0xac, 0x37, 0x3f, 0x4e, 0x4a, 0x58, 0x3e, 0x1d, 0x14, 0x87, 0xbf,
  0x0d, 0xfc, 0x52, 0x3f, 0x0f, 0x30, 0x8f, 0x3f, 0x7e, 0x83, 0x8f, 0x3f,
  0x2f, 0x3d, 0x80, 0xbf, 0x0d, 0x00, 0xb8, 0x3f, 0xc2, 0xbd, 0x39, 0xbe,
  0x0b, 0x58, 0x8d, 0x3e, 0x2c, 0x1c, 0x87, 0x3f, 0xf6, 0x6d, 0x00, 0xbe,
  0xb3, 0x72, 0x58, 0xbf, 0x98, 0xf4, 0xd0, 0xbc, 0xc0, 0xa4, 0xcc, 0xbf,
  0x22, 0x28, 0xb9, 0x3f, 0x75, 0x94, 0x80, 0x3c, 0x66, 0x99, 0x38, 0x3f,
  0xe1, 0x81, 0x3c, 0x3f, 0x7c, 0x29, 0x22, 0x3f, 0x19, 0x29, 0x26, 0xc0,
  0xde, 0x61, 0xea, 0xbf, 0x63, 0x78, 0x9e, 0xbc, 0x94, 0x7c, 0xa1, 0x3f,
  0xda, 0xd7, 0x94, 0xc0, 0xc7, 0x2a, 0x0e, 0xbf, 0x84, 0x39, 0x8e, 0xbd,
  0x86, 0x61, 0x18, 0x40, 0x73, 0x86, 0x54, 0xbf, 0x6a, 0x12, 0x88, 0x3f,
  0x54, 0xd0, 0x21, 0x3f, 0xcd, 0x7a, 0x72, 0x3f, 0xf8, 0xe0, 0x2a, 0xc0,
  0x0e, 0x44, 0x83, 0xbf, 0x27, 0x3f, 0xb4, 0xbf, 0x2f, 0x59, 0x09, 0xbf,
  0xc2, 0xff, 0x82, 0xc0, 0x8f, 0x90, 0x15, 0xbf, 0x26, 0xea, 0x2e, 0xbe,
  0x7e, 0xe7, 0x07, 0x3f, 0x09, 0x50, 0x1f, 0xc0, 0xc9, 0xbe, 0xfe, 0x3e,
  0x01, 0x7e, 0x35, 0xbe, 0x1b, 0xeb, 0x8b, 0x3e, 0x3f, 0x3d, 0x8d, 0x3f,
  0xe9, 0xf4, 0x55, 0xbf, 0xfc, 0xbf, 0x30, 0xc0, 0xe9, 0x5e, 0x3e, 0xc0,
  0x75, 0x39, 0xd9, 0xbf, 0x5c, 0x6e, 0x37, 0xbf, 0xbb, 0x48, 0x8c, 0xbe,
  0xe8, 0xa9, 0xbf, 0xbf, 0x3d, 0x5a, 0x16, 0xc0, 0x69, 0x39, 0xcd, 0x3e,
  0x1c, 0x63, 0x7d, 0xbd, 0x63, 0x35, 0x0d, 0x3e, 0xf8, 0x2c, 0xc6, 0x3d,
  0x16, 0x03, 0x88, 0xbf, 0xf8, 0x7d, 0x08, 0xc0, 0x61, 0x5b, 0x75, 0xbf,
  0xef, 0x80, 0x40, 0xbf, 0x39, 0x97, 0x45, 0xbf, 0x4d, 0x89, 0x07, 0x40,
  0x78, 0x80, 0x4e, 0xbf, 0xc2, 0xa9, 0x28, 0x3f, 0x6c, 0x59, 0x79, 0x3f,
  0xa0, 0xb0, 0x16, 0x3f, 0xea, 0x13, 0xa7, 0x3e, 0x7f, 0x98, 0x0c, 0xbe,
  0x73, 0x93, 0xf7, 0xbd, 0xa7, 0xdd, 0x01, 0x3f, 0xbd, 0x9b, 0xce, 0xbf,
  0x73, 0x79, 0xa0, 0x3d, 0x3a, 0x97, 0x9c, 0xc0, 0x77, 0xce, 0x69, 0x3e,
  0xec, 0x06, 0xa7, 0xbe, 0x8a, 0xa6, 0xd9, 0x3e, 0xc1, 0xd9, 0x15, 0x3f,
  0x73, 0xa7, 0x86, 0xbe, 0x08, 0x0f, 0x02, 0xbd, 0xac, 0xf7, 0xf7, 0x3e,
  0x47, 0xa6, 0xa7, 0x3e, 0x67, 0xba, 0xb6, 0x3d, 0x57, 0xad, 0x2e, 0x3e,
  0x38, 0x28, 0x0a, 0x3f, 0xd8, 0xeb, 0x8f, 0xc0, 0xb4, 0xb0, 0x25, 0xbf,
  0x73, 0x3f, 0x3b, 0xbf, 0x1a, 0xb0, 0x9a, 0xbe, 0xc3, 0x06, 0x10, 0xbf,
  0x66, 0xd1, 0xa5, 0xbf, 0x8e, 0x4a, 0x9f, 0x3e, 0xa7, 0x2e, 0x05, 0x40,
  0x95, 0xc3, 0xf4, 0x3f, 0xbc, 0x99, 0x17, 0xbe, 0x8f, 0x1b, 0x58, 0x3f,
  0x96, 0x4a, 0x70, 0x40, 0x84, 0x8a, 0x23, 0x3f, 0x2a, 0x46, 0x6b, 0xbf,
  0xdd, 0x49, 0x89, 0xbf, 0x03, 0x6a, 0x19, 0x3e, 0x45, 0x4a, 0x30, 0xbd,
  0x31, 0xd5, 0x3a, 0xc0, 0x5e, 0x8e, 0xe4, 0x3d, 0xa6, 0xa2, 0x87, 0x3f,
  0xad, 0x27, 0x8f, 0x3f, 0x44, 0x39, 0xfe, 0x3e, 0x1f, 0x52, 0x9c, 0x3f,
  0xc6, 0x8d, 0x5e, 0x3f, 0xd8, 0xf5, 0x3d, 0x3f, 0xf5, 0x5a, 0xad, 0xbf,
  0x57, 0x9b, 0xc5, 0x3e, 0xf0, 0x1b, 0xcf, 0xbe, 0xb2, 0x89, 0x4f, 0x3e,
  0xdd, 0xb3, 0xe9, 0xbe, 0xa1, 0x53, 0xed, 0x3e, 0x42, 0x94, 0x10, 0x3f,
  0xbe, 0xd6, 0x09, 0x3e, 0xe6, 0xe7, 0x0b, 0x3d, 0xbd, 0xd5, 0x34, 0x40,
  0x5f, 0xdc, 0xdd, 0x3d, 0xc6, 0x7e, 0x87, 0x3f, 0x6e, 0x9f, 0x51, 0xc0,
  0xc3, 0xbb, 0x7f, 0x3f, 0x22, 0xc2, 0x2a, 0xbe, 0xa5, 0xaa, 0x01, 0xbe,
  0x19, 0xa7, 0x79, 0x3e, 0x97, 0x41, 0xb9, 0xbe, 0xaf, 0x92, 0x6f, 0x3e,
  0x03, 0x84, 0x9c, 0x3f, 0x89, 0x0a, 0x17, 0x3d, 0x24, 0x6d, 0xb6, 0x3e,
  0x4c, 0x69, 0xfa, 0xbc, 0x97, 0x0c, 0xb0, 0x3e, 0x54, 0xe1, 0x83, 0xbf,
  0xbe, 0x3f, 0x1e, 0x3e, 0x43, 0x7f, 0xf7, 0xbe, 0xd9, 0xfa, 0x43, 0xbf,
  0xe7, 0x09, 0x57, 0x3f, 0x39, 0x9a, 0x5b, 0xbf, 0x39, 0xd1, 0xcd, 0x3e,
  0x3b, 0xbb, 0x9c, 0xbd, 0x96, 0x1b, 0x16, 0xbf, 0x19, 0x5c, 0x47, 0x3d,
  0x43, 0xdc, 0x86, 0xbf, 0xd4, 0xce, 0x2e, 0x3b, 0x66, 0xaf, 0xc1, 0x3d,
  0x42, 0xbc, 0x86, 0x3f, 0xca, 0xd6, 0xcf, 0xbe, 0xcf, 0xf0, 0x31, 0xbe,
  0x81, 0x4f, 0x5a, 0x3e, 0x5a, 0x7e, 0xc4, 0xbd, 0x4c, 0x52, 0x16, 0xbf,
  0x5a, 0xd8, 0x41, 0xc0, 0x82, 0x39, 0x48, 0xbf, 0xc6, 0xb7, 0x0c, 0xbe,
  0xd0, 0x17, 0xf3, 0xc0, 0x64, 0x11, 0x21, 0x3e, 0x90, 0x34, 0xf6, 0x3e,
  0x3d, 0x3f, 0x3b, 0xbe, 0xfa, 0x33, 0xa0, 0xbf, 0x50, 0xa2, 0x97, 0x3e,
  0x91, 0x9a, 0x3f, 0xbd, 0xd4, 0x13, 0x59, 0x3e, 0x96, 0x91, 0xa2, 0x3d,
  0xe0, 0x13, 0x00, 0xc0, 0x3f, 0xc4, 0x6e, 0xbf, 0x53, 0x90, 0xb2, 0xbf,
  0x40, 0x04, 0xa0, 0xbf, 0xe4, 0xb0, 0xe4, 0xbe, 0x19, 0xe3, 0x6d, 0x3e,
  0x12, 0x22, 0x81, 0x3e, 0x3a, 0x1c, 0x7f, 0x3e, 0x9c, 0x1e, 0xae, 0xbe,
  0xa5, 0xaf, 0x65, 0x3e, 0x26, 0x48, 0x71, 0x3e, 0x52, 0x65, 0x20, 0x3f,
  0x4f, 0x68, 0xf0, 0x3d, 0xd2, 0xdc, 0x3e, 0xbe, 0x63, 0xcd, 0x84, 0xc0,
  0xc0, 0x2e, 0x3e, 0x3f, 0xa1, 0x94, 0x15, 0xbf, 0xc8, 0xc2, 0x2f, 0x40,
  0xfe, 0x32, 0x9d, 0xbf, 0x9b, 0xc7, 0x3f, 0xbe, 0xab, 0x75, 0x89, 0xbd,
  0x3b, 0x2c, 0x0b, 0x40, 0x6a, 0xee, 0x84, 0x3e, 0xdc, 0x2d, 0xab, 0x3e,
  0xad, 0x6f, 0x7b, 0xbf, 0xc4, 0xb3, 0x09, 0x3f, 0x4e, 0x13, 0x44, 0xc0,
  0x0c, 0xf1, 0x2d, 0xbe, 0x80, 0x78, 0xd1, 0xc0, 0x28, 0xd0, 0xec, 0x3f,
  0x23, 0xb4, 0x85, 0xbf, 0xf3, 0x6d, 0xe8, 0xbd, 0xc6, 0x79, 0xf3, 0x3e,
  0x77, 0x02, 0x6c, 0x3f, 0x4a, 0xae, 0x8f, 0x3f, 0xd4, 0xc9, 0x71, 0x3e,
  0x83, 0x14, 0x6d, 0xbe, 0x61, 0x13, 0x8a, 0xbe, 0x67, 0x3a, 0x08, 0xbf,
  0x09, 0x61, 0xc7, 0x3e, 0xab, 0x52, 0x89, 0xc0, 0x0a, 0xa2, 0x53, 0xbe,
  0x25, 0xb2, 0x54, 0xc0, 0x30, 0x22, 0x81, 0xbf, 0x11, 0x67, 0x5f, 0x3e,
  0x1c, 0xfb, 0x53, 0xbf, 0xa6, 0x6e, 0x8f, 0x3e, 0x7f, 0x8b, 0x6c, 0x3f,
  0xac, 0x49, 0x3c, 0x40, 0x60, 0x2c, 0xd2, 0xbf, 0x83, 0x85, 0xc1, 0xba,
  0xc7, 0xf6, 0xb6, 0x40, 0x9d, 0xd8, 0xff, 0x3d, 0xbd, 0x42, 0xf5, 0xbd,
  0x72, 0x95, 0x82, 0xbf, 0xb0, 0x14, 0xee, 0xbf, 0x7a, 0x63, 0x36, 0xbf,
  0x34, 0x6b, 0x18, 0xc0, 0x1d, 0xf9, 0xa5, 0x3d, 0x3e, 0x0a, 0x3a, 0x3f,
  0xbe, 0xa6, 0x45, 0x40, 0xe7, 0x60, 0xf6, 0xbf, 0x81, 0x70, 0x72, 0x3f,
  0xfd, 0x45, 0xf7, 0x3f, 0xa8, 0xbb, 0xfe, 0x3e, 0xe4, 0x69, 0x6a, 0x3e,
  0xa2, 0x70, 0x52, 0x3e, 0x2d, 0xc9, 0x2e, 0xbf, 0xed, 0xd0, 0x9a, 0x3e,
  0xb3, 0x9e, 0x27, 0xbf, 0x3e, 0x63, 0x90, 0xbe, 0x44, 0xcb, 0xa9, 0xbe,
  0x9b, 0x50, 0x82, 0x3e, 0x2a, 0x4b, 0x62, 0xbf, 0xe6, 0xa1, 0x95, 0x40,
  0xbb, 0xe2, 0xbf, 0xbe, 0x56, 0x48, 0x3b, 0x3f, 0x2d, 0xf4, 0xb7, 0x3f,
  0x47, 0x84, 0x63, 0x3f, 0x26, 0x90, 0x94, 0x3f, 0xfe, 0x53, 0x87, 0x3e,
  0x49, 0xc7, 0xa3, 0xbe, 0xc5, 0x3d, 0xa8, 0x3e, 0x67, 0x2b, 0xba, 0x3e,
  0xb5, 0x0f, 0x82, 0x3f, 0xa8, 0x22, 0x85, 0x3f, 0x87, 0xba, 0x8d, 0x3f,
  0x54, 0xb8, 0xdd, 0x3e, 0xb8, 0xfb, 0x2a, 0x40, 0x5c, 0x60, 0x12, 0xbf,
  0x9c, 0xfd, 0x7a, 0xbe, 0x7b, 0x69, 0xb6, 0x3f, 0x76, 0x4c, 0x82, 0xc0,
  0x1f, 0xee, 0x27, 0x3f, 0xfe, 0x86, 0x41, 0xc0, 0xf0, 0xd1, 0xc4, 0xbd,
  0x23, 0xd4, 0xe0, 0x3e, 0xeb, 0x54, 0xae, 0x3f, 0xa7, 0x44, 0x88, 0xbf,
  0x83, 0xee, 0x39, 0x3f, 0x35, 0xed, 0x95, 0x3f, 0x0c, 0x16, 0x10, 0x3f,
  0x1b, 0x84, 0x90, 0xbf, 0xf1, 0xcf, 0x99, 0x3f, 0xcd, 0xb2, 0x23, 0xbe,
  0xc4, 0xad, 0xe4, 0x3f, 0x90, 0xa4, 0x29, 0x3f, 0x3f, 0x81, 0x5b, 0x3e,
  0xdd, 0xb2, 0xc7, 0xbe, 0x59, 0x35, 0xc1, 0x3f, 0xa3, 0xee, 0x2a, 0x3e,
  0xbf, 0x80, 0x93, 0x3f, 0x1e, 0x0e, 0x8c, 0xbf, 0x74, 0x86, 0x8b, 0x3f,
  0xda, 0xeb, 0x6b, 0xc0, 0x29, 0x50, 0x86, 0x3f, 0xe8, 0x22, 0x1c, 0x3e,
  0x96, 0x0b, 0x92, 0x3f, 0xd3, 0x58, 0x8e, 0x3f, 0x5c, 0x01, 0x92, 0xbf,
  0x67, 0x81, 0xf1, 0xbf, 0xd7, 0x4a, 0x91, 0x3f, 0x40, 0xe4, 0xc4, 0x3f,
  0x8d, 0xc5, 0xad, 0xbf, 0xea, 0x71, 0x3d, 0x3f, 0x35, 0x12, 0x49, 0xbf,
  0x65, 0xde, 0x8d, 0x3f, 0x44, 0xcc, 0xa2, 0xbf, 0xc8, 0x77, 0x1c, 0x3f,
  0xa2, 0x77, 0x39, 0xbe, 0x8b, 0xf5, 0xa4, 0x3e, 0xa4, 0x0d, 0x48, 0x3f,
  0xff, 0x4a, 0x40, 0xbe, 0x1d, 0x58, 0x7b, 0xbf, 0x48, 0x32, 0xcd, 0xbf,
  0xd4, 0x3d, 0xa0, 0xbe, 0x79, 0x5a, 0xb4, 0x3f, 0x85, 0x3c, 0x26, 0x3f,
  0x9f, 0xbc, 0xc3, 0x3e, 0x9d, 0xdb, 0xb4, 0xbf, 0x92, 0xfb, 0x1c, 0xbf,
  0x53, 0x08, 0x68, 0xbe, 0x29, 0x92, 0x56, 0xbd, 0x01, 0x2a, 0x8d, 0xbe,
  0xec, 0x14, 0x0d, 0xbe, 0x4d, 0xd1, 0x90, 0xbf, 0xde, 0x6d, 0x8d, 0xbf,
  0xee, 0x99, 0xce, 0xbe, 0x9b, 0x76, 0x0e, 0xbf, 0x88, 0x10, 0x45, 0x3e,
  0xe1, 0x52, 0x8a, 0x3f, 0x9a, 0x06, 0xab, 0xbf, 0x02, 0x34, 0x30, 0x3f,
  0xb1, 0xf4, 0xea, 0xbf, 0xa0, 0xcc, 0x11, 0x40, 0x4e, 0x44, 0x68, 0x3c,
  0x3b, 0x2f, 0x6b, 0x3f, 0xfd, 0x97, 0xa1, 0xbf, 0x37, 0x93, 0x7a, 0x3f,
  0xb5, 0x7e, 0x9a, 0x3e, 0x0f, 0x61, 0x9e, 0x3e, 0x22, 0xed, 0x98, 0xbe,
  0x9c, 0x18, 0xfe, 0x3f, 0x08, 0x6c, 0xb5, 0xbe, 0xfd, 0x36, 0xf8, 0xbe,
  0x7e, 0xe7, 0x81, 0xbf, 0x56, 0xbb, 0x80, 0xbf, 0xfe, 0x4a, 0x80, 0x3f,
  0x1f, 0xb8, 0xe6, 0x3e, 0x48, 0x0c, 0xca, 0xbe, 0xcc, 0xd3, 0xcb, 0x3f,
  0x42, 0x28, 0x3c, 0x3f, 0x9c, 0xea, 0xa1, 0x3f, 0x70, 0x22, 0x75, 0x40,
  0x09, 0x86, 0x06, 0x3e, 0x90, 0xa7, 0xc7, 0x3f, 0xa7, 0x52, 0xcc, 0xbf,
  0x42, 0x23, 0x2b, 0x3f, 0x66, 0x10, 0x6f, 0xc0, 0x65, 0x12, 0x99, 0x3f,
  0xf4, 0x02, 0x23, 0x40, 0x90, 0x2d, 0xea, 0x3f, 0xe8, 0x82, 0xba, 0x3e,
  0x14, 0x9f, 0xaf, 0x3f, 0x0a, 0x53, 0x9b, 0x3f, 0xca, 0x45, 0x36, 0x40,
  0x56, 0xc6, 0x9c, 0x3f, 0x2a, 0x74, 0x0e, 0x40, 0xcf, 0x98, 0x65, 0x3e,
  0xd9, 0x52, 0xb0, 0xbd, 0xa1, 0xb5, 0x5d, 0xbf, 0xc1, 0xef, 0x7b, 0xbf,
  0xab, 0xfc, 0xe3, 0x3f, 0x46, 0xa7, 0x0f, 0x40, 0x20, 0x38, 0xe9, 0xbd,
  0x9c, 0x63, 0x73, 0xbe, 0x27, 0xb1, 0x96, 0x3e, 0x13, 0xef, 0xd4, 0x3f,
  0xcd, 0xa4, 0x25, 0x40, 0x7b, 0x16, 0x0e, 0x40, 0x23, 0x7a, 0x48, 0x3f,
  0x75, 0x80, 0x09, 0x3f, 0xbf, 0x77, 0xb5, 0x3e, 0x70, 0xf8, 0x14, 0xc1,
  0x82, 0x1d, 0xa0, 0xbd, 0x06, 0x9f, 0x1b, 0x40, 0x0b, 0xeb, 0xfe, 0x3e,
  0x72, 0x72, 0x86, 0xc0, 0x58, 0x40, 0xc5, 0x3d, 0x71, 0x16, 0x26, 0x3e,
  0xa9, 0x8d, 0x44, 0xbf, 0x50, 0x04, 0xdf, 0x3f, 0x22, 0xe3, 0x76, 0x3e,
  0xff, 0xb5, 0x53, 0xbe, 0xb2, 0x67, 0x12, 0xbf, 0xce, 0xb6, 0x4e, 0xc0,
  0x62, 0x77, 0x46, 0x3f, 0xe9, 0x0c, 0xec, 0x3f, 0xdb, 0x53, 0x73, 0xbe,
  0x2a, 0xe1, 0x96, 0xbf, 0xe0, 0x63, 0xb1, 0xbf, 0x91, 0xde, 0x5a, 0x3d,
  0xb0, 0xac, 0xbd, 0xbf, 0x01, 0x59, 0xc8, 0x3f, 0x6a, 0xa4, 0xd1, 0xbe,
  0xf1, 0x6a, 0x57, 0xbf, 0xb6, 0x2f, 0x82, 0xbe, 0x65, 0x68, 0x09, 0xbf,
  0x6c, 0xf2, 0xdd, 0x3e, 0x05, 0x7b, 0xc5, 0x3f, 0xeb, 0x38, 0x09, 0x40,
  0x72, 0xb4, 0x04, 0x3d, 0x51, 0xa5, 0x3f, 0xc0, 0xfc, 0x5d, 0xc8, 0xbe,
  0xcc, 0xe9, 0x8e, 0x3f, 0xbd, 0xaa, 0xcf, 0x3e, 0xcd, 0xe0, 0xad, 0x3d,
  0x59, 0x9b, 0x83, 0xbf, 0x4d, 0x59, 0x53, 0xbd, 0x1f, 0x50, 0x75, 0x3f,
  0xec, 0xef, 0xe1, 0xbe, 0x20, 0xce, 0x02, 0x3e, 0x67, 0x3f, 0x81, 0x3f,
  0xed, 0xdd, 0x8a, 0x3e, 0x1a, 0x49, 0x00, 0xc0, 0x2f, 0xe8, 0xde, 0xbe,
  0x01, 0xf8, 0x06, 0x40, 0x60, 0x4d, 0xcc, 0x3c, 0x67, 0x87, 0x26, 0x3f,
  0xa4, 0xe9, 0x80, 0xbe, 0x4f, 0xf9, 0x80, 0x3f, 0xd0, 0x90, 0x25, 0x3f,
  0xf6, 0x8b, 0x21, 0xbf, 0x34, 0x86, 0x28, 0x3e, 0xed, 0x54, 0x1c, 0x3f,
  0xa4, 0x85, 0x55, 0x3e, 0xde, 0x59, 0xa3, 0xbd, 0xbf, 0xce, 0xbc, 0xc0,
  0x1b, 0xdf, 0x73, 0xbe, 0x60, 0x9a, 0x8a, 0x3f, 0x0c, 0x94, 0xca, 0x3d,
  0xf3, 0xec, 0x63, 0xc0, 0x7c, 0x51, 0xe3, 0xbf, 0xd1, 0xd4, 0xac, 0x3e,
  0xab, 0x0b, 0xfc, 0xbe, 0xc9, 0x9b, 0x86, 0x3f, 0xe5, 0x3a, 0x52, 0x3f,
  0x4e, 0x6e, 0x27, 0xbf, 0xfa, 0x40, 0x83, 0x3f, 0x8e, 0x82, 0xb8, 0xc0,
  0xf9, 0x6d, 0x74, 0xbf, 0x33, 0x7d, 0x2a, 0xbf, 0x85, 0xd7, 0xae, 0xbf,
  0xba, 0x2b, 0x94, 0xbf, 0x4f, 0x39, 0xcf, 0xc0, 0xb4, 0xaf, 0x27, 0x3f,
  0x72, 0xa3, 0x16, 0xbf, 0xd5, 0xaf, 0x28, 0xbf, 0x9b, 0x64, 0x56, 0x3f,
  0x56, 0x81, 0xc3, 0x3e, 0x77, 0x95, 0x2c, 0x3e, 0xdc, 0x6c, 0x08, 0x3f,
  0x49, 0x25, 0x47, 0x3f, 0x7b, 0x09, 0x12, 0xbf, 0x6b, 0x22, 0xf7, 0x3e,
  0xaf, 0x65, 0x74, 0x3f, 0x46, 0xb4, 0x4e, 0xc0, 0x53, 0x61, 0x9a, 0xc0,
  0x34, 0xac, 0xc7, 0x3e, 0x14, 0x8e, 0x68, 0xbe, 0x6f, 0x95, 0x83, 0x3f,
  0xc7, 0xc9, 0x4f, 0xc0, 0xc3, 0x9b, 0x4a, 0x3b, 0x5f, 0x5e, 0x9a, 0x3d,
  0xa1, 0xf1, 0x75, 0x3f, 0x7b, 0xb9, 0x8f, 0x3f, 0xe7, 0x4f, 0x88, 0x3f,
  0x1e, 0xc3, 0xc2, 0x3d, 0xfd, 0xab, 0x9f, 0xbe, 0x1e, 0xa2, 0xa1, 0xc0,
  0x9e, 0xa4, 0x09, 0x3f, 0x17, 0xbd, 0x83, 0x3f, 0x28, 0xdc, 0x55, 0x3d,
  0x3e, 0x50, 0x1f, 0xbf, 0x43, 0xb0, 0x30, 0x3f, 0x39, 0xaf, 0x84, 0xbd,
  0x16, 0xd5, 0x19, 0x3f, 0x42, 0x4d, 0x2d, 0x40, 0x81, 0x1d, 0x92, 0x3f,
  0xbd, 0x7f, 0x2f, 0x3e, 0x00, 0x06, 0x5a, 0x3f, 0xe4, 0xe6, 0x46, 0xc0,
  0x74, 0x22, 0x75, 0xbf, 0x69, 0xbf, 0x26, 0x40, 0xdc, 0x98, 0x51, 0xbf,
  0x06, 0xb9, 0x4d, 0xbf, 0x80, 0xbf, 0x7f, 0x3d, 0xcc, 0xee, 0x4f, 0xbe,
  0xc3, 0x33, 0x95, 0x3f, 0xfe, 0xf1, 0xa5, 0x3f, 0x2a, 0x6a, 0xfe, 0x3e,
  0x61, 0x2b, 0xd3, 0x3e, 0x31, 0x9b, 0x27, 0x3f, 0xe2, 0xb6, 0x7a, 0xbe,
  0x72, 0x65, 0x16, 0xc0, 0x95, 0x15, 0xce, 0x3f, 0x71, 0x00, 0x7c, 0xbf,
  0xa1, 0x39, 0x98, 0xbf, 0xf6, 0x36, 0xe2, 0xc0, 0x33, 0xa4, 0x88, 0xbe,
  0x5d, 0xd9, 0x91, 0x3e, 0x7c, 0x40, 0x8f, 0xbf, 0xef, 0x67, 0x0d, 0xbf,
  0x2c, 0x5a, 0xbb, 0x3e, 0x63, 0xd7, 0x30, 0x3d, 0x60, 0x59, 0x6b, 0x3f,
  0x42, 0x66, 0x9c, 0xbf, 0xa6, 0x72, 0xa2, 0xbf, 0x7e, 0xee, 0xd6, 0xbe,
  0xe5, 0xf9, 0x97, 0xbd, 0x6a, 0x2f, 0x01, 0xc0, 0x22, 0x76, 0x8b, 0x3d,
  0xb3, 0x5a, 0x0a, 0xbf, 0xb3, 0x90, 0xda, 0xbf, 0x76, 0xeb, 0xa7, 0xbe,
  0x85, 0x77, 0x8d, 0x3d, 0x5e, 0xb9, 0xa3, 0xbd, 0x30, 0x69, 0x2b, 0x3f,
  0x5b, 0xb9, 0x83, 0x3f, 0x07, 0x6a, 0xb0, 0xbf, 0x41, 0x73, 0xf8, 0xbe,
  0xe9, 0xb2, 0xde, 0x3e, 0xa1, 0x61, 0x81, 0x40, 0x35, 0xb8, 0xcc, 0xbe,
  0x47, 0xb4, 0x6e, 0x3e, 0xf9, 0x97, 0x32, 0xbf, 0x40, 0x16, 0xe8, 0x3f,
  0x30, 0xbd, 0xb1, 0xbf, 0x4a, 0x8a, 0x30, 0x3f, 0x7c, 0xbb, 0x44, 0x3e,
  0xd8, 0xea, 0x19, 0x3e, 0x0d, 0xc3, 0x57, 0xbf, 0xe1, 0xf4, 0xfb, 0x3c,
  0x90, 0x0d, 0xdf, 0xbe, 0x84, 0xc7, 0xde, 0xbd, 0x04, 0x4c, 0x75, 0xbf,
  0x31, 0xbc, 0x63, 0xbf, 0x3f, 0x57, 0x2f, 0xbe, 0x6d, 0x66, 0x95, 0x3f,
  0x62, 0xaa, 0x03, 0xc0, 0x89, 0xce, 0xf3, 0xbd, 0x14, 0xf6, 0x3b, 0xbd,
  0xe3, 0x43, 0x76, 0x3e, 0xe9, 0x44, 0x98, 0xbe, 0xa3, 0xa1, 0xfd, 0x3e,
  0x9a, 0x91, 0x8b, 0xbe, 0x83, 0x64, 0xde, 0xbf, 0xbb, 0xde, 0x2f, 0xbf,
  0x8a, 0x2d, 0x98, 0x3e, 0xf4, 0xe8, 0xf9, 0xbe, 0xaa, 0x89, 0x6a, 0x3f,
  0xf2, 0xc6, 0xc2, 0x3f, 0xc4, 0x6f, 0xb0, 0x3e, 0xf0, 0x92, 0xb9, 0xbd,
  0x42, 0xc8, 0x05, 0xbe, 0x84, 0xe3, 0xd4, 0xbd, 0xb5, 0x37, 0x2e, 0xc0,
  0x3b, 0x7b, 0x8c, 0xbe, 0x0c, 0xdd, 0x5c, 0xbe, 0x78, 0xa9, 0x91, 0x3e,
  0x2b, 0xd2, 0x1c, 0x3f, 0x75, 0x5c, 0x20, 0x3e, 0xe7, 0xbb, 0x61, 0x3e,
  0xb5, 0x81, 0xd5, 0x3f, 0x22, 0x50, 0x03, 0xbd, 0x3c, 0x05, 0x20, 0x3e,
  0x19, 0xc9, 0x4a, 0x3f, 0xec, 0xf4, 0xfc, 0x3e, 0x78, 0x49, 0xb1, 0xbf,
  0x3f, 0x38, 0x56, 0xbc, 0x1a, 0x2a, 0xac, 0xc0, 0x85, 0xa4, 0xc8, 0xbf,
  0x26, 0xeb, 0x4e, 0x3f, 0x68, 0x3a, 0x9b, 0xbf, 0xb1, 0x10, 0x3b, 0x3f,
  0x81, 0xf4, 0x3e, 0xbf, 0x40, 0x22, 0x80, 0x3f, 0xcd, 0x12, 0x88, 0x3e,
  0x13, 0xa7, 0x4e, 0xbf, 0x9a, 0x2f, 0x8b, 0xbf, 0xd7, 0xe1, 0x5c, 0x3e,
  0x77, 0x7e, 0x39, 0xbf, 0xf6, 0x34, 0xa7, 0xbf, 0xde, 0xc8, 0x8d, 0xc0,
  0x02, 0x36, 0x45, 0x3f, 0x12, 0xdc, 0xf0, 0xbf, 0xac, 0x5a, 0x5c, 0x3f,
  0x80, 0x04, 0x14, 0xc0, 0xe6, 0x91, 0x46, 0xbf, 0x28, 0x4a, 0x6e, 0x3f,
  0x61, 0xb6, 0xce, 0xbe, 0x02, 0x01, 0xe1, 0xbf, 0xe9, 0x36, 0xc0, 0x3e,
  0x6e, 0xf3, 0x02, 0xbf, 0xf9, 0xe2, 0x17, 0xbf, 0x36, 0x77, 0xa3, 0xc0,
  0xcf, 0x56, 0x83, 0xbf, 0xfc, 0xb9, 0x30, 0xc0, 0xd8, 0xa2, 0xff, 0x3e,
  0x97, 0x4e, 0x67, 0xbf, 0x07, 0xa9, 0x56, 0x3e, 0xc1, 0xc8, 0x83, 0x3f,
  0x3d, 0xa6, 0xb6, 0x3b, 0x7b, 0xe6, 0x2c, 0xc0, 0x93, 0xf5, 0x27, 0xbe,
  0x98, 0x4c, 0xaa, 0xbf, 0xb2, 0x80, 0xc5, 0x3e, 0xdd, 0xb2, 0x2f, 0xbf,
  0x1d, 0xe5, 0xfb, 0x3e, 0x5c, 0x72, 0x25, 0xc0, 0xd8, 0xe0, 0x45, 0x3e,
  0x9b, 0xa4, 0xd9, 0xbd, 0xd9, 0x68, 0x13, 0x3e, 0x42, 0x0b, 0x65, 0xbf,
  0x9e, 0xdb, 0x67, 0xc0, 0x72, 0x01, 0x23, 0xc0, 0x73, 0x32, 0x24, 0x3e,
  0xf0, 0xc6, 0xb0, 0xc0, 0xb9, 0x69, 0x44, 0xbf, 0xf3, 0x87, 0x7e, 0x3e,
  0x79, 0x66, 0x05, 0x3e, 0xe2, 0x42, 0x8e, 0xbe, 0xc3, 0xa2, 0xb1, 0xbf,
  0x53, 0x4a, 0x95, 0x3f, 0x8b, 0xec, 0x53, 0xbf, 0x4a, 0x84, 0x38, 0xbf,
  0x5a, 0x27, 0x51, 0xc0, 0x61, 0x55, 0x0c, 0xbe, 0x0f, 0x2e, 0x48, 0xbf,
  0x7b, 0x29, 0x0c, 0xc0, 0xbf, 0x73, 0x57, 0xbe, 0x13, 0x7a, 0x27, 0xbf,
  0x7f, 0x42, 0x03, 0xbf, 0x59, 0x39, 0xe6, 0x3e, 0xdd, 0x48, 0x87, 0xbf,
  0x6e, 0x76, 0xde, 0x3d, 0xd1, 0x83, 0x90, 0xbf, 0xa7, 0x4b, 0x00, 0x3d,
  0x3e, 0xb8, 0x91, 0xbe, 0x36, 0xf1, 0x8d, 0x3e, 0xe2, 0x2d, 0xe9, 0xbf,
  0x60, 0xa8, 0x1a, 0x3f, 0xf3, 0x62, 0x4a, 0x3d, 0x73, 0x16, 0xcd, 0xbe,
  0x86, 0x51, 0x11, 0x3f, 0x17, 0x00, 0x98, 0x3f, 0x46, 0x84, 0xb6, 0xbe,
  0xb1, 0x11, 0xb0, 0xbe, 0xe1, 0x61, 0xf8, 0xbd, 0x2a, 0x08, 0x64, 0x3f,
  0xf4, 0xb7, 0x82, 0xbe, 0x08, 0xaa, 0x68, 0x3f, 0x79, 0x5f, 0xfb, 0xbc,
  0x0f, 0xe0, 0x73, 0x3f, 0x44, 0x43, 0xac, 0xbf, 0x8b, 0xc8, 0x44, 0x3f,
  0xfb, 0xff, 0x7a, 0xbe, 0x1f, 0x32, 0x23, 0x3f, 0x2b, 0xc2, 0xe2, 0xbe,
  0x88, 0xb7, 0xeb, 0x3e, 0xed, 0x73, 0x64, 0x3e, 0xa3, 0x9a, 0x94, 0x3d,
  0x87, 0x13, 0x2a, 0xbf, 0x5b, 0x1f, 0x21, 0x3f, 0xfd, 0xa1, 0xa9, 0x3f,
  0x8a, 0x0f, 0x59, 0xbe, 0xa0, 0x18, 0x79, 0x3f, 0x81, 0x38, 0x6f, 0xbf,
  0x2d, 0xd7, 0x79, 0xc0, 0x29, 0x7c, 0xaf, 0x3e, 0xbf, 0x91, 0x9e, 0x3e,
  0x88, 0xe6, 0x06, 0xc0, 0xfd, 0xd8, 0x59, 0x3e, 0x66, 0xe8, 0x8b, 0x3f,
  0xc5, 0xfc, 0x95, 0x3f, 0x6f, 0xea, 0x27, 0x3f, 0x8e, 0xd0, 0x42, 0x3f,
  0x81, 0x13, 0xcf, 0x3e, 0x00, 0x1f, 0xff, 0xbe, 0x73, 0x53, 0x15, 0xc0,
  0x43, 0xbf, 0x93, 0xc0, 0xda, 0x93, 0x83, 0xc0, 0xc5, 0xb1, 0x3a, 0xbe,
  0xca, 0x44, 0x6c, 0xc0, 0x9f, 0x6c, 0xfd, 0xbe, 0xc3, 0xe3, 0x46, 0x3f,
  0x7a, 0x7f, 0x92, 0x3f, 0x03, 0xf7, 0x62, 0xc0, 0xfd, 0x07, 0x38, 0x40,
  0x61, 0xd5, 0x98, 0x3f, 0xdc, 0x9a, 0x76, 0xbd, 0x85, 0x2e, 0x83, 0xc0,
  0x1e, 0x6f, 0x9e, 0xc0, 0x51, 0x20, 0x5c, 0xc0, 0x8d, 0x5e, 0x2e, 0xbf,
  0xa5, 0x99, 0x97, 0xbf, 0xcd, 0x9f, 0xb6, 0xbf, 0x54, 0x02, 0x4c, 0xbf,
  0xd6, 0x11, 0xfb, 0xbd, 0xd2, 0x04, 0x2b, 0xc0, 0x08, 0x9b, 0x43, 0x3f,
  0x2b, 0x18, 0xab, 0xbc, 0x64, 0xe6, 0x01, 0x3f, 0xa7, 0x6f, 0xbd, 0xbe,
  0xc9, 0xdd, 0x54, 0xc0, 0xed, 0x1c, 0x2c, 0xbf, 0xb6, 0x31, 0xa8, 0x3e,
  0x1e, 0x84, 0x60, 0x3f, 0xf4, 0xf9, 0x37, 0x40, 0xf5, 0x45, 0x53, 0x3c,
  0xa0, 0x70, 0x8f, 0xbf, 0xa1, 0xb4, 0x13, 0xbf, 0xbd, 0x6a, 0x34, 0x3e,
  0x8a, 0x83, 0x84, 0x3f, 0xf0, 0xf9, 0x5a, 0xbf, 0x34, 0xe5, 0x1b, 0x3f,
  0x1a, 0x2b, 0x2a, 0xc0, 0x69, 0x33, 0x85, 0x3f, 0x35, 0x01, 0x27, 0xbf,
  0x80, 0xac, 0x8e, 0x3f, 0xe7, 0x27, 0xf7, 0x3e, 0x4b, 0xf3, 0x94, 0xbf,
  0x1c, 0x7b, 0xe5, 0xbf, 0x41, 0x35, 0x86, 0x3f, 0x25, 0xa0, 0xe1, 0xbf,
  0xa2, 0xb4, 0xe4, 0xbf, 0xf8, 0x8c, 0x8e, 0x3e, 0x7e, 0xe2, 0x9f, 0xbf,
  0x8b, 0x89, 0x1b, 0xbf, 0x12, 0x7c, 0x82, 0x3e, 0x38, 0xd3, 0x34, 0xc0,
  0x1d, 0x24, 0xdb, 0xbe, 0x3a, 0xb9, 0xee, 0xbf, 0xa6, 0xd9, 0xb5, 0xbf,
  0x4b, 0x16, 0xbb, 0xbe, 0x39, 0x85, 0x1b, 0x3f, 0xfc, 0x27, 0x7a, 0xbf,
  0x84, 0xa7, 0x88, 0xbf, 0xd9, 0x4b, 0x84, 0x3e, 0x8a, 0x1d, 0x6a, 0xbf,
  0x97, 0x56, 0x97, 0xbf, 0xb4, 0xb4, 0xbe, 0xbc, 0x03, 0xc4, 0x00, 0xbf,
  0xfb, 0x38, 0x0f, 0xbe, 0x95, 0x50, 0x63, 0x3e, 0xa2, 0x1f, 0x71, 0x3e,
  0xab, 0x74, 0x05, 0xc0, 0x40, 0x0f, 0x26, 0xbe, 0x4a, 0xbe, 0x2c, 0xc0,
  0xd8, 0xa5, 0x0c, 0xc0, 0xf4, 0xb9, 0xbc, 0x3f, 0x3e, 0x29, 0x11, 0xbe,
  0x98, 0xd6, 0x9c, 0xbf, 0x34, 0x7b, 0xb7, 0xbe, 0x43, 0x50, 0xe2, 0xbe,
  0x15, 0xbf, 0x91, 0xbe, 0xa0, 0xe7, 0x59, 0x3d, 0x81, 0xa1, 0x14, 0xbf,
  0xd4, 0x16, 0xaf, 0xbf, 0x1b, 0x13, 0x09, 0xbd, 0xcc, 0xb0, 0x94, 0xbf,
  0xa1, 0x14, 0x12, 0xbe, 0x72, 0x63, 0x06, 0x3f, 0x51, 0x37, 0x82, 0xbe,
  0xc7, 0x65, 0x7c, 0x3d, 0x8b, 0x2c, 0x58, 0x3f, 0x3f, 0xfb, 0x24, 0xbf,
  0xa5, 0xcf, 0xc3, 0x3d, 0x07, 0xf9, 0x90, 0xbe, 0x28, 0xdc, 0x1d, 0x3f,
  0xba, 0x58, 0x79, 0x3f, 0x07, 0xaa, 0x86, 0x3f, 0x09, 0xc0, 0x7a, 0xbf,
  0xf4, 0xb4, 0xe1, 0x3e, 0xa8, 0x94, 0x70, 0xbf, 0x3c, 0xbe, 0x24, 0xc0,
  0xd5, 0xe7, 0xa9, 0x3f, 0xfe, 0x09, 0xee, 0x3e, 0x29, 0xaf, 0x3e, 0xbe,
  0xec, 0x00, 0xab, 0xbf, 0x37, 0xf2, 0xf6, 0xbe, 0x4c, 0x48, 0x64, 0x3f,
  0x5a, 0x51, 0x82, 0x3e, 0x6e, 0x7f, 0x0e, 0x3f, 0x03, 0x51, 0xa0, 0xbd,
  0x85, 0x29, 0xb4, 0x3d, 0x99, 0x28, 0xec, 0xbf, 0x42, 0xdd, 0xff, 0xff,
  0x34, 0x00, 0x00, 0x00, 0x0f, 0x00, 0x00, 0x00, 0x08, 0x00, 0x00, 0x00,
  0x3c, 0x00, 0x00, 0x00, 0x1c, 0x00, 0x00, 0x00, 0x66, 0x75, 0x6e, 0x63,
  0x74, 0x69, 0x6f, 0x6e, 0x61, 0x6c, 0x5f, 0x31, 0x2f, 0x63, 0x6f, 0x6e,
  0x76, 0x32, 0x64, 0x5f, 0x31, 0x2f, 0x43, 0x6f, 0x6e, 0x76, 0x32, 0x44,
  0x00, 0x00, 0x00, 0x00, 0x04, 0x00, 0x00, 0x00, 0x0c, 0x00, 0x00, 0x00,
  0x01, 0x00, 0x00, 0x00, 0x0a, 0x00, 0x00, 0x00, 0x0c, 0x00, 0x00, 0x00,
  0xc0, 0xdc, 0xff, 0xff, 0xe6, 0xdd, 0xff, 0xff, 0x04, 0x00, 0x00, 0x00,
  0xc0, 0x03, 0x00, 0x00, 0x47, 0x97, 0xc9, 0x3f, 0xd5, 0x52, 0xc5, 0x3f,
  0xfa, 0x6a, 0x1e, 0x3f, 0x8c, 0x98, 0x25, 0xbe, 0x5c, 0x41, 0x08, 0xbf,
  0x33, 0xcd, 0x14, 0xbf, 0x26, 0x36, 0x22, 0xbf, 0xab, 0x53, 0x2b, 0xbf,
  0x78, 0x35, 0x53, 0xbf, 0x2b, 0x13, 0xd7, 0xbf, 0x52, 0x18, 0xe2, 0xbf,
  0xd4, 0x8a, 0x5d, 0x3d, 0xb9, 0xed, 0x07, 0x3e, 0xc2, 0x48, 0x8b, 0x3f,
  0x1d, 0xbd, 0xe7, 0x3f, 0x6b, 0x55, 0x28, 0x40, 0xd3, 0x8a, 0x1c, 0x40,
  0xde, 0x78, 0x17, 0x3f, 0x39, 0x56, 0xe1, 0xbf, 0x5f, 0xa3, 0x0a, 0xc0,
  0xc6, 0x22, 0x91, 0x3c, 0x91, 0x85, 0x3d, 0xbd, 0xb8, 0xe0, 0x61, 0xbf,
  0x3f, 0x1d, 0x95, 0xbf, 0xf2, 0xa5, 0xa8, 0xbf, 0x74, 0x89, 0xd3, 0xbf,
  0x27, 0x8a, 0xcf, 0xbf, 0x09, 0x58, 0xa9, 0xbf, 0xdf, 0x57, 0x8b, 0xbe,
  0x0c, 0xb2, 0xa3, 0x3f, 0x23, 0x25, 0x01, 0x40, 0x53, 0x3f, 0xe3, 0x3f,
  0x4a, 0x72, 0x7c, 0x3f, 0x01, 0xdd, 0x6f, 0xbe, 0xc8, 0xc0, 0xca, 0xbf,
  0xcf, 0x4e, 0x84, 0xbf, 0xab, 0x3c, 0x60, 0xbf, 0x5d, 0x7b, 0x56, 0xbf,
  0xd5, 0x86, 0x07, 0x3e, 0x66, 0x0f, 0x84, 0x3d, 0xc2, 0x4e, 0x15, 0x40,
  0xcd, 0xac, 0xe7, 0x3f, 0xf2, 0x7c, 0x13, 0x3f, 0x88, 0x7c, 0x3c, 0x3d,
  0x54, 0xbb, 0x89, 0xbf, 0x1f, 0xf4, 0xab, 0xbf, 0xb6, 0xb6, 0xb2, 0xbf,
  0xb9, 0x61, 0x8a, 0xbf, 0x05, 0x40, 0xa2, 0xbf, 0x5b, 0xc3, 0xa5, 0xbf,
  0x65, 0xe8, 0x83, 0xbf, 0x68, 0x4b, 0xc4, 0xbe, 0xaf, 0x1a, 0x0b, 0xbf,
  0x70, 0x45, 0x91, 0xbf, 0x07, 0xa4, 0xfa, 0xbe, 0xc6, 0x1e, 0xaf, 0xbf,
  0x68, 0xd9, 0x8c, 0x3e, 0x1a, 0x27, 0x26, 0x3e, 0x6d, 0xa7, 0xd8, 0x3f,
  0x3c, 0xce, 0xcb, 0x3f, 0xec, 0xcd, 0xa0, 0xbf, 0x28, 0x0e, 0x46, 0xbf,
  0xe3, 0x18, 0xb2, 0xbf, 0x34, 0xce, 0x96, 0xbf, 0x43, 0xfc, 0xd1, 0xbf,
  0x61, 0x91, 0xd2, 0xbf, 0xcc, 0x5b, 0xc4, 0xbf, 0xf8, 0x73, 0xc4, 0xbf,
  0x78, 0x5c, 0x4e, 0xbf, 0xb5, 0x87, 0xc9, 0x3d, 0x50, 0x6f, 0x65, 0x3f,
  0xf8, 0x11, 0x63, 0x3f, 0x86, 0x71, 0x7b, 0x3f, 0x2b, 0xe1, 0xd0, 0x3f,
  0xed, 0xd7, 0x8b, 0x3f, 0x8a, 0x01, 0x20, 0x3f, 0x4a, 0xe7, 0x1f, 0x3d,
  0xeb, 0xc7, 0x9a, 0xbe, 0x66, 0x81, 0x28, 0xbf, 0x06, 0x1e, 0xc4, 0x3e,
  0xc0, 0x39, 0x5c, 0xbd, 0xf6, 0x51, 0x83, 0x40, 0x02, 0x44, 0x06, 0x40,
  0xf7, 0xf0, 0x10, 0xbe, 0xcf, 0x3b, 0x88, 0xbf, 0x79, 0x83, 0xae, 0xbf,
  0x41, 0x35, 0x42, 0xbf, 0xf7, 0x8c, 0x40, 0xbe, 0xc2, 0xe2, 0xd4, 0xbd,
  0x1e, 0xc6, 0xa5, 0xbf, 0xad, 0x21, 0x56, 0xbf, 0x25, 0x87, 0x9f, 0xbe,
  0x61, 0xdb, 0x1b, 0xbe, 0x9d, 0xcf, 0x00, 0x3f, 0x45, 0xc2, 0x0f, 0x3f,
  0x1b, 0xf3, 0xa7, 0x3f, 0x47, 0x93, 0xd4, 0x3f, 0x60, 0x41, 0x77, 0x3f,
  0xaf, 0x63, 0xec, 0x3e, 0xde, 0xf2, 0x82, 0xbf, 0xf7, 0x9b, 0x94, 0xbd,
  0xf3, 0x66, 0x32, 0x3c, 0xc9, 0xf8, 0x1b, 0xbf, 0x4c, 0xe4, 0x28, 0xbf,
  0x5c, 0xb2, 0xa9, 0xbf, 0x59, 0xc0, 0x9e, 0xbf, 0xb5, 0x19, 0xcf, 0xbf,
  0xcb, 0x92, 0xa8, 0xbf, 0x6d, 0xbd, 0x9a, 0xbf, 0xa9, 0xb0, 0x60, 0xbf,
  0xe1, 0x91, 0xf5, 0xbe, 0x6b, 0x62, 0x77, 0x3f, 0x80, 0x1b, 0xc4, 0x3f,
  0xb2, 0x90, 0xdd, 0x3f, 0xd3, 0x3c, 0xdf, 0x3f, 0x0c, 0xe4, 0x5c, 0x3f,
  0x4e, 0x8a, 0x44, 0x3c, 0xe8, 0x07, 0xe3, 0xbe, 0x70, 0x6c, 0x23, 0xbf,
  0xaf, 0x46, 0x07, 0x3e, 0x50, 0xbb, 0x1f, 0x3f, 0x7a, 0x7d, 0x23, 0x3f,
  0x0b, 0xc7, 0xb1, 0xbe, 0xed, 0xf9, 0x24, 0xbf, 0x77, 0xda, 0x9e, 0xbf,
  0x14, 0x27, 0x00, 0xc0, 0x80, 0xf7, 0xdb, 0xbf, 0x1c, 0x54, 0x19, 0xbf,
  0x8f, 0xaf, 0x06, 0x3f, 0xb4, 0x1e, 0x15, 0x40, 0x1e, 0x11, 0x56, 0x40,
  0xdc, 0x14, 0x3d, 0x40, 0x14, 0x50, 0x98, 0x3f, 0x51, 0xdb, 0x99, 0xbf,
  0x70, 0xbe, 0xd7, 0xbf, 0x7d, 0xf2, 0x33, 0xbf, 0x10, 0x20, 0xdc, 0x3c,
  0x34, 0x7c, 0xf8, 0x3e, 0x31, 0x54, 0x7b, 0xbd, 0xc3, 0x22, 0xb5, 0xbe,
  0x78, 0x07, 0x5e, 0xbf, 0x30, 0x96, 0x8a, 0xbe, 0x1b, 0xdb, 0x98, 0xbf,
  0x60, 0x5c, 0xba, 0xbf, 0x00, 0x91, 0xb0, 0xbf, 0xf7, 0x6d, 0xf0, 0xbf,
  0xf9, 0xea, 0x81, 0xbf, 0x2f, 0xa5, 0x38, 0x3f, 0x53, 0x37, 0xbe, 0x3f,
  0xf5, 0xb8, 0x2c, 0x40, 0xce, 0x99, 0x10, 0x40, 0x0c, 0xdc, 0x60, 0x3f,
  0x9a, 0xff, 0xbb, 0xbd, 0xf9, 0x96, 0xbe, 0x3e, 0xd5, 0x15, 0x14, 0xbf,
  0xfc, 0x3a, 0xa0, 0xbe, 0x4f, 0x46, 0x98, 0xbf, 0x58, 0x9c, 0xb6, 0xbe,
  0xd7, 0xdc, 0x82, 0xbf, 0x6c, 0xb8, 0x85, 0xbf, 0x70, 0x1d, 0xfe, 0x3f,
  0x21, 0x89, 0xf2, 0x3f, 0x62, 0x15, 0x60, 0x3f, 0xc7, 0x49, 0x44, 0x3e,
  0x64, 0x4d, 0x73, 0xbf, 0xb6, 0x25, 0x9f, 0xbf, 0x4b, 0xec, 0xd6, 0xbf,
  0xc9, 0xfb, 0x9c, 0xbf, 0x0d, 0x71, 0xa6, 0xbf, 0x1c, 0x12, 0xba, 0xbf,
  0x0d, 0x2a, 0x94, 0xbf, 0xab, 0x6f, 0x1b, 0xbf, 0x80, 0x05, 0x82, 0xbe,
  0x6f, 0x2c, 0x83, 0xbf, 0xd6, 0xd9, 0x0b, 0xbf, 0x51, 0xc4, 0xb4, 0xbf,
  0xb5, 0xc6, 0x06, 0x3f, 0xd3, 0xde, 0xd8, 0xbc, 0xd0, 0x73, 0xd9, 0x3f,
  0x25, 0xd1, 0xd1, 0x3f, 0xf3, 0xcc, 0xd8, 0xbf, 0xbb, 0x4e, 0x41, 0xbf,
  0x4a, 0x58, 0xaa, 0x3e, 0x1b, 0x36, 0x99, 0xbf, 0x64, 0xdd, 0x89, 0xbf,
  0x92, 0xb4, 0x87, 0xbe, 0x43, 0xd9, 0x42, 0x3f, 0xae, 0xb0, 0x5e, 0x40,
  0x91, 0x92, 0x3b, 0x40, 0xa7, 0x11, 0x58, 0x3f, 0x48, 0xe8, 0x0e, 0xbf,
  0x65, 0xd8, 0x9e, 0xbf, 0x8a, 0x7f, 0xc0, 0xbf, 0xfa, 0x55, 0x00, 0xbf,
  0x25, 0x87, 0x1b, 0xbf, 0x33, 0x58, 0x8b, 0xbf, 0xc0, 0x63, 0xc1, 0xbe,
  0xe6, 0x3c, 0x41, 0xbe, 0x0b, 0xac, 0x29, 0x3f, 0x15, 0x68, 0xc2, 0xbc,
  0xe8, 0xe5, 0xf6, 0x3b, 0xc0, 0xff, 0x3c, 0xbe, 0x19, 0xab, 0x44, 0xbf,
  0x5a, 0x06, 0x00, 0xbd, 0x8e, 0xc0, 0xc1, 0xbb, 0x2b, 0x1e, 0xee, 0xbf,
  0xa1, 0x92, 0x7c, 0xbf, 0xe4, 0xfb, 0x9c, 0xbf, 0x65, 0x1e, 0xb3, 0xbe,
  0xaa, 0xbe, 0xfb, 0x3f, 0x88, 0xcd, 0x58, 0x40, 0x74, 0x7e, 0xfd, 0x3f,
  0xc2, 0x70, 0x74, 0x3f, 0xe6, 0x72, 0x26, 0xbd, 0xaa, 0x50, 0x80, 0xbf,
  0x48, 0xbd, 0x04, 0x3e, 0x78, 0x2b, 0x73, 0xbf, 0x68, 0xf2, 0xe0, 0x3d,
  0x27, 0x8c, 0xce, 0xbf, 0x61, 0x2d, 0x19, 0xbf, 0x56, 0xf0, 0xcb, 0x3e,
  0xc7, 0x27, 0xf3, 0xbe, 0x63, 0x3b, 0xe8, 0xbe, 0x48, 0x58, 0x6f, 0xbf,
  0x5d, 0x22, 0x35, 0x3e, 0xe6, 0x78, 0x59, 0x40, 0xa0, 0x43, 0x34, 0x40,
  0x34, 0xbe, 0xa1, 0x3f, 0x02, 0xeb, 0x83, 0xbe, 0x46, 0xd5, 0x96, 0xbf,
  0x3e, 0x9e, 0xcd, 0xbf, 0x27, 0x5d, 0x91, 0xbf, 0x6f, 0xf0, 0x60, 0xbf,
  0x41, 0xf8, 0xa9, 0xbf, 0x2c, 0xfa, 0x47, 0xbf, 0x26, 0x52, 0x37, 0xbf,
  0xcc, 0x98, 0x8c, 0x3e, 0x98, 0x80, 0x8b, 0x3e, 0x84, 0x05, 0x55, 0x3f,
  0x93, 0x38, 0x3b, 0x3e, 0x5e, 0xe1, 0xff, 0xff, 0x30, 0x00, 0x00, 0x00,
  0x0e, 0x00, 0x00, 0x00, 0x08, 0x00, 0x00, 0x00, 0x38, 0x00, 0x00, 0x00,
  0x1a, 0x00, 0x00, 0x00, 0x66, 0x75, 0x6e, 0x63, 0x74, 0x69, 0x6f, 0x6e,
  0x61, 0x6c, 0x5f, 0x31, 0x2f, 0x63, 0x6f, 0x6e, 0x76, 0x32, 0x64, 0x2f,
  0x43, 0x6f, 0x6e, 0x76, 0x32, 0x44, 0x00, 0x00, 0x04, 0x00, 0x00, 0x00,
  0x0c, 0x00, 0x00, 0x00, 0x01, 0x00, 0x00, 0x00, 0x14, 0x00, 0x00, 0x00,
  0x01, 0x00, 0x00, 0x00, 0xd8, 0xe0, 0xff, 0xff, 0xfe, 0xe1, 0xff, 0xff,
  0x04, 0x00, 0x00, 0x00, 0x30, 0x00, 0x00, 0x00, 0xf5, 0xd5, 0x92, 0x3c,
  0x23, 0xc3, 0xba, 0x3c, 0x6a, 0x73, 0xc3, 0x3c, 0xc4, 0x34, 0x96, 0x3c,
  0xa4, 0x0e, 0x99, 0x3c, 0x7a, 0x20, 0xc8, 0x3c, 0x44, 0x9a, 0xcb, 0x3c,
  0x0c, 0x6a, 0x90, 0x3c, 0xdc, 0x47, 0x5d, 0x3c, 0xf0, 0xbf, 0x95, 0x3c,
  0x16, 0xd7, 0xef, 0x3c, 0xfc, 0xd2, 0x90, 0x3c, 0xe6, 0xe1, 0xff, 0xff,
  0x4c, 0x00, 0x00, 0x00, 0x0d, 0x00, 0x00, 0x00, 0x08, 0x00, 0x00, 0x00,
  0x48, 0x00, 0x00, 0x00, 0x34, 0x00, 0x00, 0x00, 0x66, 0x75, 0x6e, 0x63,
  0x74, 0x69, 0x6f, 0x6e, 0x61, 0x6c, 0x5f, 0x31, 0x2f, 0x62, 0x61, 0x74,
  0x63, 0x68, 0x5f, 0x6e, 0x6f, 0x72, 0x6d, 0x61, 0x6c, 0x69, 0x7a, 0x61,
  0x74, 0x69, 0x6f, 0x6e, 0x5f, 0x32, 0x2f, 0x46, 0x75, 0x73, 0x65, 0x64,
  0x42, 0x61, 0x74, 0x63, 0x68, 0x4e, 0x6f, 0x72, 0x6d, 0x56, 0x33, 0x31,
  0x00, 0x00, 0x00, 0x00, 0x01, 0x00, 0x00, 0x00, 0x0c, 0x00, 0x00, 0x00,
  0x70, 0xe1, 0xff, 0xff, 0x96, 0xe2, 0xff, 0xff, 0x04, 0x00, 0x00, 0x00,
  0x30, 0x00, 0x00, 0x00, 0x5b, 0x7b, 0x07, 0xbe, 0x70, 0x62, 0x84, 0xbe,
  0xdf, 0xe3, 0x40, 0xbe, 0x1e, 0x65, 0x62, 0xbe, 0x09, 0x5f, 0x80, 0xbe,
  0x0f, 0xec, 0x7a, 0xbe, 0x9a, 0x1c, 0x57, 0xbe, 0xf6, 0x6e, 0x85, 0xbe,
  0x03, 0x80, 0x56, 0xbe, 0xe6, 0xe3, 0x75, 0xbe, 0x13, 0x21, 0x33, 0xbe,
  0x69, 0x61, 0xf0, 0xbd, 0x7e, 0xe2, 0xff, 0xff, 0x48, 0x00, 0x00, 0x00,
  0x0c, 0x00, 0x00, 0x00, 0x08, 0x00, 0x00, 0x00, 0x44, 0x00, 0x00, 0x00,
  0x33, 0x00, 0x00, 0x00, 0x66, 0x75, 0x6e, 0x63, 0x74, 0x69, 0x6f, 0x6e,
  0x61, 0x6c, 0x5f, 0x31, 0x2f, 0x62, 0x61, 0x74, 0x63, 0x68, 0x5f, 0x6e,
  0x6f, 0x72, 0x6d, 0x61, 0x6c, 0x69, 0x7a, 0x61, 0x74, 0x69, 0x6f, 0x6e,
  0x5f, 0x32, 0x2f, 0x46, 0x75, 0x73, 0x65, 0x64, 0x42, 0x61, 0x74, 0x63,
  0x68, 0x4e, 0x6f, 0x72, 0x6d, 0x56, 0x33, 0x00, 0x01, 0x00, 0x00, 0x00,
  0x0c, 0x00, 0x00, 0x00, 0x04, 0xe2, 0xff, 0xff, 0x2a, 0xe3, 0xff, 0xff,
  0x04, 0x00, 0x00, 0x00, 0x30, 0x00, 0x00, 0x00, 0x66, 0x39, 0xa9, 0x3c,
  0xcc, 0xd3, 0x32, 0x3c, 0x35, 0x41, 0xf5, 0x3c, 0x42, 0x90, 0x80, 0x3c,
  0x7d, 0x13, 0xb3, 0x3c, 0x32, 0xbd, 0xc6, 0x3c, 0x7f, 0xc7, 0x94, 0x3c,
  0xdf, 0xac, 0x48, 0x3c, 0xb7, 0x41, 0x82, 0x3c, 0xca, 0xe9, 0xae, 0x3c,
  0x96, 0x3c, 0xbe, 0x3c, 0x2a, 0x6d, 0x9d, 0x3c, 0x12, 0xe3, 0xff, 0xff,
  0x4c, 0x00, 0x00, 0x00, 0x0b, 0x00, 0x00, 0x00, 0x08, 0x00, 0x00, 0x00,
  0x48, 0x00, 0x00, 0x00, 0x34, 0x00, 0x00, 0x00, 0x66, 0x75, 0x6e, 0x63,
  0x74, 0x69, 0x6f, 0x6e, 0x61, 0x6c, 0x5f, 0x31, 0x2f, 0x62, 0x61, 0x74,
  0x63, 0x68, 0x5f, 0x6e, 0x6f, 0x72, 0x6d, 0x61, 0x6c, 0x69, 0x7a, 0x61,
  0x74, 0x69, 0x6f, 0x6e, 0x5f, 0x31, 0x2f, 0x46, 0x75, 0x73, 0x65, 0x64,
  0x42, 0x61, 0x74, 0x63, 0x68, 0x4e, 0x6f, 0x72, 0x6d, 0x56, 0x33, 0x31,
  0x00, 0x00, 0x00, 0x00, 0x01, 0x00, 0x00, 0x00, 0x0c, 0x00, 0x00, 0x00,
  0x9c, 0xe2, 0xff, 0xff, 0xc2, 0xe3, 0xff, 0xff, 0x04, 0x00, 0x00, 0x00,
  0x30, 0x00, 0x00, 0x00, 0xa1, 0x20, 0xb7, 0xbe, 0x48, 0x7d, 0xae, 0xbd,
  0x04, 0x4e, 0x09, 0xbf, 0x2c, 0x35, 0xc1, 0xbd, 0x1e, 0xba, 0xbf, 0xbe,
  0x34, 0xbf, 0x11, 0xbf, 0x06, 0x36, 0x96, 0xbe, 0x51, 0xd2, 0x0f, 0xbe,
  0xea, 0x7d, 0xa4, 0xbe, 0x53, 0x92, 0x22, 0xbf, 0xde, 0x70, 0xf8, 0xbe,
  0x4e, 0xfb, 0x1a, 0xbe, 0xaa, 0xe3, 0xff, 0xff, 0x48, 0x00, 0x00, 0x00,
  0x0a, 0x00, 0x00, 0x00, 0x08, 0x00, 0x00, 0x00, 0x44, 0x00, 0x00, 0x00,
  0x33, 0x00, 0x00, 0x00, 0x66, 0x75, 0x6e, 0x63, 0x74, 0x69, 0x6f, 0x6e,
  0x61, 0x6c, 0x5f, 0x31, 0x2f, 0x62, 0x61, 0x74, 0x63, 0x68, 0x5f, 0x6e,
  0x6f, 0x72, 0x6d, 0x61, 0x6c, 0x69, 0x7a, 0x61, 0x74, 0x69, 0x6f, 0x6e,
  0x5f, 0x31, 0x2f, 0x46, 0x75, 0x73, 0x65, 0x64, 0x42, 0x61, 0x74, 0x63,
  0x68, 0x4e, 0x6f, 0x72, 0x6d, 0x56, 0x33, 0x00, 0x01, 0x00, 0x00, 0x00,
  0x0c, 0x00, 0x00, 0x00, 0x30, 0xe3, 0xff, 0xff, 0x56, 0xe4, 0xff, 0xff,
  0x04, 0x00, 0x00, 0x00, 0x30, 0x00, 0x00, 0x00, 0xcb, 0x38, 0x08, 0x3f,
  0xd7, 0x25, 0x46, 0x3f, 0x64, 0x34, 0xca, 0x3e, 0x24, 0x45, 0xe5, 0x3e,
  0x3a, 0x64, 0xa0, 0x3e, 0x59, 0x5a, 0x1a, 0x3f, 0xc3, 0x09, 0xa2, 0x3e,
  0x7a, 0x05, 0x9d, 0x3e, 0x8f, 0xc6, 0xc1, 0x3e, 0x97, 0xf1, 0xa2, 0x3e,
  0x0d, 0x3a, 0x15, 0x3f, 0x0c, 0x9f, 0x48, 0x3f, 0x3e, 0xe4, 0xff, 0xff,
  0x48, 0x00, 0x00, 0x00, 0x09, 0x00, 0x00, 0x00, 0x08, 0x00, 0x00, 0x00,
  0x44, 0x00, 0x00, 0x00, 0x32, 0x00, 0x00, 0x00, 0x66, 0x75, 0x6e, 0x63,
  0x74, 0x69, 0x6f, 0x6e, 0x61, 0x6c, 0x5f, 0x31, 0x2f, 0x62, 0x61, 0x74,
  0x63, 0x68, 0x5f, 0x6e, 0x6f, 0x72, 0x6d, 0x61, 0x6c, 0x69, 0x7a, 0x61,
  0x74, 0x69, 0x6f, 0x6e, 0x2f, 0x46, 0x75, 0x73, 0x65, 0x64, 0x42, 0x61,
  0x74, 0x63, 0x68, 0x4e, 0x6f, 0x72, 0x6d, 0x56, 0x33, 0x31, 0x00, 0x00,
  0x01, 0x00, 0x00, 0x00, 0x0c, 0x00, 0x00, 0x00, 0xc4, 0xe3, 0xff, 0xff,
  0xea, 0xe4, 0xff, 0xff, 0x04, 0x00, 0x00, 0x00, 0x30, 0x00, 0x00, 0x00,
  0x67, 0x38, 0xc8, 0xbe, 0xf6, 0x88, 0xce, 0xbe, 0xe1, 0xf1, 0x80, 0xbf,
  0x50, 0x3d, 0x31, 0xbe, 0x79, 0x9f, 0x2f, 0xbf, 0xba, 0x8c, 0x27, 0xbe,
  0x9c, 0x2f, 0x33, 0xbe, 0x7c, 0x1b, 0x44, 0xbf, 0xdf, 0x76, 0x72, 0xbf,
  0xc7, 0xe2, 0x9a, 0xbf, 0xb1, 0xe5, 0x87, 0xbe, 0x08, 0x12, 0x72, 0xbe,
  0xd2, 0xe4, 0xff, 0xff, 0x48, 0x00, 0x00, 0x00, 0x08, 0x00, 0x00, 0x00,
  0x08, 0x00, 0x00, 0x00, 0x44, 0x00, 0x00, 0x00, 0x31, 0x00, 0x00, 0x00,
  0x66, 0x75, 0x6e, 0x63, 0x74, 0x69, 0x6f, 0x6e, 0x61, 0x6c, 0x5f, 0x31,
  0x2f, 0x62, 0x61, 0x74, 0x63, 0x68, 0x5f, 0x6e, 0x6f, 0x72, 0x6d, 0x61,
  0x6c, 0x69, 0x7a, 0x61, 0x74, 0x69, 0x6f, 0x6e, 0x2f, 0x46, 0x75, 0x73,
  0x65, 0x64, 0x42, 0x61, 0x74, 0x63, 0x68, 0x4e, 0x6f, 0x72, 0x6d, 0x56,
  0x33, 0x00, 0x00, 0x00, 0x01, 0x00, 0x00, 0x00, 0x0c, 0x00, 0x00, 0x00,
  0x58, 0xe4, 0xff, 0xff, 0x7e, 0xe5, 0xff, 0xff, 0x04, 0x00, 0x00, 0x00,
  0x00, 0x18, 0x00, 0x00, 0x07, 0x18, 0x29, 0x3d, 0xa0, 0x07, 0x07, 0xbf,
  0xa0, 0x26, 0x21, 0x3f, 0x6d, 0x5b, 0x3f, 0xbd, 0x9f, 0x44, 0x70, 0x3f,
  0xbe, 0x8c, 0x0b, 0x3e, 0x03, 0xe4, 0x30, 0xbf, 0x6d, 0x95, 0x9b, 0xbe,
  0xf5, 0xf7, 0x1e, 0x3f, 0xee, 0x38, 0xe1, 0x3f, 0x37, 0x84, 0x02, 0xbf,
  0x97, 0x12, 0x5c, 0xbd, 0x9e, 0xc9, 0x22, 0xbf, 0xff, 0x9b, 0x3f, 0x3e,
  0x48, 0xe1, 0x0e, 0x40, 0xbe, 0xbc, 0x01, 0x3f, 0xa0, 0xb2, 0x62, 0xbf,
  0x1b, 0x45, 0x41, 0xbf, 0xdb, 0xae, 0x5e, 0x3f, 0x91, 0x3c, 0xe5, 0x3e,
  0xb5, 0x41, 0x55, 0xbe, 0xb5, 0x47, 0xff, 0x3c, 0x3d, 0x3d, 0x5b, 0x3f,
  0x62, 0x62, 0x18, 0x3f, 0x4b, 0xc1, 0x22, 0xbf, 0xa4, 0x0f, 0x2c, 0xbd,
  0xe5, 0xdd, 0xfa, 0x3f, 0xb5, 0x19, 0xe9, 0xbe, 0x60, 0x54, 0xbd, 0xbf,
  0xc7, 0xf2, 0x12, 0xbf, 0x7b, 0x69, 0xa3, 0x3f, 0x27, 0x4a, 0xea, 0x3e,
  0x3e, 0x59, 0x1d, 0xbf, 0xb4, 0xcf, 0x99, 0xbf, 0x96, 0xfe, 0x8b, 0x3f,
  0xe4, 0x21, 0x70, 0xbe, 0xde, 0x29, 0x3f, 0x3c, 0xde, 0xc1, 0x68, 0xbe,
  0xbd, 0x94, 0x88, 0x3f, 0x73, 0xec, 0x5c, 0xbf, 0x8b, 0x9a, 0x0a, 0xbf,
  0x9b, 0x23, 0xd9, 0x3e, 0xf9, 0xc2, 0x0c, 0x3e, 0x59, 0x8f, 0x83, 0x3f,
  0xbf, 0x93, 0x65, 0xbf, 0xb8, 0xa0, 0x6b, 0xbf, 0x50, 0xbb, 0x9a, 0x3e,
  0xee, 0x99, 0xf0, 0x3e, 0xb4, 0x47, 0x29, 0x3e, 0x14, 0x2a, 0x5b, 0xbf,
  0x17, 0xf4, 0xdf, 0xbc, 0xa6, 0x06, 0xab, 0xbf, 0x01, 0xf9, 0x60, 0x3f,
  0x22, 0x8d, 0x0b, 0x3f, 0x4c, 0xe5, 0x3e, 0x3f, 0xac, 0x64, 0xc7, 0xbe,
  0xf8, 0xad, 0x87, 0xbf, 0xa0, 0x49, 0x4e, 0x3f, 0x4a, 0x40, 0x21, 0xbf,
  0x28, 0x5b, 0x7f, 0x3f, 0xae, 0xdf, 0xad, 0xbe, 0x19, 0xdb, 0xd3, 0xbe,
  0x70, 0xdb, 0x8e, 0x3d, 0x88, 0xc8, 0x00, 0xbe, 0xb5, 0xac, 0x30, 0xbf,
  0x71, 0x8a, 0xb9, 0xbf, 0xb0, 0x72, 0xbc, 0xbe, 0x95, 0x37, 0x6d, 0x3e,
  0x32, 0xa0, 0x77, 0xbe, 0x4c, 0x05, 0x51, 0x3f, 0xb3, 0xc5, 0x7d, 0x3d,
  0x73, 0x9d, 0x18, 0x3d, 0x6a, 0xb0, 0xdc, 0x3e, 0x26, 0x94, 0x0c, 0x40,
  0xc3, 0x74, 0xcf, 0xbf, 0x1e, 0x74, 0x26, 0x40, 0x3e, 0x4d, 0xe8, 0x3e,
  0xc6, 0x3c, 0x95, 0xbe, 0x4f, 0x70, 0x9e, 0xbf, 0x62, 0x39, 0x87, 0xbe,
  0x1f, 0x8c, 0x7d, 0x3f, 0xf9, 0x13, 0x97, 0xbf, 0xbd, 0x29, 0x00, 0x3d,
  0xec, 0x75, 0x7d, 0xbe, 0x1d, 0xe4, 0x98, 0x3f, 0x35, 0x44, 0xb0, 0x3e,
  0x33, 0x24, 0x53, 0xc0, 0x0a, 0x69, 0xe7, 0x3e, 0x4c, 0x85, 0x27, 0x3f,
  0x29, 0x25, 0x09, 0x3d, 0x6e, 0xa6, 0xe6, 0xbf, 0x98, 0x1f, 0xae, 0xbf,
  0xfe, 0x7e, 0x50, 0xbe, 0x2a, 0x12, 0xd4, 0xbf, 0x27, 0xc0, 0xee, 0xbe,
  0xcf, 0xb3, 0xc1, 0xbe, 0x72, 0xc3, 0xfb, 0xbe, 0x46, 0xb4, 0x31, 0xbe,
  0x28, 0x92, 0xaf, 0x3f, 0xf0, 0x2a, 0x4e, 0xbf, 0x8a, 0x7f, 0x63, 0xbf,
  0x90, 0xdc, 0x0b, 0xbe, 0x27, 0xe2, 0xc1, 0x3f, 0x75, 0xfd, 0x91, 0x3f,
  0xc3, 0xfb, 0x11, 0xbf, 0xff, 0x30, 0xd7, 0xbe, 0x66, 0x31, 0xc6, 0x3d,
  0x34, 0x84, 0xb0, 0x3e, 0xb0, 0x2b, 0x65, 0x3e, 0x3e, 0x02, 0x46, 0x3f,
  0x36, 0x76, 0xf9, 0x3e, 0x5c, 0x70, 0x8c, 0x3e, 0x65, 0xf1, 0x11, 0xbf,
  0x32, 0xb8, 0x89, 0xbd, 0xdc, 0x91, 0x0c, 0xbe, 0xe7, 0xe3, 0x62, 0x3f,
  0xd4, 0x49, 0x20, 0xbe, 0x23, 0x5f, 0x26, 0xbf, 0x95, 0x87, 0xfa, 0x3c,
  0x0f, 0x3f, 0x80, 0x3d, 0xe3, 0x89, 0x73, 0x3f, 0xbb, 0x64, 0xe4, 0x3e,
  0x04, 0x0b, 0x33, 0xbf, 0x9d, 0xc7, 0x75, 0x3d, 0x11, 0x79, 0x51, 0x3f,
  0x06, 0x88, 0x3d, 0x3f, 0xf2, 0x74, 0xa3, 0xbf, 0x96, 0x8c, 0xde, 0x3e,
  0xb4, 0xe3, 0x1e, 0x3e, 0x28, 0xf2, 0xec, 0x3d, 0xb9, 0x84, 0xa4, 0xbe,
  0x07, 0x0c, 0x97, 0x3f, 0x32, 0x6a, 0xa6, 0x3e, 0x8c, 0x3e, 0x43, 0xbf,
  0x18, 0x9a, 0xcc, 0xbd, 0x58, 0x97, 0xe3, 0xbe, 0x36, 0x85, 0xdf, 0x3f,
  0xb6, 0x32, 0x68, 0x3f, 0xaa, 0x19, 0x0b, 0x3f, 0xfe, 0x9e, 0x2e, 0xbf,
  0x64, 0xf6, 0xa1, 0xbb, 0x34, 0xf2, 0x86, 0x3f, 0x67, 0xd7, 0xeb, 0x3d,
  0x06, 0xc4, 0x52, 0x3f, 0xf9, 0x90, 0x49, 0xbf, 0xa0, 0xd8, 0xcd, 0xbe,
  0x2c, 0xba, 0x2e, 0x3f, 0x44, 0x73, 0xfc, 0xbe, 0x66, 0xd1, 0x5b, 0xbf,
  0xe1, 0xb4, 0xaa, 0xbf, 0x49, 0x6f, 0x2e, 0x3f, 0x3b, 0x5f, 0x44, 0xbf,
  0x11, 0xf2, 0x15, 0x3e, 0x6f, 0x7f, 0x8a, 0x3d, 0xbe, 0xab, 0x1d, 0x3f,
  0x6c, 0xfd, 0x04, 0xbf, 0xb6, 0xc4, 0x05, 0x3f, 0x1b, 0x04, 0xb7, 0x3e,
  0x32, 0x14, 0x1b, 0x3f, 0xac, 0x4d, 0x01, 0x3f, 0xec, 0x08, 0x87, 0xbf,
  0x7a, 0x87, 0x80, 0xbf, 0x88, 0xe3, 0x19, 0xbf, 0xe5, 0xd0, 0x91, 0x3f,
  0x3d, 0x6a, 0x22, 0x3f, 0x92, 0x0a, 0xb9, 0x3d, 0x3f, 0x21, 0xb8, 0x3d,
  0xae, 0xcc, 0x96, 0xbe, 0x26, 0xa0, 0x7a, 0x3f, 0x54, 0x9a, 0xfe, 0xbd,
  0x5d, 0xc5, 0xcd, 0xbf, 0x73, 0x7d, 0xf8, 0x3e, 0x33, 0xf6, 0x1d, 0x40,
  0xa3, 0x60, 0x9f, 0x3f, 0x74, 0x67, 0xa0, 0xbf, 0x3e, 0xd0, 0x9d, 0xbe,
  0xb9, 0x5f, 0x21, 0x3f, 0xe7, 0x02, 0xdf, 0x3f, 0xf8, 0x31, 0x1d, 0xbf,
  0xff, 0xc8, 0x52, 0x3f, 0x7b, 0x0e, 0x85, 0xbe, 0x5d, 0x59, 0x0b, 0xbf,
  0x38, 0x99, 0x06, 0xc0, 0x17, 0x4c, 0x3e, 0xbe, 0x7a, 0x45, 0x47, 0x3f,
  0x27, 0xc7, 0x13, 0x3e, 0x06, 0x1b, 0x96, 0xbf, 0x5e, 0x70, 0xc7, 0xbf,
  0xe4, 0x4e, 0xaf, 0x3d, 0x99, 0x07, 0x72, 0x3d, 0xce, 0x8d, 0xb5, 0xbe,
  0x11, 0xb1, 0x42, 0xbe, 0x2d, 0x69, 0x02, 0x3f, 0xc2, 0x8a, 0x1d, 0xbe,
  0xaf, 0x28, 0x08, 0x3f, 0xa8, 0xfe, 0x37, 0xbf, 0x3b, 0x9b, 0x4f, 0x3f,
  0x3f, 0x1c, 0xaa, 0x3f, 0x7b, 0x3c, 0x43, 0xbf, 0xc4, 0x8d, 0x7b, 0x3f,
  0xce, 0x03, 0x63, 0x3e, 0xb7, 0x24, 0x70, 0x3e, 0xcf, 0x83, 0x2a, 0xbf,
  0xaa, 0x85, 0xd9, 0x3f, 0xf9, 0x63, 0xc5, 0x3e, 0xc9, 0x4e, 0x2a, 0x3e,
  0x1a, 0xd7, 0x38, 0x3f, 0x95, 0xc5, 0x4a, 0x3e, 0x04, 0xb8, 0x1a, 0x3f,
  0x70, 0xf9, 0x29, 0x3f, 0x14, 0xa7, 0xfd, 0xbd, 0x8c, 0x98, 0x14, 0x3e,
  0xfd, 0xfa, 0x0d, 0x3d, 0x41, 0xc3, 0xda, 0x3e, 0xe9, 0x79, 0x81, 0xbd,
  0x6d, 0x59, 0xb4, 0x3f, 0x90, 0xfb, 0x06, 0x3e, 0x1a, 0xb8, 0xfe, 0xbe,
  0x74, 0x8a, 0x91, 0x3e, 0x7c, 0x4c, 0x39, 0xbf, 0xb5, 0x93, 0xb9, 0xbe,
  0x33, 0xfa, 0xa5, 0xbe, 0x9f, 0xc2, 0x28, 0xbf, 0xf7, 0x0f, 0x93, 0x3e,
  0xf8, 0x8f, 0x26, 0x3e, 0xab, 0x88, 0xd2, 0x3e, 0xac, 0xf2, 0xee, 0x3e,
  0xa8, 0x3d, 0x13, 0x3e, 0x48, 0xba, 0x59, 0x3f, 0x52, 0x00, 0xb9, 0xbe,
  0x5f, 0x41, 0x6e, 0xbf, 0x89, 0x37, 0xbd, 0xbd, 0xc8, 0x10, 0x5c, 0x3e,
  0xce, 0x0c, 0x91, 0xbe, 0x98, 0x04, 0x19, 0xbf, 0x7a, 0x0a, 0xa9, 0x3d,
  0xdd, 0x36, 0xf4, 0x3c, 0x12, 0x1f, 0x3a, 0x3f, 0x9a, 0xa4, 0x6b, 0x3e,
  0x47, 0x78, 0x46, 0x3e, 0x08, 0x21, 0xe0, 0x3e, 0x56, 0x82, 0x20, 0x3f,
  0x60, 0x4d, 0x9d, 0xbf, 0xbd, 0x4d, 0x98, 0x3f, 0xb6, 0x9c, 0x7e, 0x3e,
  0xd4, 0xaf, 0xde, 0xbe, 0x1a, 0x71, 0x89, 0xbd, 0xda, 0xd2, 0x04, 0xc0,
  0x01, 0xdf, 0x37, 0x3e, 0x12, 0x06, 0x65, 0x3d, 0xde, 0xed, 0x39, 0x3e,
  0xa0, 0x11, 0x16, 0xbf, 0xfd, 0xea, 0x45, 0x3e, 0x86, 0x13, 0x5b, 0x3f,
  0xf2, 0x3e, 0x9a, 0x3e, 0x00, 0x17, 0x07, 0x40, 0x5c, 0xdb, 0x11, 0x3f,
  0x48, 0x94, 0xdb, 0x3d, 0xab, 0xca, 0xe6, 0xbc, 0x66, 0x3a, 0xb5, 0xbf,
  0xfa, 0x5d, 0x02, 0x3f, 0xdf, 0x2d, 0xe1, 0xbd, 0xa1, 0xda, 0xf8, 0xbb,
  0xca, 0xbf, 0x54, 0xbf, 0xe5, 0x01, 0x16, 0xbf, 0xc5, 0x23, 0x85, 0xbe,
  0x9e, 0x46, 0xc8, 0x3c, 0x1f, 0x40, 0xc3, 0x3e, 0x48, 0xe3, 0x70, 0x3f,
  0x99, 0xea, 0x90, 0x3f, 0xe7, 0x3a, 0x67, 0x3f, 0x5b, 0xef, 0xb7, 0x3e,
  0x05, 0x4c, 0xe4, 0x3d, 0x93, 0x29, 0xfa, 0xbe, 0x2d, 0x66, 0x16, 0xbf,
  0xe3, 0x47, 0xa9, 0x3e, 0x2f, 0x4c, 0x06, 0xc0, 0x8e, 0xc8, 0xbf, 0xbf,
  0x31, 0xfa, 0x84, 0x3f, 0x40, 0x2b, 0xc2, 0xbf, 0x06, 0x41, 0xc4, 0xbf,
  0x04, 0x1d, 0xb5, 0xbf, 0xf9, 0x02, 0x30, 0x3f, 0x56, 0xa5, 0x21, 0x3d,
  0xc0, 0x90, 0x4b, 0xbf, 0x89, 0x76, 0xb7, 0xbf, 0x5d, 0x07, 0x59, 0xbf,
  0xb4, 0xaa, 0xa1, 0x3c, 0x97, 0xf0, 0x42, 0x3f, 0x4e, 0xab, 0xe5, 0x3f,
  0x9d, 0x88, 0x00, 0xbf, 0xb9, 0x62, 0xb9, 0x3f, 0x42, 0x73, 0x8b, 0x3e,
  0x10, 0xf0, 0xa0, 0x3f, 0xd9, 0x1f, 0xbd, 0xbe, 0x17, 0xd0, 0x1c, 0x3f,
  0xca, 0x8b, 0x6a, 0x3f, 0xb7, 0xdf, 0xad, 0xbf, 0xed, 0xb1, 0x87, 0xbe,
  0xc7, 0x6e, 0x15, 0x3f, 0x40, 0x9b, 0x0c, 0x3f, 0x61, 0x9d, 0xba, 0x3d,
  0x4d, 0x8c, 0x32, 0xbf, 0x7e, 0xa6, 0xa7, 0x3e, 0xd5, 0x00, 0x36, 0x40,
  0x5b, 0x28, 0xe5, 0x3f, 0xac, 0x31, 0x8f, 0xbe, 0x03, 0xdf, 0xb3, 0xbf,
  0x60, 0x74, 0x4d, 0xbf, 0xc9, 0x76, 0xe0, 0x3e, 0xae, 0x4e, 0x95, 0xbf,
  0x85, 0xb8, 0x9c, 0x3f, 0x6b, 0x50, 0x95, 0xbf, 0xbc, 0x65, 0x4e, 0xbf,
  0x77, 0x36, 0x34, 0x3f, 0x35, 0x81, 0xab, 0xbe, 0xa7, 0x1d, 0xda, 0xbf,
  0xbc, 0x48, 0x22, 0xc0, 0x87, 0xfa, 0xdd, 0xbe, 0x01, 0x92, 0xe5, 0x3e,
  0xf8, 0x81, 0x20, 0x3f, 0xde, 0x52, 0x20, 0x3f, 0xca, 0xc5, 0xcf, 0x3e,
  0x63, 0x9d, 0x0a, 0x3f, 0x78, 0x7a, 0x0f, 0x3f, 0x60, 0xb9, 0x25, 0x3f,
  0x48, 0x13, 0x2a, 0x3f, 0xca, 0xfc, 0x0b, 0x3f, 0x56, 0xe7, 0x93, 0x3e,
  0x66, 0x74, 0xe0, 0x3e, 0x0d, 0x2d, 0x11, 0x3e, 0x4a, 0x14, 0x0a, 0x3f,
  0x1e, 0x21, 0x38, 0x3f, 0x35, 0x9f, 0x96, 0xbd, 0x41, 0xc3, 0x04, 0x3f,
  0x2a, 0xc5, 0xc1, 0xbd, 0xe1, 0xef, 0x21, 0xbe, 0xea, 0xec, 0x67, 0xbf,
  0xd8, 0x4e, 0x59, 0xbe, 0x81, 0xeb, 0x31, 0xbf, 0x47, 0xee, 0x9a, 0x3f,
  0x96, 0xd7, 0xbd, 0x3f, 0x28, 0x92, 0x72, 0x3e, 0x78, 0x1d, 0x4b, 0xbf,
  0x32, 0xaa, 0x65, 0xbf, 0xed, 0xc5, 0x69, 0xbe, 0x25, 0xfe, 0xaf, 0xbe,
  0x6d, 0x84, 0xd0, 0x3e, 0x5f, 0xe1, 0xd4, 0xbe, 0xfd, 0x29, 0xb4, 0xbf,
  0x07, 0x7a, 0x49, 0x3f, 0x1a, 0x67, 0x80, 0xbf, 0x30, 0xf5, 0x28, 0xbf,
  0x15, 0x81, 0x40, 0xbf, 0x5b, 0xcb, 0xb5, 0x3e, 0x71, 0xc2, 0x08, 0x3f,
  0xd0, 0xe4, 0xf5, 0x37, 0x3c, 0xe5, 0x15, 0x3f, 0xcf, 0x5c, 0xc2, 0x3d,
  0x58, 0x67, 0xfd, 0xbc, 0x01, 0x3d, 0xca, 0x3e, 0xf2, 0x4f, 0x21, 0x3d,
  0x30, 0xd4, 0x81, 0x3e, 0x44, 0x3c, 0x95, 0x3e, 0xfa, 0x24, 0xae, 0x3d,
  0xd8, 0x08, 0xd5, 0xbb, 0xb7, 0x86, 0x12, 0xbf, 0x9d, 0x9a, 0xb1, 0x3e,
  0x4a, 0x34, 0x1a, 0x3f, 0x19, 0xeb, 0x39, 0x3f, 0xf9, 0x7a, 0xa5, 0xbd,
  0x04, 0x37, 0x4e, 0xbc, 0x25, 0x5f, 0x3e, 0x3f, 0x14, 0xe5, 0x98, 0x3e,
  0x7d, 0xca, 0x7c, 0xbf, 0xaa, 0x56, 0xc3, 0x3d, 0x32, 0x63, 0xe8, 0xbd,
  0x35, 0x89, 0xe5, 0xbe, 0x6c, 0x0b, 0x00, 0xbf, 0x01, 0x13, 0x11, 0xbf,
  0xff, 0x1b, 0x8c, 0xbe, 0x39, 0x5f, 0x37, 0x3d, 0x0f, 0xbe, 0x6a, 0xbd,
  0x13, 0x4e, 0xc1, 0x3d, 0xbf, 0xb6, 0x5b, 0x3e, 0x9b, 0x10, 0xf4, 0xbd,
  0x85, 0xb5, 0x02, 0x3e, 0xa9, 0xe5, 0xe4, 0xbe, 0x7d, 0x64, 0x09, 0x3e,
  0x35, 0xed, 0x26, 0xbd, 0xb5, 0x4e, 0xe3, 0xbe, 0x98, 0xd1, 0x75, 0x3f,
  0x36, 0x8d, 0x67, 0x3e, 0x53, 0x06, 0x2d, 0x3f, 0xe4, 0x2d, 0x7f, 0xbe,
  0xd0, 0x73, 0xab, 0x3c, 0x03, 0x8b, 0x37, 0x3f, 0xb1, 0xa8, 0x83, 0xbf,
  0xfa, 0xa0, 0x8a, 0xbe, 0x15, 0xca, 0x87, 0xbe, 0x80, 0x26, 0x23, 0x3e,
  0xcb, 0x31, 0x24, 0xbe, 0x43, 0x13, 0xf3, 0xbf, 0x01, 0x1b, 0x4f, 0x3f,
  0x0a, 0xca, 0x80, 0x3f, 0xe6, 0x97, 0x09, 0x40, 0x38, 0xf0, 0x17, 0xbf,
  0x64, 0xaa, 0x2b, 0x3f, 0x05, 0xc3, 0x17, 0x40, 0xd1, 0x40, 0x35, 0xbf,
  0xab, 0x17, 0x63, 0xbf, 0x3b, 0xfb, 0xe0, 0x3e, 0x3a, 0xad, 0x97, 0x3f,
  0x97, 0x0f, 0xbb, 0x3e, 0x0f, 0x02, 0x74, 0xbf, 0x87, 0x33, 0x4c, 0xbf,
  0xa7, 0xdb, 0x63, 0x3f, 0xb6, 0xf9, 0xcc, 0x3f, 0xaf, 0x73, 0xcc, 0x3e,
  0x5c, 0x85, 0x33, 0x3e, 0x1f, 0xb5, 0x7f, 0x3e, 0xa9, 0xa0, 0x25, 0x3d,
  0xeb, 0x61, 0x13, 0xbd, 0x96, 0x23, 0x53, 0x3f, 0xe4, 0xdb, 0x4e, 0x3f,
  0x7c, 0xf3, 0xa2, 0x3e, 0x03, 0xb7, 0x20, 0x3f, 0xf9, 0x13, 0x2e, 0xc0,
  0xdd, 0xe4, 0xfa, 0x3e, 0x83, 0x91, 0xab, 0xbd, 0xe7, 0x11, 0xd4, 0x3e,
  0x3c, 0x4f, 0x70, 0xbf, 0xd9, 0xe3, 0xc5, 0xbe, 0xa0, 0xd0, 0x61, 0xbd,
  0x95, 0xec, 0x6d, 0x3f, 0x55, 0xb8, 0x03, 0x3f, 0x6b, 0x98, 0x7b, 0xbe,
  0xd2, 0x9e, 0x69, 0xbe, 0xbf, 0x82, 0x5b, 0x3f, 0xbc, 0x70, 0x18, 0xbf,
  0x1a, 0x3c, 0x74, 0x3e, 0xc8, 0xe9, 0x4b, 0xbf, 0x1a, 0x7f, 0xad, 0xbd,
  0x9b, 0x11, 0xb4, 0xbf, 0x2c, 0xf1, 0x3d, 0xbf, 0x6a, 0xea, 0x34, 0x3e,
  0xe9, 0x13, 0x59, 0x3f, 0x0e, 0xc4, 0x4c, 0x3e, 0xac, 0xc9, 0x49, 0xbf,
  0xe5, 0x42, 0xb3, 0xbe, 0x84, 0xdb, 0x18, 0x3f, 0x58, 0xd6, 0xe2, 0x3e,
  0x65, 0xcf, 0x46, 0x3e, 0x59, 0x06, 0x00, 0xbf, 0x20, 0xa9, 0x5b, 0xbf,
  0x8d, 0xd5, 0x42, 0x3e, 0x73, 0xe4, 0xb9, 0xbe, 0xd8, 0x35, 0xa0, 0x3f,
  0xd9, 0x1c, 0x20, 0x3e, 0x2c, 0x11, 0x2e, 0x3f, 0x13, 0xbb, 0xaa, 0xbe,
  0xae, 0x4c, 0x9e, 0xbe, 0xb1, 0x7d, 0x6b, 0xbd, 0x02, 0xf6, 0x17, 0x3f,
  0x5a, 0x11, 0xc2, 0x3d, 0x0d, 0x38, 0x50, 0xbf, 0x3c, 0xd1, 0xf7, 0xbe,
  0xf5, 0x6a, 0xee, 0x3e, 0x13, 0xc7, 0x5d, 0xbc, 0x93, 0x5a, 0x29, 0xbd,
  0xf1, 0xb9, 0x03, 0xbf, 0x35, 0xa2, 0x01, 0xbf, 0x62, 0xa5, 0x8a, 0xbe,
  0xf0, 0x14, 0xe7, 0xbe, 0x6c, 0xe4, 0xd3, 0xbe, 0xa6, 0x67, 0x12, 0x3e,
  0x71, 0xe0, 0xa1, 0xbe, 0x11, 0x9b, 0x75, 0xbf, 0x21, 0x47, 0x6c, 0xbe,
  0x6f, 0x16, 0xf2, 0x3e, 0x10, 0x14, 0xa2, 0x3f, 0x3c, 0x3d, 0x97, 0x3e,
  0xe9, 0x64, 0x2d, 0xbf, 0x9d, 0xd0, 0xa8, 0x3f, 0x1d, 0x49, 0xb2, 0xbe,
